{
  "version": "1.0",
  "truncation": null,
  "padding": null,
  "added_tokens": [
    {
      "id": 0,
      "content": "<bos>",
      "single_word": false,
      "lstrip": false,
      "rstrip": false,
      "normalized": false,
      "special": true
    },
    {
      "id": 1,
      "content": "<eos>",
      "single_word": false,
      "lstrip": false,
      "rstrip": false,
      "normalized": false,
      "special": true
    },
    {
      "id": 2,
      "content": "<pad>",
      "single_word": false,
      "lstrip": false,
      "rstrip": false,
      "normalized": false,
      "special": true
    },
    {
      "id": 3,
      "content": "<newline>",
      "single_word": false,
      "lstrip": false,
      "rstrip": false,
      "normalized": false,
      "special": true
    }
  ],
  "normalizer": null,
  "pre_tokenizer": {
    "type": "Sequence",
    "pretokenizers": [
      {
        "type": "Whitespace"
      },
      {
        "type": "Punctuation",
        "behavior": "Isolated"
      }
    ]
  },
  "post_processor": null,
  "decoder": null,
  "model": {
    "type": "BPE",
    "dropout": null,
    "unk_token": null,
    "continuing_subword_prefix": null,
    "end_of_word_suffix": null,
    "fuse_unk": false,
    "byte_fallback": false,
    "ignore_merges": false,
    "vocab": {
      "<bos>": 0,
      "<eos>": 1,
      "<pad>": 2,
      "<newline>": 3,
      "!": 4,
      "'": 5,
      "(": 6,
      ")": 7,
      ",": 8,
      "-": 9,
      ".": 10,
      ":": 11,
      ";": 12,
      "?": 13,
      "A": 14,
      "B": 15,
      "C": 16,
      "D": 17,
      "E": 18,
      "F": 19,
      "G": 20,
      "H": 21,
      "I": 22,
      "J": 23,
      "L": 24,
      "M": 25,
      "N": 26,
      "O": 27,
      "P": 28,
      "Q": 29,
      "R": 30,
      "S": 31,
      "T": 32,
      "U": 33,
      "V": 34,
      "X": 35,
      "Z": 36,
      "[": 37,
      "]": 38,
      "a": 39,
      "b": 40,
      "c": 41,
      "d": 42,
      "e": 43,
      "f": 44,
      "g": 45,
      "h": 46,
      "i": 47,
      "j": 48,
      "l": 49,
      "m": 50,
      "n": 51,
      "o": 52,
      "p": 53,
      "q": 54,
      "r": 55,
      "s": 56,
      "t": 57,
      "u": 58,
      "v": 59,
      "x": 60,
      "z": 61,
      "~": 62,
      "«": 63,
      "»": 64,
      "À": 65,
      "Á": 66,
      "Ã": 67,
      "Ç": 68,
      "É": 69,
      "Í": 70,
      "Ó": 71,
      "Ô": 72,
      "à": 73,
      "á": 74,
      "â": 75,
      "ã": 76,
      "ç": 77,
      "è": 78,
      "é": 79,
      "ê": 80,
      "ë": 81,
      "ì": 82,
      "í": 83,
      "ï": 84,
      "ò": 85,
      "ó": 86,
      "ô": 87,
      "õ": 88,
      "ù": 89,
      "ú": 90,
      "ü": 91,
      "’": 92,
      "os": 93,
      "ra": 94,
      "es": 95,
      "ue": 96,
      "as": 97,
      "do": 98,
      "nt": 99,
      "de": 100,
      "que": 101,
      "er": 102,
      "or": 103,
      "da": 104,
      "se": 105,
      "ar": 106,
      "co": 107,
      "an": 108,
      "em": 109,
      "al": 110,
      "ão": 111,
      "in": 112,
      "en": 113,
      "am": 114,
      "is": 115,
      "ent": 116,
      "to": 117,
      "re": 118,
      "ia": 119,
      "ta": 120,
      "ro": 121,
      "ei": 122,
      "us": 123,
      "te": 124,
      "Que": 125,
      "lh": 126,
      "ri": 127,
      "ma": 128,
      "ou": 129,
      "ca": 130,
      "no": 131,
      "va": 132,
      "dos": 133,
      "el": 134,
      "des": 135,
      "com": 136,
      "na": 137,
      "po": 138,
      "ente": 139,
      "era": 140,
      "um": 141,
      "vi": 142,
      "on": 143,
      "om": 144,
      "ando": 145,
      "De": 146,
      "ter": 147,
      "qu": 148,
      "go": 149,
      "di": 150,
      "ant": 151,
      "tra": 152,
      "im": 153,
      "por": 154,
      "gu": 155,
      "tu": 156,
      "ci": 157,
      "não": 158,
      "ce": 159,
      "ha": 160,
      "so": 161,
      "das": 162,
      "ros": 163,
      "ti": 164,
      "me": 165,
      "lhe": 166,
      "sa": 167,
      "ça": 168,
      "ran": 169,
      "res": 170,
      "Por": 171,
      "ga": 172,
      "est": 173,
      "un": 174,
      "ve": 175,
      "fi": 176,
      "ver": 177,
      "le": 178,
      "con": 179,
      "for": 180,
      "ria": 181,
      "par": 182,
      "la": 183,
      "su": 184,
      "ras": 185,
      "Com": 186,
      "si": 187,
      "per": 188,
      "tem": 189,
      "tão": 190,
      "ram": 191,
      "mais": 192,
      "mar": 193,
      "tos": 194,
      "cor": 195,
      "cu": 196,
      "endo": 197,
      "fa": 198,
      "ch": 199,
      "gente": 200,
      "li": 201,
      "lo": 202,
      "ama": 203,
      "fo": 204,
      "Mas": 205,
      "nte": 206,
      "vo": 207,
      "fer": 208,
      "dade": 209,
      "pa": 210,
      "pi": 211,
      "bi": 212,
      "ba": 213,
      "terra": 214,
      "gran": 215,
      "Es": 216,
      "já": 217,
      "cer": 218,
      "nto": 219,
      "sem": 220,
      "cos": 221,
      "Rei": 222,
      "mu": 223,
      "pe": 224,
      "ao": 225,
      "man": 226,
      "mos": 227,
      "pera": 228,
      "esta": 229,
      "ina": 230,
      "ser": 231,
      "nta": 232,
      "ento": 233,
      "quem": 234,
      "tro": 235,
      "mo": 236,
      "nos": 237,
      "ano": 238,
      "As": 239,
      "ju": 240,
      "mas": 241,
      "lha": 242,
      "ino": 243,
      "ja": 244,
      "pro": 245,
      "be": 246,
      "Os": 247,
      "Do": 248,
      "qui": 249,
      "Se": 250,
      "dia": 251,
      "mi": 252,
      "vam": 253,
      "eito": 254,
      "Não": 255,
      "ho": 256,
      "vos": 257,
      "ela": 258,
      "anto": 259,
      "Qu": 260,
      "gos": 261,
      "du": 262,
      "pre": 263,
      "seu": 264,
      "undo": 265,
      "grande": 266,
      "rem": 267,
      "tas": 268,
      "Da": 269,
      "cont": 270,
      "inha": 271,
      "cia": 272,
      "ço": 273,
      "bra": 274,
      "ndo": 275,
      "tes": 276,
      "dei": 277,
      "pas": 278,
      "onde": 279,
      "ru": 280,
      "ém": 281,
      "ex": 282,
      "rio": 283,
      "como": 284,
      "usa": 285,
      "eg": 286,
      "pos": 287,
      "faz": 288,
      "mor": 289,
      "bre": 290,
      "lar": 291,
      "ende": 292,
      "tam": 293,
      "cas": 294,
      "Re": 295,
      "gue": 296,
      "tor": 297,
      "val": 298,
      "Ma": 299,
      "só": 300,
      "ven": 301,
      "ele": 302,
      "Pera": 303,
      "ir": 304,
      "lho": 305,
      "Co": 306,
      "hum": 307,
      "io": 308,
      "tal": 309,
      "za": 310,
      "ção": 311,
      "Em": 312,
      "nde": 313,
      "ris": 314,
      "tanto": 315,
      "ber": 316,
      "este": 317,
      "ala": 318,
      "cam": 319,
      "pri": 320,
      "mui": 321,
      "entes": 322,
      "Ou": 323,
      "jo": 324,
      "pres": 325,
      "eiro": 326,
      "Ca": 327,
      "car": 328,
      "he": 329,
      "der": 330,
      "seus": 331,
      "ós": 332,
      "ouro": 333,
      "Na": 334,
      "águ": 335,
      "il": 336,
      "oso": 337,
      "nas": 338,
      "ês": 339,
      "ões": 340,
      "foi": 341,
      "Já": 342,
      "üa": 343,
      "No": 344,
      "tre": 345,
      "ntes": 346,
      "mal": 347,
      "pan": 348,
      "êm": 349,
      "pois": 350,
      "ás": 351,
      "bem": 352,
      "Deus": 353,
      "pare": 354,
      "enta": 355,
      "igos": 356,
      "mundo": 357,
      "pu": 358,
      "sos": 359,
      "pou": 360,
      "peito": 361,
      "éu": 362,
      "bo": 363,
      "lon": 364,
      "vis": 365,
      "ória": 366,
      "ne": 367,
      "ana": 368,
      "Lus": 369,
      "bar": 370,
      "ên": 371,
      "lhos": 372,
      "ces": 373,
      "eu": 374,
      "fim": 375,
      "indo": 376,
      "nome": 377,
      "pel": 378,
      "fal": 379,
      "pr": 380,
      "dor": 381,
      "dar": 382,
      "ali": 383,
      "igo": 384,
      "ores": 385,
      "inda": 386,
      "sua": 387,
      "segu": 388,
      "eitos": 389,
      "bém": 390,
      "fu": 391,
      "pé": 392,
      "vent": 393,
      "ens": 394,
      "ança": 395,
      "eng": 396,
      "forte": 397,
      "So": 398,
      "anos": 399,
      "vão": 400,
      "arte": 401,
      "unca": 402,
      "sempre": 403,
      "it": 404,
      "ira": 405,
      "ças": 406,
      "toda": 407,
      "rias": 408,
      "tempo": 409,
      "ência": 410,
      "ge": 411,
      "dese": 412,
      "guer": 413,
      "In": 414,
      "dis": 415,
      "hos": 416,
      "tros": 417,
      "vida": 418,
      "diz": 419,
      "parte": 420,
      "bal": 421,
      "las": 422,
      "vas": 423,
      "tran": 424,
      "manda": 425,
      "gi": 426,
      "pes": 427,
      "está": 428,
      "fama": 429,
      "tudo": 430,
      "Onde": 431,
      "lu": 432,
      "são": 433,
      "deix": 434,
      "Po": 435,
      "bri": 436,
      "lá": 437,
      "té": 438,
      "ura": 439,
      "todo": 440,
      "eram": 441,
      "Des": 442,
      "cre": 443,
      "ni": 444,
      "tando": 445,
      "assi": 446,
      "mostra": 447,
      "Lusit": 448,
      "Al": 449,
      "fe": 450,
      "gar": 451,
      "hor": 452,
      "nunca": 453,
      "compan": 454,
      "força": 455,
      "prim": 456,
      "Céu": 457,
      "eio": 458,
      "quanto": 459,
      "antes": 460,
      "Como": 461,
      "também": 462,
      "Dos": 463,
      "les": 464,
      "ís": 465,
      "eno": 466,
      "rei": 467,
      "eiros": 468,
      "Reino": 469,
      "anda": 470,
      "amor": 471,
      "todos": 472,
      "outra": 473,
      "Portu": 474,
      "men": 475,
      "pra": 476,
      "vem": 477,
      "leva": 478,
      "tar": 479,
      "tinha": 480,
      "vor": 481,
      "passa": 482,
      "aju": 483,
      "has": 484,
      "rá": 485,
      "vá": 486,
      "ín": 487,
      "rios": 488,
      "mada": 489,
      "Quando": 490,
      "ilus": 491,
      "Di": 492,
      "clar": 493,
      "ida": 494,
      "gado": 495,
      "fro": 496,
      "asse": 497,
      "amos": 498,
      "pitão": 499,
      "som": 500,
      "pode": 501,
      "traz": 502,
      "aos": 503,
      "mã": 504,
      "espera": 505,
      "quer": 506,
      "aleg": 507,
      "enfim": 508,
      "outro": 509,
      "gora": 510,
      "trabal": 511,
      "cio": 512,
      "Um": 513,
      "aqui": 514,
      "ten": 515,
      "via": 516,
      "escu": 517,
      "logo": 518,
      "contra": 519,
      "água": 520,
      "Das": 521,
      "bus": 522,
      "bran": 523,
      "idade": 524,
      "ân": 525,
      "armas": 526,
      "amente": 527,
      "povo": 528,
      "ante": 529,
      "verdade": 530,
      "ac": 531,
      "bel": 532,
      "gl": 533,
      "gentes": 534,
      "ido": 535,
      "int": 536,
      "sal": 537,
      "zes": 538,
      "ços": 539,
      "entre": 540,
      "qual": 541,
      "cido": 542,
      "Porque": 543,
      "ves": 544,
      "vós": 545,
      "eira": 546,
      "vir": 547,
      "Portugu": 548,
      "Fa": 549,
      "var": 550,
      "estran": 551,
      "vai": 552,
      "tura": 553,
      "filho": 554,
      "fermos": 555,
      "Ent": 556,
      "Mouro": 557,
      "mente": 558,
      "ul": 559,
      "esto": 560,
      "sen": 561,
      "águas": 562,
      "companh": 563,
      "Sem": 564,
      "aque": 565,
      "gas": 566,
      "rece": 567,
      "ouros": 568,
      "nobre": 569,
      "anta": 570,
      "che": 571,
      "Capitão": 572,
      "guerra": 573,
      "Af": 574,
      "Cas": 575,
      "Gama": 576,
      "Nem": 577,
      "can": 578,
      "eis": 579,
      "lim": 580,
      "rão": 581,
      "esp": 582,
      "inf": 583,
      "ins": 584,
      "come": 585,
      "terras": 586,
      "grandes": 587,
      "morte": 588,
      "En": 589,
      "Fo": 590,
      "dá": 591,
      "fra": 592,
      "gra": 593,
      "olhos": 594,
      "sus": 595,
      "ár": 596,
      "arde": 597,
      "elas": 598,
      "despois": 599,
      "quando": 600,
      "pouco": 601,
      "gri": 602,
      "pen": 603,
      "sin": 604,
      "sent": 605,
      "inho": 606,
      "Quem": 607,
      "nave": 608,
      "fica": 609,
      "certo": 610,
      "Assi": 611,
      "muito": 612,
      "Te": 613,
      "cem": 614,
      "pá": 615,
      "vendo": 616,
      "ér": 617,
      "inim": 618,
      "Ar": 619,
      "Cris": 620,
      "Olha": 621,
      "ada": 622,
      "mes": 623,
      "tr": 624,
      "vê": 625,
      "cora": 626,
      "poder": 627,
      "quis": 628,
      "cidade": 629,
      "Lhe": 630,
      "mem": 631,
      "às": 632,
      "ale": 633,
      "rica": 634,
      "naus": 635,
      "sober": 636,
      "sub": 637,
      "Sol": 638,
      "luz": 639,
      "claro": 640,
      "Aqui": 641,
      "To": 642,
      "ad": 643,
      "apare": 644,
      "há": 645,
      "rendo": 646,
      "têm": 647,
      "vento": 648,
      "xo": 649,
      "osos": 650,
      "alg": 651,
      "Este": 652,
      "Qual": 653,
      "Mouros": 654,
      "ais": 655,
      "cel": 656,
      "ham": 657,
      "ns": 658,
      "nem": 659,
      "entos": 660,
      "outros": 661,
      "caval": 662,
      "ondas": 663,
      "dura": 664,
      "ilustre": 665,
      "ab": 666,
      "grão": 667,
      "obe": 668,
      "alta": 669,
      "tais": 670,
      "tava": 671,
      "imo": 672,
      "imento": 673,
      "porque": 674,
      "conhe": 675,
      "fora": 676,
      "costa": 677,
      "estava": 678,
      "mil": 679,
      "vista": 680,
      "fez": 681,
      "Tu": 682,
      "mer": 683,
      "vin": 684,
      "usas": 685,
      "menos": 686,
      "pát": 687,
      "hon": 688,
      "neg": 689,
      "san": 690,
      "trem": 691,
      "dores": 692,
      "enhum": 693,
      "fogo": 694,
      "fero": 695,
      "Caste": 696,
      "cr": 697,
      "fl": 698,
      "iga": 699,
      "pô": 700,
      "sor": 701,
      "uro": 702,
      "raz": 703,
      "esfor": 704,
      "def": 705,
      "desco": 706,
      "cuida": 707,
      "Cont": 708,
      "agora": 709,
      "ece": 710,
      "far": 711,
      "fera": 712,
      "feitos": 713,
      "ios": 714,
      "idos": 715,
      "espa": 716,
      "alto": 717,
      "vit": 718,
      "cul": 719,
      "Mais": 720,
      "alav": 721,
      "longe": 722,
      "esforço": 723,
      "Ali": 724,
      "Dest": 725,
      "los": 726,
      "vêm": 727,
      "ções": 728,
      "armada": 729,
      "alma": 730,
      "isto": 731,
      "rando": 732,
      "duro": 733,
      "disse": 734,
      "Portugues": 735,
      "Nos": 736,
      "Ter": 737,
      "Tor": 738,
      "ban": 739,
      "dão": 740,
      "palav": 741,
      "Ín": 742,
      "teu": 743,
      "dido": 744,
      "estas": 745,
      "ventura": 746,
      "ardente": 747,
      "jus": 748,
      "má": 749,
      "pela": 750,
      "doce": 751,
      "dece": 752,
      "dado": 753,
      "inc": 754,
      "inas": 755,
      "toma": 756,
      "tant": 757,
      "lhas": 758,
      "cabe": 759,
      "chama": 760,
      "pass": 761,
      "íss": 762,
      "glória": 763,
      "palavras": 764,
      "Con": 765,
      "Mar": 766,
      "Vi": 767,
      "ado": 768,
      "eter": 769,
      "esti": 770,
      "dando": 771,
      "inos": 772,
      "tado": 773,
      "cida": 774,
      "vezes": 775,
      "conse": 776,
      "Deuses": 777,
      "pelo": 778,
      "Pois": 779,
      "Diz": 780,
      "Ilha": 781,
      "Per": 782,
      "bas": 783,
      "cla": 784,
      "feito": 785,
      "fundo": 786,
      "gesto": 787,
      "ias": 788,
      "mão": 789,
      "ptu": 790,
      "sá": 791,
      "çam": 792,
      "elo": 793,
      "deste": 794,
      "cios": 795,
      "estão": 796,
      "bil": 797,
      "campo": 798,
      "parece": 799,
      "deseja": 800,
      "primeiro": 801,
      "Faz": 802,
      "Entre": 803,
      "pátria": 804,
      "Ao": 805,
      "Cu": 806,
      "Cos": 807,
      "Me": 808,
      "Ori": 809,
      "Pro": 810,
      "Ser": 811,
      "bras": 812,
      "fre": 813,
      "ima": 814,
      "nenhum": 815,
      "ora": 816,
      "amento": 817,
      "eita": 818,
      "guar": 819,
      "roso": 820,
      "diante": 821,
      "senhor": 822,
      "For": 823,
      "ach": 824,
      "fí": 825,
      "gem": 826,
      "ig": 827,
      "nu": 828,
      "tá": 829,
      "tanta": 830,
      "eles": 831,
      "pot": 832,
      "ume": 833,
      "div": 834,
      "bara": 835,
      "Despois": 836,
      "Afon": 837,
      "sangue": 838,
      "sorte": 839,
      "Nas": 840,
      "aco": 841,
      "gera": 842,
      "ousa": 843,
      "sas": 844,
      "del": 845,
      "ini": 846,
      "rou": 847,
      "cado": 848,
      "dest": 849,
      "nada": 850,
      "term": 851,
      "perigos": 852,
      "peque": 853,
      "remo": 854,
      "humano": 855,
      "engano": 856,
      "outras": 857,
      "algum": 858,
      "Índia": 859,
      "An": 860,
      "Is": 861,
      "Ro": 862,
      "ava": 863,
      "bera": 864,
      "bela": 865,
      "fos": 866,
      "fia": 867,
      "gando": 868,
      "hom": 869,
      "lan": 870,
      "son": 871,
      "tris": 872,
      "medo": 873,
      "temer": 874,
      "ferro": 875,
      "bido": 876,
      "companhia": 877,
      "coração": 878,
      "Contra": 879,
      "Afonso": 880,
      "Cor": 881,
      "Lá": 882,
      "Tem": 883,
      "Ver": 884,
      "nós": 885,
      "pele": 886,
      "tí": 887,
      "tri": 888,
      "éus": 889,
      "éli": 890,
      "esse": 891,
      "orde": 892,
      "entra": 893,
      "novo": 894,
      "viu": 895,
      "fir": 896,
      "leve": 897,
      "partes": 898,
      "excel": 899,
      "Reis": 900,
      "pério": 901,
      "várias": 902,
      "frota": 903,
      "Dei": 904,
      "cri": 905,
      "dro": 906,
      "fam": 907,
      "famos": 908,
      "tis": 909,
      "escon": 910,
      "dou": 911,
      "quele": 912,
      "alh": 913,
      "enda": 914,
      "tou": 915,
      "eias": 916,
      "imos": 917,
      "estre": 918,
      "mares": 919,
      "corpo": 920,
      "voz": 921,
      "junt": 922,
      "pró": 923,
      "ventos": 924,
      "Lusitano": 925,
      "mãos": 926,
      "Tejo": 927,
      "aleva": 928,
      "Fer": 929,
      "Marte": 930,
      "Ne": 931,
      "Vê": 932,
      "cá": 933,
      "fin": 934,
      "igu": 935,
      "lou": 936,
      "lança": 937,
      "vinha": 938,
      "osas": 939,
      "donde": 940,
      "dele": 941,
      "alha": 942,
      "ist": 943,
      "tom": 944,
      "desta": 945,
      "gada": 946,
      "favor": 947,
      "pai": 948,
      "fazer": 949,
      "largo": 950,
      "taman": 951,
      "vence": 952,
      "caminho": 953,
      "Neptu": 954,
      "Bem": 955,
      "Eu": 956,
      "Fi": 957,
      "Gent": 958,
      "Lei": 959,
      "Mu": 960,
      "Pa": 961,
      "Sa": 962,
      "Su": 963,
      "Vês": 964,
      "bom": 965,
      "bru": 966,
      "cris": 967,
      "iam": 968,
      "minha": 969,
      "num": 970,
      "obri": 971,
      "peitos": 972,
      "ré": 973,
      "ze": 974,
      "és": 975,
      "órias": 976,
      "dous": 977,
      "antigo": 978,
      "guns": 979,
      "tuna": 980,
      "cidos": 981,
      "cede": 982,
      "sabe": 983,
      "estes": 984,
      "estende": 985,
      "braço": 986,
      "fermosa": 987,
      "Foi": 988,
      "memória": 989,
      "Ci": 990,
      "Tão": 991,
      "Ve": 992,
      "apres": 993,
      "bia": 994,
      "cí": 995,
      "fres": 996,
      "fria": 997,
      "frio": 998,
      "gal": 999,
      "jam": 1000,
      "ofer": 1001,
      "pens": 1002,
      "determ": 1003,
      "dano": 1004,
      "cou": 1005,
      "cousas": 1006,
      "anas": 1007,
      "ponde": 1008,
      "dias": 1009,
      "dida": 1010,
      "direi": 1011,
      "porto": 1012,
      "sol": 1013,
      "rosto": 1014,
      "Porém": 1015,
      "unda": 1016,
      "filhos": 1017,
      "cuja": 1018,
      "cho": 1019,
      "junto": 1020,
      "posto": 1021,
      "caso": 1022,
      "torn": 1023,
      "presa": 1024,
      "trabalho": 1025,
      "buscar": 1026,
      "estranha": 1027,
      "aquele": 1028,
      "espada": 1029,
      "vitória": 1030,
      "Gu": 1031,
      "Le": 1032,
      "Oce": 1033,
      "Pr": 1034,
      "Ven": 1035,
      "aper": 1036,
      "cando": 1037,
      "cendo": 1038,
      "fú": 1039,
      "gre": 1040,
      "jos": 1041,
      "obras": 1042,
      "rer": 1043,
      "tum": 1044,
      "xa": 1045,
      "ási": 1046,
      "ntando": 1047,
      "dela": 1048,
      "inh": 1049,
      "inci": 1050,
      "enho": 1051,
      "tomar": 1052,
      "reino": 1053,
      "tante": 1054,
      "cada": 1055,
      "nova": 1056,
      "nau": 1057,
      "nado": 1058,
      "natura": 1059,
      "vido": 1060,
      "terr": 1061,
      "antas": 1062,
      "antiga": 1063,
      "til": 1064,
      "tido": 1065,
      "veja": 1066,
      "suas": 1067,
      "sima": 1068,
      "será": 1069,
      "vosso": 1070,
      "casti": 1071,
      "desejo": 1072,
      "íssima": 1073,
      "trabalhos": 1074,
      "inimigos": 1075,
      "Cristo": 1076,
      "crue": 1077,
      "Portugueses": 1078,
      "potente": 1079,
      "triste": 1080,
      "Oceano": 1081,
      "Amor": 1082,
      "Agora": 1083,
      "Ju": 1084,
      "Mos": 1085,
      "Ninf": 1086,
      "Par": 1087,
      "Rom": 1088,
      "Tal": 1089,
      "Tom": 1090,
      "Tanto": 1091,
      "apar": 1092,
      "bos": 1093,
      "lí": 1094,
      "nça": 1095,
      "neste": 1096,
      "santa": 1097,
      "vã": 1098,
      "velas": 1099,
      "zas": 1100,
      "ón": 1101,
      "úbi": 1102,
      "quela": 1103,
      "sendo": 1104,
      "ang": 1105,
      "teve": 1106,
      "mai": 1107,
      "vil": 1108,
      "Deusa": 1109,
      "dio": 1110,
      "sobera": 1111,
      "corre": 1112,
      "mora": 1113,
      "monte": 1114,
      "quie": 1115,
      "poss": 1116,
      "campos": 1117,
      "muitos": 1118,
      "Outros": 1119,
      "longo": 1120,
      "segundo": 1121,
      "fronte": 1122,
      "mãe": 1123,
      "alegria": 1124,
      "sust": 1125,
      "naveg": 1126,
      "Castelh": 1127,
      "íssimo": 1128,
      "firme": 1129,
      "Neptuno": 1130,
      "obriga": 1131,
      "Ninfas": 1132,
      "Ant": 1133,
      "Até": 1134,
      "Pela": 1135,
      "Só": 1136,
      "Vendo": 1137,
      "aca": 1138,
      "bu": 1139,
      "gia": 1140,
      "iu": 1141,
      "jeito": 1142,
      "santo": 1143,
      "tendo": 1144,
      "ámos": 1145,
      "queles": 1146,
      "seja": 1147,
      "cobi": 1148,
      "altos": 1149,
      "ind": 1150,
      "mado": 1151,
      "viz": 1152,
      "tras": 1153,
      "tua": 1154,
      "sobre": 1155,
      "meu": 1156,
      "ledo": 1157,
      "cons": 1158,
      "fortes": 1159,
      "temor": 1160,
      "loto": 1161,
      "vol": 1162,
      "muros": 1163,
      "ped": 1164,
      "montes": 1165,
      "milh": 1166,
      "vossos": 1167,
      "valer": 1168,
      "Outro": 1169,
      "derra": 1170,
      "pelas": 1171,
      "irado": 1172,
      "deixa": 1173,
      "somente": 1174,
      "verdadei": 1175,
      "virtu": 1176,
      "grimas": 1177,
      "aparelha": 1178,
      "razão": 1179,
      "defende": 1180,
      "Terra": 1181,
      "clara": 1182,
      "Oriente": 1183,
      "Mui": 1184,
      "cristal": 1185,
      "determina": 1186,
      "Cam": 1187,
      "Eis": 1188,
      "Pos": 1189,
      "Sen": 1190,
      "ai": 1191,
      "cru": 1192,
      "céu": 1193,
      "cança": 1194,
      "gen": 1195,
      "geiro": 1196,
      "veram": 1197,
      "zo": 1198,
      "én": 1199,
      "émi": 1200,
      "osa": 1201,
      "rava": 1202,
      "isso": 1203,
      "mata": 1204,
      "vado": 1205,
      "vidos": 1206,
      "tira": 1207,
      "velho": 1208,
      "fiz": 1209,
      "sigo": 1210,
      "liv": 1211,
      "foram": 1212,
      "vonta": 1213,
      "bai": 1214,
      "baxo": 1215,
      "Esta": 1216,
      "Estre": 1217,
      "certa": 1218,
      "humana": 1219,
      "dizia": 1220,
      "Lusitana": 1221,
      "ínci": 1222,
      "chega": 1223,
      "lime": 1224,
      "mere": 1225,
      "bandei": 1226,
      "sábi": 1227,
      "Isto": 1228,
      "Mostra": 1229,
      "Ch": 1230,
      "Fe": 1231,
      "Mo": 1232,
      "Mala": 1233,
      "Tra": 1234,
      "atre": 1235,
      "bres": 1236,
      "cum": 1237,
      "cano": 1238,
      "cele": 1239,
      "dum": 1240,
      "gni": 1241,
      "ite": 1242,
      "lia": 1243,
      "pia": 1244,
      "tin": 1245,
      "sei": 1246,
      "anha": 1247,
      "alcança": 1248,
      "enx": 1249,
      "ença": 1250,
      "ame": 1251,
      "amores": 1252,
      "entar": 1253,
      "rom": 1254,
      "eiras": 1255,
      "rico": 1256,
      "causa": 1257,
      "desse": 1258,
      "desbara": 1259,
      "quási": 1260,
      "gover": 1261,
      "sono": 1262,
      "tico": 1263,
      "meus": 1264,
      "vereis": 1265,
      "Come": 1266,
      "sidade": 1267,
      "perto": 1268,
      "cur": 1269,
      "cujo": 1270,
      "paz": 1271,
      "trou": 1272,
      "prov": 1273,
      "prome": 1274,
      "Quanto": 1275,
      "exprim": 1276,
      "extrem": 1277,
      "fazem": 1278,
      "fazendo": 1279,
      "torna": 1280,
      "valor": 1281,
      "berto": 1282,
      "pouca": 1283,
      "escura": 1284,
      "ânia": 1285,
      "Português": 1286,
      "pene": 1287,
      "sinal": 1288,
      "Destarte": 1289,
      "Fortuna": 1290,
      "juntamente": 1291,
      "Aus": 1292,
      "Baco": 1293,
      "Li": 1294,
      "Mel": 1295,
      "Manda": 1296,
      "Nin": 1297,
      "Pe": 1298,
      "Pó": 1299,
      "Tam": 1300,
      "at": 1301,
      "atro": 1302,
      "bros": 1303,
      "hou": 1304,
      "lem": 1305,
      "lti": 1306,
      "min": 1307,
      "ment": 1308,
      "mento": 1309,
      "nela": 1310,
      "pal": 1311,
      "rindo": 1312,
      "tia": 1313,
      "deu": 1314,
      "eres": 1315,
      "ará": 1316,
      "arra": 1317,
      "ares": 1318,
      "ane": 1319,
      "ena": 1320,
      "uso": 1321,
      "cava": 1322,
      "difer": 1323,
      "antos": 1324,
      "saber": 1325,
      "filha": 1326,
      "versos": 1327,
      "forças": 1328,
      "perigo": 1329,
      "coro": 1330,
      "cores": 1331,
      "lima": 1332,
      "piter": 1333,
      "bidos": 1334,
      "pede": 1335,
      "deiro": 1336,
      "ruí": 1337,
      "posta": 1338,
      "Luso": 1339,
      "pelos": 1340,
      "falta": 1341,
      "prémi": 1342,
      "seguro": 1343,
      "fur": 1344,
      "lágrimas": 1345,
      "horrendo": 1346,
      "companha": 1347,
      "vários": 1348,
      "cansa": 1349,
      "érci": 1350,
      "Crist": 1351,
      "soberba": 1352,
      "sublime": 1353,
      "cavaleiro": 1354,
      "Castela": 1355,
      "tantas": 1356,
      "cabeça": 1357,
      "passar": 1358,
      "fosse": 1359,
      "Gentio": 1360,
      "virtude": 1361,
      "vontade": 1362,
      "Jo": 1363,
      "Lo": 1364,
      "Pad": 1365,
      "Uns": 1366,
      "Vai": 1367,
      "aces": 1368,
      "cimento": 1369,
      "eza": 1370,
      "fei": 1371,
      "fala": 1372,
      "fér": 1373,
      "icos": 1374,
      "lei": 1375,
      "nam": 1376,
      "ren": 1377,
      "súbi": 1378,
      "tens": 1379,
      "vês": 1380,
      "ório": 1381,
      "õe": 1382,
      "ravi": 1383,
      "damas": 1384,
      "cousa": 1385,
      "amar": 1386,
      "rega": 1387,
      "reza": 1388,
      "rique": 1389,
      "mant": 1390,
      "novas": 1391,
      "vidas": 1392,
      "didos": 1393,
      "gua": 1394,
      "cima": 1395,
      "habi": 1396,
      "figu": 1397,
      "batal": 1398,
      "mance": 1399,
      "manha": 1400,
      "maneira": 1401,
      "sereno": 1402,
      "ntava": 1403,
      "duz": 1404,
      "exérci": 1405,
      "larga": 1406,
      "panha": 1407,
      "pul": 1408,
      "falso": 1409,
      "pér": 1410,
      "dizendo": 1411,
      "téis": 1412,
      "brando": 1413,
      "glor": 1414,
      "Enquanto": 1415,
      "soberbo": 1416,
      "obedi": 1417,
      "flores": 1418,
      "pôs": 1419,
      "tantos": 1420,
      "imag": 1421,
      "geração": 1422,
      "pensamento": 1423,
      "Prínci": 1424,
      "terreno": 1425,
      "ónio": 1426,
      "Ninfa": 1427,
      "Padre": 1428,
      "Príncipe": 1429,
      "Am": 1430,
      "Ará": 1431,
      "Dom": 1432,
      "Jú": 1433,
      "Mon": 1434,
      "Mundo": 1435,
      "Pelo": 1436,
      "Ra": 1437,
      "Vén": 1438,
      "cria": 1439,
      "edi": 1440,
      "gent": 1441,
      "lis": 1442,
      "lín": 1443,
      "plo": 1444,
      "ses": 1445,
      "sou": 1446,
      "tende": 1447,
      "ãos": 1448,
      "íbil": 1449,
      "óni": 1450,
      "rado": 1451,
      "esa": 1452,
      "dava": 1453,
      "aria": 1454,
      "inhos": 1455,
      "enquanto": 1456,
      "então": 1457,
      "reg": 1458,
      "repo": 1459,
      "taram": 1460,
      "rib": 1461,
      "cara": 1462,
      "noite": 1463,
      "antigos": 1464,
      "imigos": 1465,
      "çado": 1466,
      "conver": 1467,
      "cheg": 1468,
      "pais": 1469,
      "pie": 1470,
      "piloto": 1471,
      "batéis": 1472,
      "nossos": 1473,
      "profundo": 1474,
      "vossa": 1475,
      "contrá": 1476,
      "braços": 1477,
      "usado": 1478,
      "mortos": 1479,
      "sós": 1480,
      "Cabo": 1481,
      "pura": 1482,
      "Sobre": 1483,
      "Ing": 1484,
      "Lusitanos": 1485,
      "passados": 1486,
      "ajunt": 1487,
      "ajuda": 1488,
      "acha": 1489,
      "árbar": 1490,
      "obede": 1491,
      "Tudo": 1492,
      "honras": 1493,
      "divina": 1494,
      "peleja": 1495,
      "ordena": 1496,
      "Deix": 1497,
      "próp": 1498,
      "Castelhano": 1499,
      "celebra": 1500,
      "Pólo": 1501,
      "Também": 1502,
      "prémio": 1503,
      "Vénus": 1504,
      "Ale": 1505,
      "Era": 1506,
      "Fran": 1507,
      "Im": 1508,
      "Ti": 1509,
      "ador": 1510,
      "acompanha": 1511,
      "cin": 1512,
      "dre": 1513,
      "eia": 1514,
      "hores": 1515,
      "ilha": 1516,
      "jas": 1517,
      "lus": 1518,
      "lina": 1519,
      "mando": 1520,
      "meio": 1521,
      "nando": 1522,
      "nesta": 1523,
      "nisto": 1524,
      "vela": 1525,
      "vores": 1526,
      "ães": 1527,
      "étis": 1528,
      "espes": 1529,
      "setas": 1530,
      "altas": 1531,
      "entende": 1532,
      "tados": 1533,
      "rode": 1534,
      "maravi": 1535,
      "canto": 1536,
      "cabel": 1537,
      "eli": 1538,
      "diam": 1539,
      "dito": 1540,
      "ditos": 1541,
      "trato": 1542,
      "guia": 1543,
      "estar": 1544,
      "uns": 1545,
      "ficou": 1546,
      "forma": 1547,
      "parti": 1548,
      "lava": 1549,
      "feros": 1550,
      "pinta": 1551,
      "Espanha": 1552,
      "costu": 1553,
      "costum": 1554,
      "estade": 1555,
      "modo": 1556,
      "juí": 1557,
      "bravo": 1558,
      "exper": 1559,
      "breve": 1560,
      "vencer": 1561,
      "irá": 1562,
      "Catu": 1563,
      "ásper": 1564,
      "sosse": 1565,
      "poucos": 1566,
      "princi": 1567,
      "ventu": 1568,
      "engenho": 1569,
      "mensa": 1570,
      "praia": 1571,
      "ajunta": 1572,
      "trazia": 1573,
      "alegre": 1574,
      "inter": 1575,
      "navega": 1576,
      "três": 1577,
      "pôr": 1578,
      "vitórias": 1579,
      "eterna": 1580,
      "conselho": 1581,
      "achar": 1582,
      "fício": 1583,
      "élica": 1584,
      "famosa": 1585,
      "apresenta": 1586,
      "aperce": 1587,
      "maior": 1588,
      "sábio": 1589,
      "Malabar": 1590,
      "enxer": 1591,
      "exprimenta": 1592,
      "furor": 1593,
      "exército": 1594,
      "Júpiter": 1595,
      "Auro": 1596,
      "Car": 1597,
      "Cum": 1598,
      "Desta": 1599,
      "Fu": 1600,
      "Fé": 1601,
      "Indo": 1602,
      "Pas": 1603,
      "Vos": 1604,
      "aves": 1605,
      "ben": 1606,
      "fem": 1607,
      "fende": 1608,
      "gio": 1609,
      "ide": 1610,
      "mis": 1611,
      "nças": 1612,
      "pros": 1613,
      "sum": 1614,
      "udo": 1615,
      "uno": 1616,
      "vindo": 1617,
      "esc": 1618,
      "quebra": 1619,
      "damente": 1620,
      "ani": 1621,
      "amigos": 1622,
      "rea": 1623,
      "rec": 1624,
      "tada": 1625,
      "teus": 1626,
      "riba": 1627,
      "nobres": 1628,
      "polo": 1629,
      "quais": 1630,
      "goa": 1631,
      "dili": 1632,
      "guém": 1633,
      "cil": 1634,
      "soa": 1635,
      "sof": 1636,
      "responde": 1637,
      "leda": 1638,
      "leal": 1639,
      "consigo": 1640,
      "amada": 1641,
      "pint": 1642,
      "grand": 1643,
      "moço": 1644,
      "prova": 1645,
      "gosto": 1646,
      "duros": 1647,
      "preço": 1648,
      "preza": 1649,
      "exer": 1650,
      "casos": 1651,
      "boa": 1652,
      "neces": 1653,
      "pés": 1654,
      "guerras": 1655,
      "lugar": 1656,
      "Alguns": 1657,
      "feia": 1658,
      "primeira": 1659,
      "esperança": 1660,
      "ânimo": 1661,
      "acen": 1662,
      "belicos": 1663,
      "senhores": 1664,
      "espanto": 1665,
      "fraco": 1666,
      "pena": 1667,
      "inimigo": 1668,
      "flor": 1669,
      "fará": 1670,
      "Portuguesa": 1671,
      "justo": 1672,
      "justa": 1673,
      "cidades": 1674,
      "senhorio": 1675,
      "divino": 1676,
      "ousadia": 1677,
      "homens": 1678,
      "triun": 1679,
      "famoso": 1680,
      "esconde": 1681,
      "alevanta": 1682,
      "ofere": 1683,
      "fúria": 1684,
      "cruel": 1685,
      "Posto": 1686,
      "gener": 1687,
      "Joane": 1688,
      "Logo": 1689,
      "namora": 1690,
      "língua": 1691,
      "árbaro": 1692,
      "costumes": 1693,
      "Aurora": 1694,
      "Aquele": 1695,
      "Du": 1696,
      "Dá": 1697,
      "Her": 1698,
      "Ni": 1699,
      "Ner": 1700,
      "Neste": 1701,
      "Traz": 1702,
      "Vão": 1703,
      "agu": 1704,
      "abri": 1705,
      "agas": 1706,
      "agra": 1707,
      "bor": 1708,
      "bon": 1709,
      "fé": 1710,
      "fina": 1711,
      "gres": 1712,
      "gança": 1713,
      "ito": 1714,
      "iza": 1715,
      "jú": 1716,
      "lin": 1717,
      "nele": 1718,
      "pó": 1719,
      "pú": 1720,
      "pendo": 1721,
      "pru": 1722,
      "palma": 1723,
      "rende": 1724,
      "sia": 1725,
      "ur": 1726,
      "vando": 1727,
      "veio": 1728,
      "xe": 1729,
      "çando": 1730,
      "ógni": 1731,
      "üas": 1732,
      "rada": 1733,
      "raios": 1734,
      "dente": 1735,
      "deles": 1736,
      "dados": 1737,
      "anim": 1738,
      "andar": 1739,
      "almas": 1740,
      "amas": 1741,
      "amigo": 1742,
      "todas": 1743,
      "reas": 1744,
      "tavam": 1745,
      "eloso": 1746,
      "pon": 1747,
      "podia": 1748,
      "terá": 1749,
      "imor": 1750,
      "tureza": 1751,
      "sois": 1752,
      "soju": 1753,
      "tica": 1754,
      "tiça": 1755,
      "ticas": 1756,
      "resis": 1757,
      "resist": 1758,
      "verá": 1759,
      "leis": 1760,
      "conquis": 1761,
      "subido": 1762,
      "pergu": 1763,
      "ramo": 1764,
      "corr": 1765,
      "correndo": 1766,
      "voa": 1767,
      "mulh": 1768,
      "mande": 1769,
      "serra": 1770,
      "servi": 1771,
      "move": 1772,
      "nossa": 1773,
      "jul": 1774,
      "jugo": 1775,
      "Segu": 1776,
      "pretende": 1777,
      "passo": 1778,
      "fazenda": 1779,
      "venera": 1780,
      "vencido": 1781,
      "humanos": 1782,
      "puro": 1783,
      "enganos": 1784,
      "mostras": 1785,
      "andava": 1786,
      "Portugal": 1787,
      "praias": 1788,
      "levanta": 1789,
      "tenho": 1790,
      "qualquer": 1791,
      "aqueles": 1792,
      "espanta": 1793,
      "Foram": 1794,
      "obedece": 1795,
      "descobri": 1796,
      "descoberto": 1797,
      "cuidado": 1798,
      "culpa": 1799,
      "eterno": 1800,
      "estima": 1801,
      "desejada": 1802,
      "Fazendo": 1803,
      "lanças": 1804,
      "excelente": 1805,
      "alheio": 1806,
      "Fernando": 1807,
      "fingi": 1808,
      "tomou": 1809,
      "naturais": 1810,
      "castigo": 1811,
      "cobiça": 1812,
      "pedra": 1813,
      "milhor": 1814,
      "verdadeiro": 1815,
      "Senão": 1816,
      "fizeram": 1817,
      "Pedro": 1818,
      "pérfi": 1819,
      "piedade": 1820,
      "Catual": 1821,
      "receio": 1822,
      "Canto": 1823,
      "Cale": 1824,
      "Céus": 1825,
      "Euro": 1826,
      "Fama": 1827,
      "Gang": 1828,
      "Nunca": 1829,
      "San": 1830,
      "São": 1831,
      "Samor": 1832,
      "Sarra": 1833,
      "Tétis": 1834,
      "Vêm": 1835,
      "Veloso": 1836,
      "até": 1837,
      "aventu": 1838,
      "dência": 1839,
      "fom": 1840,
      "gon": 1841,
      "gela": 1842,
      "gindo": 1843,
      "har": 1844,
      "hist": 1845,
      "idas": 1846,
      "jar": 1847,
      "lento": 1848,
      "mí": 1849,
      "nes": 1850,
      "prem": 1851,
      "rmu": 1852,
      "tres": 1853,
      "Às": 1854,
      "éis": 1855,
      "ícia": 1856,
      "ício": 1857,
      "ór": 1858,
      "úmi": 1859,
      "esque": 1860,
      "esca": 1861,
      "astu": 1862,
      "asso": 1863,
      "doze": 1864,
      "deli": 1865,
      "dentes": 1866,
      "queri": 1867,
      "queria": 1868,
      "dama": 1869,
      "dades": 1870,
      "danos": 1871,
      "colh": 1872,
      "embar": 1873,
      "empresa": 1874,
      "alcan": 1875,
      "inquie": 1876,
      "amiza": 1877,
      "enten": 1878,
      "tomada": 1879,
      "regi": 1880,
      "tantes": 1881,
      "teza": 1882,
      "outrem": 1883,
      "cau": 1884,
      "canta": 1885,
      "novos": 1886,
      "elos": 1887,
      "nações": 1888,
      "povos": 1889,
      "gol": 1890,
      "cias": 1891,
      "cidas": 1892,
      "rosas": 1893,
      "sai": 1894,
      "resp": 1895,
      "undas": 1896,
      "veis": 1897,
      "fiança": 1898,
      "lago": 1899,
      "cortando": 1900,
      "correr": 1901,
      "faça": 1902,
      "amado": 1903,
      "paços": 1904,
      "pira": 1905,
      "pido": 1906,
      "bate": 1907,
      "Estas": 1908,
      "Estava": 1909,
      "multi": 1910,
      "estado": 1911,
      "estavam": 1912,
      "inais": 1913,
      "mont": 1914,
      "proa": 1915,
      "mila": 1916,
      "duvidos": 1917,
      "remente": 1918,
      "usada": 1919,
      "possu": 1920,
      "lares": 1921,
      "tamente": 1922,
      "casa": 1923,
      "torpe": 1924,
      "muitas": 1925,
      "pressa": 1926,
      "carne": 1927,
      "longa": 1928,
      "fugi": 1929,
      "levava": 1930,
      "assento": 1931,
      "trabalha": 1932,
      "tenha": 1933,
      "tenção": 1934,
      "verdadeira": 1935,
      "companheiros": 1936,
      "fraque": 1937,
      "trás": 1938,
      "Toda": 1939,
      "aparece": 1940,
      "algüa": 1941,
      "vingança": 1942,
      "negra": 1943,
      "negro": 1944,
      "defesa": 1945,
      "banha": 1946,
      "inclina": 1947,
      "incógni": 1948,
      "íssimos": 1949,
      "Será": 1950,
      "guarda": 1951,
      "nua": 1952,
      "deleitos": 1953,
      "pequeno": 1954,
      "pequena": 1955,
      "Roma": 1956,
      "igual": 1957,
      "tamanho": 1958,
      "vencedor": 1959,
      "possantes": 1960,
      "baixo": 1961,
      "Cristãos": 1962,
      "mantimento": 1963,
      "imagina": 1964,
      "Império": 1965,
      "acompanhado": 1966,
      "cabelos": 1967,
      "animais": 1968,
      "resistência": 1969,
      "Ab": 1970,
      "Ba": 1971,
      "Bus": 1972,
      "Cí": 1973,
      "Cer": 1974,
      "Conde": 1975,
      "Cham": 1976,
      "Dar": 1977,
      "Dio": 1978,
      "Ela": 1979,
      "Fará": 1980,
      "Go": 1981,
      "Gente": 1982,
      "Hi": 1983,
      "Ilhas": 1984,
      "Lis": 1985,
      "Lou": 1986,
      "Men": 1987,
      "Nuno": 1988,
      "Olim": 1989,
      "Pelas": 1990,
      "Res": 1991,
      "Sal": 1992,
      "Tr": 1993,
      "Vá": 1994,
      "Vós": 1995,
      "Vul": 1996,
      "ara": 1997,
      "cha": 1998,
      "céus": 1999,
      "dê": 2000,
      "dina": 2001,
      "fá": 2002,
      "fando": 2003,
      "gor": 2004,
      "gamente": 2005,
      "louro": 2006,
      "linda": 2007,
      "mbe": 2008,
      "nin": 2009,
      "ninho": 2010,
      "ocu": 2011,
      "olha": 2012,
      "pto": 2013,
      "põe": 2014,
      "sar": 2015,
      "vul": 2016,
      "Áf": 2017,
      "áu": 2018,
      "çar": 2019,
      "édio": 2020,
      "ócio": 2021,
      "ódio": 2022,
      "espos": 2023,
      "don": 2024,
      "ntos": 2025,
      "ntas": 2026,
      "deve": 2027,
      "delas": 2028,
      "querem": 2029,
      "oro": 2030,
      "sera": 2031,
      "secre": 2032,
      "sejam": 2033,
      "sepul": 2034,
      "arre": 2035,
      "arrem": 2036,
      "colo": 2037,
      "alar": 2038,
      "alguns": 2039,
      "ench": 2040,
      "reo": 2041,
      "tadas": 2042,
      "eios": 2043,
      "mago": 2044,
      "out": 2045,
      "capitão": 2046,
      "destes": 2047,
      "vio": 2048,
      "vias": 2049,
      "vimento": 2050,
      "ciência": 2051,
      "cego": 2052,
      "havia": 2053,
      "sofre": 2054,
      "tidos": 2055,
      "tiveram": 2056,
      "respeito": 2057,
      "respon": 2058,
      "gados": 2059,
      "estrei": 2060,
      "verde": 2061,
      "verso": 2062,
      "levar": 2063,
      "conde": 2064,
      "conce": 2065,
      "confia": 2066,
      "confiança": 2067,
      "subi": 2068,
      "sutil": 2069,
      "perde": 2070,
      "perpé": 2071,
      "marí": 2072,
      "baça": 2073,
      "Estão": 2074,
      "Está": 2075,
      "muda": 2076,
      "muro": 2077,
      "peda": 2078,
      "mandar": 2079,
      "nosso": 2080,
      "duas": 2081,
      "remédio": 2082,
      "Daqui": 2083,
      "contente": 2084,
      "contudo": 2085,
      "rudo": 2086,
      "possa": 2087,
      "torm": 2088,
      "Mau": 2089,
      "Maura": 2090,
      "taleza": 2091,
      "berta": 2092,
      "preso": 2093,
      "caro": 2094,
      "derriba": 2095,
      "pude": 2096,
      "boca": 2097,
      "longos": 2098,
      "futu": 2099,
      "engana": 2100,
      "guerrei": 2101,
      "vassal": 2102,
      "mandava": 2103,
      "peso": 2104,
      "Dese": 2105,
      "passado": 2106,
      "poderoso": 2107,
      "escuro": 2108,
      "busca": 2109,
      "buscando": 2110,
      "branca": 2111,
      "acende": 2112,
      "fermosas": 2113,
      "estou": 2114,
      "companheiro": 2115,
      "chegado": 2116,
      "Afri": 2117,
      "Africa": 2118,
      "começa": 2119,
      "trum": 2120,
      "membros": 2121,
      "cavalos": 2122,
      "abunda": 2123,
      "conhecido": 2124,
      "Tur": 2125,
      "sangu": 2126,
      "pôde": 2127,
      "espaço": 2128,
      "Dizendo": 2129,
      "Cuja": 2130,
      "fícios": 2131,
      "destruí": 2132,
      "remota": 2133,
      "excelentes": 2134,
      "própri": 2135,
      "alhados": 2136,
      "inheiros": 2137,
      "sustenta": 2138,
      "acaba": 2139,
      "indina": 2140,
      "Muitos": 2141,
      "Estreito": 2142,
      "bandeiras": 2143,
      "Febo": 2144,
      "Austro": 2145,
      "batalha": 2146,
      "mancebo": 2147,
      "regimento": 2148,
      "ajuntamento": 2149,
      "próprio": 2150,
      "maravilha": 2151,
      "ásperos": 2152,
      "mensageiro": 2153,
      "enxerga": 2154,
      "diligente": 2155,
      "pósi": 2156,
      "serviço": 2157,
      "Segundo": 2158,
      "Calecu": 2159,
      "Europa": 2160,
      "Sancho": 2161,
      "Samorim": 2162,
      "Sarrac": 2163,
      "astuto": 2164,
      "amizade": 2165,
      "multidão": 2166,
      "Olimpo": 2167,
      "Responde": 2168,
      "ninguém": 2169,
      "Antes": 2170,
      "Apolo": 2171,
      "Bar": 2172,
      "Can": 2173,
      "Dum": 2174,
      "Ele": 2175,
      "Ger": 2176,
      "Hes": 2177,
      "Hem": 2178,
      "His": 2179,
      "Mer": 2180,
      "Mor": 2181,
      "Man": 2182,
      "Num": 2183,
      "Nenhum": 2184,
      "Oh": 2185,
      "Ora": 2186,
      "Reg": 2187,
      "Si": 2188,
      "Ta": 2189,
      "Vo": 2190,
      "Vir": 2191,
      "aba": 2192,
      "aço": 2193,
      "apou": 2194,
      "aventura": 2195,
      "afei": 2196,
      "banda": 2197,
      "bul": 2198,
      "cro": 2199,
      "cente": 2200,
      "cende": 2201,
      "dino": 2202,
      "eta": 2203,
      "fino": 2204,
      "fantas": 2205,
      "gí": 2206,
      "húmi": 2207,
      "iz": 2208,
      "ires": 2209,
      "igas": 2210,
      "jando": 2211,
      "mom": 2212,
      "ofício": 2213,
      "pis": 2214,
      "pano": 2215,
      "rum": 2216,
      "sí": 2217,
      "venta": 2218,
      "vinda": 2219,
      "xan": 2220,
      "âm": 2221,
      "çou": 2222,
      "çoso": 2223,
      "ópia": 2224,
      "úl": 2225,
      "rar": 2226,
      "estra": 2227,
      "esper": 2228,
      "espri": 2229,
      "esclar": 2230,
      "escri": 2231,
      "asas": 2232,
      "ntar": 2233,
      "dent": 2234,
      "deia": 2235,
      "queres": 2236,
      "ero": 2237,
      "ergu": 2238,
      "daqui": 2239,
      "sente": 2240,
      "segre": 2241,
      "aren": 2242,
      "arma": 2243,
      "areia": 2244,
      "conta": 2245,
      "anor": 2246,
      "emos": 2247,
      "alhe": 2248,
      "alvor": 2249,
      "injú": 2250,
      "enh": 2251,
      "ense": 2252,
      "enhos": 2253,
      "ennobre": 2254,
      "enveja": 2255,
      "isse": 2256,
      "reos": 2257,
      "revol": 2258,
      "usança": 2259,
      "tera": 2260,
      "rit": 2261,
      "rioso": 2262,
      "caça": 2263,
      "deson": 2264,
      "descan": 2265,
      "nace": 2266,
      "natureza": 2267,
      "viva": 2268,
      "quad": 2269,
      "quatro": 2270,
      "divi": 2271,
      "imas": 2272,
      "imen": 2273,
      "imigo": 2274,
      "portas": 2275,
      "tur": 2276,
      "cila": 2277,
      "sobe": 2278,
      "rosa": 2279,
      "sair": 2280,
      "sagra": 2281,
      "çaide": 2282,
      "vez": 2283,
      "vejo": 2284,
      "fio": 2285,
      "fios": 2286,
      "ficar": 2287,
      "filhas": 2288,
      "vergon": 2289,
      "consent": 2290,
      "fort": 2291,
      "parentes": 2292,
      "suma": 2293,
      "suces": 2294,
      "sujeito": 2295,
      "perder": 2296,
      "temos": 2297,
      "ramente": 2298,
      "cham": 2299,
      "licor": 2300,
      "foge": 2301,
      "Estes": 2302,
      "cercado": 2303,
      "tron": 2304,
      "trombe": 2305,
      "jaz": 2306,
      "prof": 2307,
      "propósi": 2308,
      "vossas": 2309,
      "morre": 2310,
      "mortes": 2311,
      "Reinos": 2312,
      "valia": 2313,
      "vens": 2314,
      "human": 2315,
      "caminha": 2316,
      "Outra": 2317,
      "Natura": 2318,
      "nasce": 2319,
      "nega": 2320,
      "fale": 2321,
      "suave": 2322,
      "furios": 2323,
      "ensin": 2324,
      "mandado": 2325,
      "deixar": 2326,
      "deixava": 2327,
      "mostrando": 2328,
      "Alg": 2329,
      "horr": 2330,
      "praz": 2331,
      "tarda": 2332,
      "vore": 2333,
      "sombra": 2334,
      "esperava": 2335,
      "belo": 2336,
      "vesse": 2337,
      "estranho": 2338,
      "aquela": 2339,
      "infini": 2340,
      "fraca": 2341,
      "susp": 2342,
      "singu": 2343,
      "mesmo": 2344,
      "corações": 2345,
      "luzente": 2346,
      "vinham": 2347,
      "honra": 2348,
      "cuidava": 2349,
      "feras": 2350,
      "consente": 2351,
      "igno": 2352,
      "delei": 2353,
      "Anda": 2354,
      "Vereis": 2355,
      "louvor": 2356,
      "tomando": 2357,
      "tamanhas": 2358,
      "bruta": 2359,
      "Vede": 2360,
      "fresca": 2361,
      "oferece": 2362,
      "direito": 2363,
      "Guar": 2364,
      "natural": 2365,
      "Tomé": 2366,
      "moradores": 2367,
      "sustentar": 2368,
      "pedras": 2369,
      "milhores": 2370,
      "derrama": 2371,
      "crua": 2372,
      "Estrelas": 2373,
      "governa": 2374,
      "extremo": 2375,
      "penetra": 2376,
      "súbito": 2377,
      "figura": 2378,
      "duzidos": 2379,
      "glorios": 2380,
      "Monçaide": 2381,
      "Alexan": 2382,
      "juízo": 2383,
      "experi": 2384,
      "sossegado": 2385,
      "Passa": 2386,
      "cilmente": 2387,
      "pintura": 2388,
      "Nilo": 2389,
      "pergunta": 2390,
      "Lisboa": 2391,
      "Vulcano": 2392,
      "África": 2393,
      "arremes": 2394,
      "Maurit": 2395,
      "próprios": 2396,
      "fantasia": 2397,
      "alvoro": 2398,
      "At": 2399,
      "Ante": 2400,
      "Abra": 2401,
      "Be": 2402,
      "Bo": 2403,
      "Bó": 2404,
      "Cal": 2405,
      "Che": 2406,
      "Cidade": 2407,
      "Donde": 2408,
      "Eri": 2409,
      "Eti": 2410,
      "Eram": 2411,
      "Gig": 2412,
      "Há": 2413,
      "Ilus": 2414,
      "Mom": 2415,
      "Musas": 2416,
      "Nüa": 2417,
      "Oci": 2418,
      "Pou": 2419,
      "Pelos": 2420,
      "Sant": 2421,
      "Sendo": 2422,
      "Ulis": 2423,
      "aus": 2424,
      "acor": 2425,
      "avis": 2426,
      "apr": 2427,
      "afama": 2428,
      "acre": 2429,
      "bárbaro": 2430,
      "cli": 2431,
      "ceito": 2432,
      "cundo": 2433,
      "dões": 2434,
      "ede": 2435,
      "fru": 2436,
      "feio": 2437,
      "gn": 2438,
      "hão": 2439,
      "hando": 2440,
      "ilh": 2441,
      "lume": 2442,
      "lenho": 2443,
      "nar": 2444,
      "noutra": 2445,
      "nenh": 2446,
      "ofende": 2447,
      "pende": 2448,
      "sinais": 2449,
      "tria": 2450,
      "tina": 2451,
      "tento": 2452,
      "tume": 2453,
      "vou": 2454,
      "vest": 2455,
      "vina": 2456,
      "ícios": 2457,
      "ús": 2458,
      "estu": 2459,
      "espe": 2460,
      "escre": 2461,
      "esforça": 2462,
      "assin": 2463,
      "doces": 2464,
      "dem": 2465,
      "queira": 2466,
      "erra": 2467,
      "erva": 2468,
      "dali": 2469,
      "daquela": 2470,
      "sel": 2471,
      "sede": 2472,
      "sete": 2473,
      "seio": 2474,
      "arg": 2475,
      "artes": 2476,
      "cobre": 2477,
      "emplo": 2478,
      "alo": 2479,
      "inde": 2480,
      "ingente": 2481,
      "inces": 2482,
      "ene": 2483,
      "engrande": 2484,
      "amo": 2485,
      "ambi": 2486,
      "amentos": 2487,
      "entro": 2488,
      "entando": 2489,
      "tol": 2490,
      "toca": 2491,
      "reis": 2492,
      "reinos": 2493,
      "refres": 2494,
      "mau": 2495,
      "ouvir": 2496,
      "caram": 2497,
      "dosas": 2498,
      "desper": 2499,
      "despi": 2500,
      "descende": 2501,
      "nais": 2502,
      "nação": 2503,
      "pola": 2504,
      "pobre": 2505,
      "vira": 2506,
      "viam": 2507,
      "vila": 2508,
      "quantos": 2509,
      "dios": 2510,
      "dita": 2511,
      "dila": 2512,
      "dição": 2513,
      "antão": 2514,
      "antidade": 2515,
      "impe": 2516,
      "haver": 2517,
      "tiv": 2518,
      "meta": 2519,
      "metal": 2520,
      "sabia": 2521,
      "rança": 2522,
      "ranhas": 2523,
      "verão": 2524,
      "verás": 2525,
      "ledos": 2526,
      "fortaleza": 2527,
      "partia": 2528,
      "lado": 2529,
      "suj": 2530,
      "super": 2531,
      "sucede": 2532,
      "pereg": 2533,
      "perdida": 2534,
      "templo": 2535,
      "ramos": 2536,
      "corta": 2537,
      "corria": 2538,
      "chão": 2539,
      "choro": 2540,
      "lida": 2541,
      "lico": 2542,
      "fonte": 2543,
      "fontes": 2544,
      "bida": 2545,
      "bax": 2546,
      "Estando": 2547,
      "certas": 2548,
      "costas": 2549,
      "costume": 2550,
      "movimento": 2551,
      "bebe": 2552,
      "hora": 2553,
      "duras": 2554,
      "Dai": 2555,
      "contino": 2556,
      "contenta": 2557,
      "brada": 2558,
      "passos": 2559,
      "rui": 2560,
      "Rece": 2561,
      "tores": 2562,
      "Mauro": 2563,
      "Mahom": 2564,
      "irmão": 2565,
      "humil": 2566,
      "carro": 2567,
      "malícia": 2568,
      "parecer": 2569,
      "visto": 2570,
      "nefando": 2571,
      "barra": 2572,
      "falsa": 2573,
      "falsidade": 2574,
      "segurança": 2575,
      "ensina": 2576,
      "desej": 2577,
      "desejos": 2578,
      "dizem": 2579,
      "pesa": 2580,
      "deixando": 2581,
      "téria": 2582,
      "creia": 2583,
      "mostrar": 2584,
      "mostrava": 2585,
      "ilustres": 2586,
      "assenta": 2587,
      "amostra": 2588,
      "alegres": 2589,
      "alegremente": 2590,
      "tendes": 2591,
      "viagem": 2592,
      "vestidos": 2593,
      "Fados": 2594,
      "receb": 2595,
      "recebe": 2596,
      "instrum": 2597,
      "cometer": 2598,
      "árvores": 2599,
      "navegando": 2600,
      "inimiga": 2601,
      "subli": 2602,
      "sublima": 2603,
      "Todos": 2604,
      "Todas": 2605,
      "adver": 2606,
      "admi": 2607,
      "celeste": 2608,
      "cavalo": 2609,
      "cavaleiros": 2610,
      "abas": 2611,
      "conhece": 2612,
      "razões": 2613,
      "descobre": 2614,
      "farão": 2615,
      "Destes": 2616,
      "passando": 2617,
      "adora": 2618,
      "freio": 2619,
      "nuvem": 2620,
      "nuvens": 2621,
      "avante": 2622,
      "medon": 2623,
      "tribu": 2624,
      "élico": 2625,
      "doutra": 2626,
      "estrela": 2627,
      "estrelas": 2628,
      "favore": 2629,
      "bombar": 2630,
      "bruto": 2631,
      "inheiro": 2632,
      "soberana": 2633,
      "navegantes": 2634,
      "derradeiro": 2635,
      "bandeira": 2636,
      "atreve": 2637,
      "Começa": 2638,
      "trouxe": 2639,
      "Melinde": 2640,
      "diferentes": 2641,
      "coroa": 2642,
      "súbita": 2643,
      "Arábi": 2644,
      "Arábia": 2645,
      "edifica": 2646,
      "ónios": 2647,
      "contrário": 2648,
      "Ingles": 2649,
      "Deixando": 2650,
      "cinco": 2651,
      "ditoso": 2652,
      "sumptu": 2653,
      "necessidade": 2654,
      "Duque": 2655,
      "bordo": 2656,
      "corrente": 2657,
      "aventurei": 2658,
      "história": 2659,
      "premin": 2660,
      "golpes": 2661,
      "batel": 2662,
      "milagre": 2663,
      "donz": 2664,
      "outeiros": 2665,
      "Hespé": 2666,
      "Hemis": 2667,
      "Rege": 2668,
      "rumor": 2669,
      "esprito": 2670,
      "dentro": 2671,
      "segredos": 2672,
      "alheia": 2673,
      "enseada": 2674,
      "cilada": 2675,
      "singulares": 2676,
      "Bóreas": 2677,
      "Mombaça": 2678,
      "nenhüa": 2679,
      "assinala": 2680,
      "peregr": 2681,
      "Aos": 2682,
      "Aju": 2683,
      "Bra": 2684,
      "Dando": 2685,
      "Dele": 2686,
      "Eter": 2687,
      "Egas": 2688,
      "Gan": 2689,
      "Gre": 2690,
      "Hen": 2691,
      "II": 2692,
      "Itá": 2693,
      "Jul": 2694,
      "La": 2695,
      "Lon": 2696,
      "Mil": 2697,
      "Nor": 2698,
      "Nesta": 2699,
      "Pom": 2700,
      "Pér": 2701,
      "Põe": 2702,
      "Sent": 2703,
      "Sus": 2704,
      "Santo": 2705,
      "Sul": 2706,
      "Sab": 2707,
      "Tin": 2708,
      "aonde": 2709,
      "avar": 2710,
      "aconse": 2711,
      "agres": 2712,
      "br": 2713,
      "bei": 2714,
      "cú": 2715,
      "cera": 2716,
      "cres": 2717,
      "cento": 2718,
      "centa": 2719,
      "düa": 2720,
      "dindo": 2721,
      "efeito": 2722,
      "festas": 2723,
      "feita": 2724,
      "féus": 2725,
      "gé": 2726,
      "ganha": 2727,
      "geiras": 2728,
      "her": 2729,
      "iram": 2730,
      "lum": 2731,
      "mestre": 2732,
      "ob": 2733,
      "obra": 2734,
      "odor": 2735,
      "sando": 2736,
      "sões": 2737,
      "tan": 2738,
      "vás": 2739,
      "xes": 2740,
      "Ál": 2741,
      "àcilmente": 2742,
      "íg": 2743,
      "ílo": 2744,
      "òmente": 2745,
      "ói": 2746,
      "últi": 2747,
      "ossos": 2748,
      "raro": 2749,
      "raio": 2750,
      "eses": 2751,
      "esmal": 2752,
      "esquad": 2753,
      "dom": 2754,
      "doma": 2755,
      "ntam": 2756,
      "quero": 2757,
      "queim": 2758,
      "queima": 2759,
      "eros": 2760,
      "erro": 2761,
      "ore": 2762,
      "seda": 2763,
      "seta": 2764,
      "sento": 2765,
      "segue": 2766,
      "arrece": 2767,
      "colhe": 2768,
      "emp": 2769,
      "alim": 2770,
      "alti": 2771,
      "inum": 2772,
      "enos": 2773,
      "amantes": 2774,
      "ameno": 2775,
      "amante": 2776,
      "ental": 2777,
      "entranhas": 2778,
      "tome": 2779,
      "real": 2780,
      "redor": 2781,
      "recado": 2782,
      "tara": 2783,
      "rito": 2784,
      "matéria": 2785,
      "cados": 2786,
      "cadas": 2787,
      "cantando": 2788,
      "nomes": 2789,
      "notí": 2790,
      "vada": 2791,
      "dessem": 2792,
      "despe": 2793,
      "desespera": 2794,
      "compri": 2795,
      "polí": 2796,
      "vim": 2797,
      "vitu": 2798,
      "viram": 2799,
      "vidade": 2800,
      "virá": 2801,
      "Determ": 2802,
      "quar": 2803,
      "quali": 2804,
      "dico": 2805,
      "digo": 2806,
      "didas": 2807,
      "divin": 2808,
      "diversos": 2809,
      "imentos": 2810,
      "império": 2811,
      "porventura": 2812,
      "cioso": 2813,
      "tir": 2814,
      "tima": 2815,
      "tiran": 2816,
      "med": 2817,
      "saia": 2818,
      "sabem": 2819,
      "garam": 2820,
      "uni": 2821,
      "fico": 2822,
      "fiéis": 2823,
      "levando": 2824,
      "conf": 2825,
      "confor": 2826,
      "convinha": 2827,
      "concede": 2828,
      "lav": 2829,
      "laterra": 2830,
      "sur": 2831,
      "sura": 2832,
      "subidos": 2833,
      "temp": 2834,
      "marido": 2835,
      "marinheiros": 2836,
      "corro": 2837,
      "cortes": 2838,
      "corru": 2839,
      "corpos": 2840,
      "fado": 2841,
      "fatal": 2842,
      "fabri": 2843,
      "cheiro": 2844,
      "cheiros": 2845,
      "chamar": 2846,
      "lic": 2847,
      "lio": 2848,
      "ligeiro": 2849,
      "fere": 2850,
      "pau": 2851,
      "baia": 2852,
      "Espera": 2853,
      "Estran": 2854,
      "cerco": 2855,
      "cerca": 2856,
      "murmu": 2857,
      "peças": 2858,
      "inado": 2859,
      "serras": 2860,
      "serena": 2861,
      "troféus": 2862,
      "mise": 2863,
      "Quais": 2864,
      "gostos": 2865,
      "Daqueles": 2866,
      "contin": 2867,
      "content": 2868,
      "brava": 2869,
      "deira": 2870,
      "passe": 2871,
      "excede": 2872,
      "usados": 2873,
      "morto": 2874,
      "mortais": 2875,
      "largos": 2876,
      "tornas": 2877,
      "torne": 2878,
      "Magri": 2879,
      "Maume": 2880,
      "venha": 2881,
      "vencidos": 2882,
      "muita": 2883,
      "Outras": 2884,
      "presença": 2885,
      "derredor": 2886,
      "Naires": 2887,
      "parecia": 2888,
      "longamente": 2889,
      "neve": 2890,
      "barões": 2891,
      "ências": 2892,
      "nomeia": 2893,
      "falando": 2894,
      "falece": 2895,
      "prós": 2896,
      "seguros": 2897,
      "fug": 2898,
      "engenhos": 2899,
      "Indi": 2900,
      "Infiéis": 2901,
      "discre": 2902,
      "dizer": 2903,
      "trans": 2904,
      "Poder": 2905,
      "Desbara": 2906,
      "crece": 2907,
      "Lusitânia": 2908,
      "primeiros": 2909,
      "passaram": 2910,
      "ajudar": 2911,
      "íncia": 2912,
      "íncli": 2913,
      "ilustra": 2914,
      "Divina": 2915,
      "sombras": 2916,
      "escudo": 2917,
      "brandamente": 2918,
      "belas": 2919,
      "inteiro": 2920,
      "inteira": 2921,
      "salgado": 2922,
      "varia": 2923,
      "fermoso": 2924,
      "fermosos": 2925,
      "fermosura": 2926,
      "Sempre": 2927,
      "receber": 2928,
      "espalha": 2929,
      "insana": 2930,
      "Enfim": 2931,
      "Eneias": 2932,
      "grave": 2933,
      "suspi": 2934,
      "grita": 2935,
      "gritos": 2936,
      "sentir": 2937,
      "Olhai": 2938,
      "soberbos": 2939,
      "Qualquer": 2940,
      "merc": 2941,
      "merece": 2942,
      "negros": 2943,
      "feroz": 2944,
      "crê": 2945,
      "flamas": 2946,
      "Torna": 2947,
      "justiça": 2948,
      "mágoa": 2949,
      "deceu": 2950,
      "cabeças": 2951,
      "Dizem": 2952,
      "claramente": 2953,
      "ciosa": 2954,
      "Fazem": 2955,
      "Prome": 2956,
      "aconte": 2957,
      "rouba": 2958,
      "roubar": 2959,
      "destru": 2960,
      "pequenos": 2961,
      "sonhos": 2962,
      "tristes": 2963,
      "temeroso": 2964,
      "famosos": 2965,
      "iguala": 2966,
      "vencedo": 2967,
      "réde": 2968,
      "Vedes": 2969,
      "apressa": 2970,
      "pensamentos": 2971,
      "direita": 2972,
      "soldados": 2973,
      "tornando": 2974,
      "Leva": 2975,
      "vãs": 2976,
      "vãos": 2977,
      "angélica": 2978,
      "soberano": 2979,
      "António": 2980,
      "valeroso": 2981,
      "defender": 2982,
      "Senhor": 2983,
      "Mostrando": 2984,
      "Trabal": 2985,
      "tinham": 2986,
      "província": 2987,
      "extrema": 2988,
      "Melinda": 2989,
      "houve": 2990,
      "leme": 2991,
      "cansado": 2992,
      "aceso": 2993,
      "batalhas": 2994,
      "obediente": 2995,
      "obediência": 2996,
      "Raz": 2997,
      "Rainha": 2998,
      "gentio": 2999,
      "ribeiras": 3000,
      "chegam": 3001,
      "Inglaterra": 3002,
      "espessura": 3003,
      "diamante": 3004,
      "principal": 3005,
      "principais": 3006,
      "sofri": 3007,
      "lealdade": 3008,
      "grandíssima": 3009,
      "exerci": 3010,
      "exercí": 3011,
      "Nereu": 3012,
      "prudência": 3013,
      "mulheres": 3014,
      "moveu": 3015,
      "pérfida": 3016,
      "gelado": 3017,
      "resplan": 3018,
      "ocupa": 3019,
      "condena": 3020,
      "pedaços": 3021,
      "tormenta": 3022,
      "futuros": 3023,
      "abundantes": 3024,
      "apousent": 3025,
      "momento": 3026,
      "esclare": 3027,
      "erguido": 3028,
      "tronco": 3029,
      "propósito": 3030,
      "humanidade": 3031,
      "suspeita": 3032,
      "Guarda": 3033,
      "experiência": 3034,
      "Regedor": 3035,
      "odorí": 3036,
      "última": 3037,
      "notícia": 3038,
      "Magriço": 3039,
      "Maumet": 3040,
      "Ainda": 3041,
      "Ani": 3042,
      "Agar": 3043,
      "Aqueles": 3044,
      "Br": 3045,
      "Bram": 3046,
      "Bárbaro": 3047,
      "Cin": 3048,
      "Cant": 3049,
      "Cés": 3050,
      "Dó": 3051,
      "Dem": 3052,
      "Eo": 3053,
      "Egí": 3054,
      "Far": 3055,
      "Gra": 3056,
      "Ha": 3057,
      "Hom": 3058,
      "Ir": 3059,
      "Imi": 3060,
      "Lüa": 3061,
      "Monde": 3062,
      "Neg": 3063,
      "Or": 3064,
      "Pi": 3065,
      "Pá": 3066,
      "Pon": 3067,
      "Pir": 3068,
      "Parte": 3069,
      "Rem": 3070,
      "Sir": 3071,
      "Sil": 3072,
      "Santa": 3073,
      "Salta": 3074,
      "Ten": 3075,
      "Tro": 3076,
      "Tri": 3077,
      "Tran": 3078,
      "Tantas": 3079,
      "Vas": 3080,
      "Vis": 3081,
      "ap": 3082,
      "az": 3083,
      "adi": 3084,
      "aras": 3085,
      "apa": 3086,
      "abra": 3087,
      "abal": 3088,
      "aberto": 3089,
      "bando": 3090,
      "bélica": 3091,
      "cé": 3092,
      "cal": 3093,
      "cis": 3094,
      "cto": 3095,
      "cina": 3096,
      "cana": 3097,
      "ceram": 3098,
      "ceira": 3099,
      "dinheiro": 3100,
      "ete": 3101,
      "elho": 3102,
      "eté": 3103,
      "ezas": 3104,
      "feste": 3105,
      "feu": 3106,
      "frias": 3107,
      "funda": 3108,
      "fàcilmente": 3109,
      "gá": 3110,
      "gan": 3111,
      "gão": 3112,
      "gin": 3113,
      "gam": 3114,
      "gros": 3115,
      "geiros": 3116,
      "if": 3117,
      "ilhas": 3118,
      "iroso": 3119,
      "izo": 3120,
      "lão": 3121,
      "ní": 3122,
      "nú": 3123,
      "nda": 3124,
      "nou": 3125,
      "olh": 3126,
      "ope": 3127,
      "opres": 3128,
      "ocul": 3129,
      "pun": 3130,
      "pris": 3131,
      "sis": 3132,
      "timo": 3133,
      "ulo": 3134,
      "vões": 3135,
      "zos": 3136,
      "Ásia": 3137,
      "ária": 3138,
      "ário": 3139,
      "âni": 3140,
      "ía": 3141,
      "úni": 3142,
      "ravo": 3143,
      "essem": 3144,
      "uel": 3145,
      "asper": 3146,
      "assem": 3147,
      "asinha": 3148,
      "doura": 3149,
      "ntou": 3150,
      "dera": 3151,
      "deri": 3152,
      "decem": 3153,
      "decendo": 3154,
      "debaxo": 3155,
      "depressa": 3156,
      "quei": 3157,
      "quentes": 3158,
      "ergue": 3159,
      "ervas": 3160,
      "dadas": 3161,
      "seco": 3162,
      "seme": 3163,
      "seram": 3164,
      "arco": 3165,
      "armado": 3166,
      "coras": 3167,
      "conto": 3168,
      "cobri": 3169,
      "coalha": 3170,
      "ancora": 3171,
      "anima": 3172,
      "alt": 3173,
      "algo": 3174,
      "inal": 3175,
      "inam": 3176,
      "invo": 3177,
      "infer": 3178,
      "inventa": 3179,
      "encer": 3180,
      "encur": 3181,
      "enfraque": 3182,
      "ambas": 3183,
      "entia": 3184,
      "entanto": 3185,
      "entrando": 3186,
      "touro": 3187,
      "tomá": 3188,
      "ref": 3189,
      "repres": 3190,
      "reluz": 3191,
      "taina": 3192,
      "rox": 3193,
      "rodei": 3194,
      "robus": 3195,
      "roxa": 3196,
      "eitas": 3197,
      "teia": 3198,
      "Quer": 3199,
      "ricas": 3200,
      "mato": 3201,
      "maus": 3202,
      "manto": 3203,
      "madeiro": 3204,
      "ouvi": 3205,
      "ouvido": 3206,
      "capi": 3207,
      "causas": 3208,
      "nota": 3209,
      "vados": 3210,
      "vadas": 3211,
      "doso": 3212,
      "dosos": 3213,
      "eleg": 3214,
      "desme": 3215,
      "despa": 3216,
      "desterra": 3217,
      "destas": 3218,
      "umo": 3219,
      "vive": 3220,
      "viver": 3221,
      "vivos": 3222,
      "onze": 3223,
      "omni": 3224,
      "ombros": 3225,
      "Debaxo": 3226,
      "terão": 3227,
      "tereis": 3228,
      "quantas": 3229,
      "quantidade": 3230,
      "dil": 3231,
      "diga": 3232,
      "antig": 3233,
      "trajo": 3234,
      "imiga": 3235,
      "porta": 3236,
      "porém": 3237,
      "gui": 3238,
      "ciaria": 3239,
      "cedo": 3240,
      "tida": 3241,
      "tinta": 3242,
      "tivesse": 3243,
      "sabido": 3244,
      "çada": 3245,
      "gavam": 3246,
      "estando": 3247,
      "estim": 3248,
      "estandar": 3249,
      "vedes": 3250,
      "verdes": 3251,
      "verme": 3252,
      "lebre": 3253,
      "levas": 3254,
      "levem": 3255,
      "concerto": 3256,
      "forme": 3257,
      "fortuna": 3258,
      "paro": 3259,
      "parz": 3260,
      "lavam": 3261,
      "sup": 3262,
      "sutis": 3263,
      "teme": 3264,
      "temido": 3265,
      "corte": 3266,
      "cornos": 3267,
      "cura": 3268,
      "chu": 3269,
      "chas": 3270,
      "liber": 3271,
      "lobo": 3272,
      "logra": 3273,
      "feridas": 3274,
      "para": 3275,
      "pater": 3276,
      "bique": 3277,
      "bila": 3278,
      "cero": 3279,
      "cerviz": 3280,
      "pedia": 3281,
      "manh": 3282,
      "manj": 3283,
      "manso": 3284,
      "mandas": 3285,
      "manhas": 3286,
      "estais": 3287,
      "servir": 3288,
      "troco": 3289,
      "trovões": 3290,
      "moles": 3291,
      "juria": 3292,
      "pronto": 3293,
      "profe": 3294,
      "provar": 3295,
      "Dous": 3296,
      "horas": 3297,
      "dul": 3298,
      "remos": 3299,
      "contar": 3300,
      "contigo": 3301,
      "pastor": 3302,
      "ruda": 3303,
      "rutil": 3304,
      "exces": 3305,
      "exemplo": 3306,
      "posso": 3307,
      "postos": 3308,
      "casas": 3309,
      "torment": 3310,
      "valentia": 3311,
      "Mavor": 3312,
      "veneno": 3313,
      "vencimento": 3314,
      "Coelho": 3315,
      "humanas": 3316,
      "talha": 3317,
      "esteve": 3318,
      "caminhos": 3319,
      "Ouvindo": 3320,
      "presente": 3321,
      "carre": 3322,
      "cargo": 3323,
      "Naquele": 3324,
      "Noto": 3325,
      "panos": 3326,
      "Deusas": 3327,
      "visse": 3328,
      "cesse": 3329,
      "prá": 3330,
      "segura": 3331,
      "fui": 3332,
      "ful": 3333,
      "Sof": 3334,
      "Inver": 3335,
      "gios": 3336,
      "Pode": 3337,
      "creio": 3338,
      "mostraram": 3339,
      "Alem": 3340,
      "Alci": 3341,
      "Alcá": 3342,
      "prata": 3343,
      "vária": 3344,
      "Diana": 3345,
      "claros": 3346,
      "idades": 3347,
      "fronta": 3348,
      "some": 3349,
      "trazem": 3350,
      "esperanças": 3351,
      "querer": 3352,
      "alegra": 3353,
      "aquilo": 3354,
      "escul": 3355,
      "escure": 3356,
      "branda": 3357,
      "intento": 3358,
      "Fado": 3359,
      "estranhas": 3360,
      "Entra": 3361,
      "recebem": 3362,
      "nobreza": 3363,
      "checo": 3364,
      "limi": 3365,
      "limpa": 3366,
      "influ": 3367,
      "insí": 3368,
      "instante": 3369,
      "comete": 3370,
      "Fogo": 3371,
      "ficava": 3372,
      "Teb": 3373,
      "Armas": 3374,
      "mesma": 3375,
      "subia": 3376,
      "Aquiles": 3377,
      "aparelho": 3378,
      "aparecem": 3379,
      "pátrio": 3380,
      "defen": 3381,
      "cuidada": 3382,
      "Tornar": 3383,
      "tomado": 3384,
      "Viu": 3385,
      "estilo": 3386,
      "bastante": 3387,
      "sário": 3388,
      "çambique": 3389,
      "Meca": 3390,
      "Oriental": 3391,
      "freia": 3392,
      "guardando": 3393,
      "achámos": 3394,
      "geme": 3395,
      "inica": 3396,
      "remoto": 3397,
      "Isma": 3398,
      "Roxo": 3399,
      "sonor": 3400,
      "sonha": 3401,
      "sonho": 3402,
      "Corre": 3403,
      "pelejando": 3404,
      "títu": 3405,
      "entrada": 3406,
      "excelência": 3407,
      "dronta": 3408,
      "famosas": 3409,
      "doutro": 3410,
      "Paulo": 3411,
      "Pacheco": 3412,
      "tornou": 3413,
      "Vencer": 3414,
      "tristeza": 3415,
      "líqui": 3416,
      "quieto": 3417,
      "quieta": 3418,
      "possíbil": 3419,
      "Antár": 3420,
      "vizinho": 3421,
      "valerosas": 3422,
      "verdadeiros": 3423,
      "aparelhado": 3424,
      "defendem": 3425,
      "cristalino": 3426,
      "Cambaia": 3427,
      "livre": 3428,
      "Moçambique": 3429,
      "seita": 3430,
      "amedronta": 3431,
      "penedo": 3432,
      "minhas": 3433,
      "palmas": 3434,
      "acesa": 3435,
      "feitores": 3436,
      "figuras": 3437,
      "glori": 3438,
      "imagin": 3439,
      "Ambos": 3440,
      "gentil": 3441,
      "repouso": 3442,
      "converte": 3443,
      "própria": 3444,
      "França": 3445,
      "adorme": 3446,
      "costuma": 3447,
      "costumado": 3448,
      "juízos": 3449,
      "apercebido": 3450,
      "Malabares": 3451,
      "mistura": 3452,
      "quebranta": 3453,
      "generoso": 3454,
      "agasalhados": 3455,
      "imortal": 3456,
      "imortais": 3457,
      "conquista": 3458,
      "mulher": 3459,
      "julgar": 3460,
      "Gangé": 3461,
      "Ganges": 3462,
      "míser": 3463,
      "inquieta": 3464,
      "regiões": 3465,
      "duvidoso": 3466,
      "fraqueza": 3467,
      "Abrindo": 3468,
      "vulto": 3469,
      "esposas": 3470,
      "perpétua": 3471,
      "marítima": 3472,
      "puderam": 3473,
      "vassalos": 3474,
      "estoutro": 3475,
      "Africana": 3476,
      "Sarraceno": 3477,
      "Mercú": 3478,
      "estrago": 3479,
      "arenosa": 3480,
      "injúria": 3481,
      "imenso": 3482,
      "vergonha": 3483,
      "chamam": 3484,
      "prazer": 3485,
      "gloriosas": 3486,
      "arremessa": 3487,
      "Atl": 3488,
      "Etiópia": 3489,
      "Pouco": 3490,
      "aprende": 3491,
      "argento": 3492,
      "ambição": 3493,
      "refresco": 3494,
      "Mahometa": 3495,
      "instrumento": 3496,
      "tributo": 3497,
      "donzela": 3498,
      "Gange": 3499,
      "Gregos": 3500,
      "Sust": 3501,
      "aconselha": 3502,
      "inumanos": 3503,
      "medroso": 3504,
      "licença": 3505,
      "miserando": 3506,
      "tornasse": 3507,
      "Egíp": 3508,
      "Mondego": 3509,
      "opressões": 3510,
      "capitaina": 3511,
      "despacho": 3512,
      "omnipotente": 3513,
      "antigamente": 3514,
      "excessi": 3515,
      "tormentas": 3516,
      "Mavorte": 3517,
      "Mercúrio": 3518,
      "Au": 3519,
      "Aquela": 3520,
      "Ban": 3521,
      "Bore": 3522,
      "Cr": 3523,
      "Cei": 3524,
      "Ceita": 3525,
      "Ceres": 3526,
      "Cães": 3527,
      "Dão": 3528,
      "Deste": 3529,
      "Douro": 3530,
      "Disse": 3531,
      "Egi": 3532,
      "Fá": 3533,
      "Fin": 3534,
      "Gran": 3535,
      "Ido": 3536,
      "Lu": 3537,
      "Mal": 3538,
      "Min": 3539,
      "Már": 3540,
      "Milh": 3541,
      "Nar": 3542,
      "Nom": 3543,
      "Nós": 3544,
      "Nelas": 3545,
      "Nestas": 3546,
      "Obe": 3547,
      "Ormu": 3548,
      "Pu": 3549,
      "Pal": 3550,
      "Ró": 3551,
      "Sam": 3552,
      "Súbi": 3553,
      "Tar": 3554,
      "Tantos": 3555,
      "Vem": 3556,
      "Vin": 3557,
      "au": 3558,
      "ados": 3559,
      "aum": 3560,
      "aqu": 3561,
      "atra": 3562,
      "adas": 3563,
      "apre": 3564,
      "ainda": 3565,
      "agar": 3566,
      "avor": 3567,
      "acabe": 3568,
      "aprov": 3569,
      "atrás": 3570,
      "abaixo": 3571,
      "afronta": 3572,
      "bó": 3573,
      "bis": 3574,
      "blas": 3575,
      "bélico": 3576,
      "cão": 3577,
      "cus": 3578,
      "cte": 3579,
      "cência": 3580,
      "cân": 3581,
      "calma": 3582,
      "cume": 3583,
      "cunda": 3584,
      "clima": 3585,
      "centro": 3586,
      "dr": 3587,
      "dri": 3588,
      "evi": 3589,
      "fen": 3590,
      "fano": 3591,
      "fantes": 3592,
      "frá": 3593,
      "feias": 3594,
      "gne": 3595,
      "globo": 3596,
      "hás": 3597,
      "hamos": 3598,
      "ico": 3599,
      "itava": 3600,
      "je": 3601,
      "jestade": 3602,
      "leito": 3603,
      "mim": 3604,
      "nês": 3605,
      "namente": 3606,
      "nelas": 3607,
      "nesse": 3608,
      "op": 3609,
      "pem": 3610,
      "pando": 3611,
      "pício": 3612,
      "rí": 3613,
      "reno": 3614,
      "sòmente": 3615,
      "tú": 3616,
      "tín": 3617,
      "tório": 3618,
      "timas": 3619,
      "velo": 3620,
      "vícios": 3621,
      "Ído": 3622,
      "âmen": 3623,
      "éria": 3624,
      "ído": 3625,
      "íam": 3626,
      "ípi": 3627,
      "óis": 3628,
      "ópi": 3629,
      "ôn": 3630,
      "õem": 3631,
      "úr": 3632,
      "raí": 3633,
      "ração": 3634,
      "aspeito": 3635,
      "aspér": 3636,
      "dote": 3637,
      "dobra": 3638,
      "deter": 3639,
      "decer": 3640,
      "demos": 3641,
      "devia": 3642,
      "quetes": 3643,
      "quelas": 3644,
      "erdes": 3645,
      "dal": 3646,
      "dada": 3647,
      "daria": 3648,
      "dantes": 3649,
      "danado": 3650,
      "danças": 3651,
      "arro": 3652,
      "arei": 3653,
      "arcos": 3654,
      "arém": 3655,
      "ardor": 3656,
      "arnes": 3657,
      "arvore": 3658,
      "conte": 3659,
      "contava": 3660,
      "ande": 3661,
      "andade": 3662,
      "anças": 3663,
      "andá": 3664,
      "embai": 3665,
      "alvas": 3666,
      "iner": 3667,
      "inhas": 3668,
      "incerto": 3669,
      "injusto": 3670,
      "incau": 3671,
      "incontin": 3672,
      "enas": 3673,
      "enco": 3674,
      "enças": 3675,
      "enfia": 3676,
      "aman": 3677,
      "ambos": 3678,
      "total": 3679,
      "tocava": 3680,
      "repu": 3681,
      "retum": 3682,
      "reposta": 3683,
      "ron": 3684,
      "rota": 3685,
      "roxo": 3686,
      "eidas": 3687,
      "eitar": 3688,
      "usar": 3689,
      "usou": 3690,
      "tecida": 3691,
      "lhando": 3692,
      "rima": 3693,
      "rigor": 3694,
      "matar": 3695,
      "cadores": 3696,
      "cantava": 3697,
      "vante": 3698,
      "vagar": 3699,
      "desa": 3700,
      "desem": 3701,
      "dester": 3702,
      "descu": 3703,
      "despre": 3704,
      "desventura": 3705,
      "comba": 3706,
      "compra": 3707,
      "nante": 3708,
      "nantes": 3709,
      "ponta": 3710,
      "popu": 3711,
      "pontas": 3712,
      "vivo": 3713,
      "vigi": 3714,
      "vidência": 3715,
      "quia": 3716,
      "quina": 3717,
      "goas": 3718,
      "diver": 3719,
      "divis": 3720,
      "dimento": 3721,
      "antigu": 3722,
      "imenta": 3723,
      "impossíbil": 3724,
      "porfia": 3725,
      "guas": 3726,
      "tuba": 3727,
      "ciam": 3728,
      "cega": 3729,
      "solar": 3730,
      "rostos": 3731,
      "tiro": 3732,
      "tidas": 3733,
      "ticos": 3734,
      "tiza": 3735,
      "tirou": 3736,
      "medos": 3737,
      "saü": 3738,
      "saem": 3739,
      "sacri": 3740,
      "saíam": 3741,
      "çados": 3742,
      "gaz": 3743,
      "estor": 3744,
      "velha": 3745,
      "fique": 3746,
      "ficam": 3747,
      "leais": 3748,
      "letras": 3749,
      "concer": 3750,
      "convos": 3751,
      "consorte": 3752,
      "concerta": 3753,
      "conduzidos": 3754,
      "conceito": 3755,
      "laços": 3756,
      "sil": 3757,
      "pero": 3758,
      "perdo": 3759,
      "perdido": 3760,
      "perdidos": 3761,
      "temia": 3762,
      "tempos": 3763,
      "marche": 3764,
      "maridos": 3765,
      "corri": 3766,
      "cortar": 3767,
      "cortava": 3768,
      "corrom": 3769,
      "cui": 3770,
      "culo": 3771,
      "curioso": 3772,
      "fabul": 3773,
      "facundo": 3774,
      "chando": 3775,
      "chora": 3776,
      "liões": 3777,
      "ligeiras": 3778,
      "lotos": 3779,
      "amara": 3780,
      "vozes": 3781,
      "ferno": 3782,
      "ferros": 3783,
      "ferve": 3784,
      "ferida": 3785,
      "ferido": 3786,
      "pados": 3787,
      "pago": 3788,
      "padre": 3789,
      "pida": 3790,
      "bir": 3791,
      "baxa": 3792,
      "certi": 3793,
      "certeza": 3794,
      "peto": 3795,
      "pedes": 3796,
      "pecado": 3797,
      "mano": 3798,
      "manjar": 3799,
      "manif": 3800,
      "mostrou": 3801,
      "mol": 3802,
      "modos": 3803,
      "Assí": 3804,
      "Assento": 3805,
      "proas": 3806,
      "produz": 3807,
      "quilo": 3808,
      "Seu": 3809,
      "miú": 3810,
      "mili": 3811,
      "Quis": 3812,
      "Quási": 3813,
      "Quantos": 3814,
      "Quílo": 3815,
      "preta": 3816,
      "grandeza": 3817,
      "contentes": 3818,
      "bravos": 3819,
      "deiros": 3820,
      "deiras": 3821,
      "pasto": 3822,
      "rudos": 3823,
      "experto": 3824,
      "fazia": 3825,
      "mores": 3826,
      "ender": 3827,
      "torno": 3828,
      "valentes": 3829,
      "Mag": 3830,
      "Mafam": 3831,
      "irmãos": 3832,
      "Embar": 3833,
      "bertos": 3834,
      "caminh": 3835,
      "presos": 3836,
      "presas": 3837,
      "presentes": 3838,
      "Caval": 3839,
      "carnes": 3840,
      "nascido": 3841,
      "pur": 3842,
      "pudesse": 3843,
      "pudessem": 3844,
      "viste": 3845,
      "vissem": 3846,
      "neo": 3847,
      "neas": 3848,
      "barba": 3849,
      "nomeada": 3850,
      "pelouros": 3851,
      "dará": 3852,
      "seguia": 3853,
      "seguindo": 3854,
      "furib": 3855,
      "furioso": 3856,
      "engan": 3857,
      "iral": 3858,
      "Inferno": 3859,
      "disto": 3860,
      "disso": 3861,
      "lassa": 3862,
      "mandam": 3863,
      "mandados": 3864,
      "pesar": 3865,
      "pesada": 3866,
      "pessoa": 3867,
      "deixam": 3868,
      "deixou": 3869,
      "Polas": 3870,
      "brica": 3871,
      "creto": 3872,
      "nidade": 3873,
      "mostravam": 3874,
      "levado": 3875,
      "levantando": 3876,
      "passada": 3877,
      "passava": 3878,
      "ajudado": 3879,
      "somos": 3880,
      "trazer": 3881,
      "trazido": 3882,
      "traziam": 3883,
      "mães": 3884,
      "esperas": 3885,
      "branco": 3886,
      "ânimos": 3887,
      "âncoras": 3888,
      "salso": 3889,
      "salvar": 3890,
      "entregar": 3891,
      "estranhe": 3892,
      "estranhos": 3893,
      "senhora": 3894,
      "aquelas": 3895,
      "recebia": 3896,
      "cheia": 3897,
      "espí": 3898,
      "espalh": 3899,
      "infl": 3900,
      "inst": 3901,
      "insano": 3902,
      "cometendo": 3903,
      "Ench": 3904,
      "Fora": 3905,
      "fral": 3906,
      "frau": 3907,
      "graças": 3908,
      "ardentes": 3909,
      "gritando": 3910,
      "pensa": 3911,
      "singa": 3912,
      "sincero": 3913,
      "sentiram": 3914,
      "ércio": 3915,
      "Arm": 3916,
      "Cristão": 3917,
      "trina": 3918,
      "quiseres": 3919,
      "memórias": 3920,
      "subindo": 3921,
      "Todo": 3922,
      "algüas": 3923,
      "abrindo": 3924,
      "conheça": 3925,
      "honesto": 3926,
      "honroso": 3927,
      "negócio": 3928,
      "cré": 3929,
      "flama": 3930,
      "espadas": 3931,
      "almadias": 3932,
      "Índico": 3933,
      "tomara": 3934,
      "tomaram": 3935,
      "chamado": 3936,
      "Consigo": 3937,
      "Viria": 3938,
      "Viram": 3939,
      "Dizia": 3940,
      "claras": 3941,
      "pareceu": 3942,
      "Cur": 3943,
      "Cujo": 3944,
      "Profundo": 3945,
      "guarne": 3946,
      "guardado": 3947,
      "igna": 3948,
      "potestade": 3949,
      "geral": 3950,
      "ousado": 3951,
      "ousadamente": 3952,
      "delgado": 3953,
      "inico": 3954,
      "inião": 3955,
      "destino": 3956,
      "destarte": 3957,
      "remotas": 3958,
      "homem": 3959,
      "temerosos": 3960,
      "temerosas": 3961,
      "entravam": 3962,
      "alheios": 3963,
      "endam": 3964,
      "Fermos": 3965,
      "louvar": 3966,
      "louvores": 3967,
      "tamanha": 3968,
      "Neptun": 3969,
      "Fiz": 3970,
      "Filho": 3971,
      "Ficava": 3972,
      "Gentios": 3973,
      "Sabe": 3974,
      "Citer": 3975,
      "Cila": 3976,
      "galés": 3977,
      "chorando": 3978,
      "tornar": 3979,
      "Guadi": 3980,
      "Vence": 3981,
      "aperto": 3982,
      "fúrias": 3983,
      "cruezas": 3984,
      "Judeia": 3985,
      "Parece": 3986,
      "Romano": 3987,
      "Romanos": 3988,
      "Tomando": 3989,
      "ónia": 3990,
      "maiores": 3991,
      "soberanos": 3992,
      "navegamos": 3993,
      "navegante": 3994,
      "obrigava": 3995,
      "bulas": 3996,
      "cobiçoso": 3997,
      "vizinha": 3998,
      "vizinhos": 3999,
      "constante": 4000,
      "aparelhados": 4001,
      "Muito": 4002,
      "determinado": 4003,
      "tirar": 4004,
      "chegados": 4005,
      "chegaram": 4006,
      "sábios": 4007,
      "China": 4008,
      "Fez": 4009,
      "alcançaram": 4010,
      "rompendo": 4011,
      "desbarata": 4012,
      "governo": 4013,
      "curvo": 4014,
      "proveito": 4015,
      "Austra": 4016,
      "Lion": 4017,
      "cansada": 4018,
      "cansados": 4019,
      "Cristandade": 4020,
      "renço": 4021,
      "riqueza": 4022,
      "habitam": 4023,
      "soub": 4024,
      "ónias": 4025,
      "contrários": 4026,
      "ordenava": 4027,
      "celebrado": 4028,
      "celebrada": 4029,
      "lustros": 4030,
      "espesso": 4031,
      "rodeia": 4032,
      "rodeado": 4033,
      "elita": 4034,
      "partida": 4035,
      "áspero": 4036,
      "interesse": 4037,
      "exprimentados": 4038,
      "Fugindo": 4039,
      "femin": 4040,
      "giolhos": 4041,
      "sumo": 4042,
      "escrava": 4043,
      "quaisquer": 4044,
      "sofrer": 4045,
      "lugares": 4046,
      "acendido": 4047,
      "belicosa": 4048,
      "flore": 4049,
      "triunfos": 4050,
      "oferecido": 4051,
      "aguda": 4052,
      "abriu": 4053,
      "prudente": 4054,
      "animal": 4055,
      "sojugada": 4056,
      "resista": 4057,
      "venerando": 4058,
      "veneranda": 4059,
      "descobrir": 4060,
      "fingido": 4061,
      "pérfido": 4062,
      "fomes": 4063,
      "mísera": 4064,
      "esquecimento": 4065,
      "assopra": 4066,
      "querido": 4067,
      "embarcar": 4068,
      "montanha": 4069,
      "montório": 4070,
      "fugida": 4071,
      "incógnita": 4072,
      "Gover": 4073,
      "Lourenço": 4074,
      "Três": 4075,
      "Vários": 4076,
      "fábulas": 4077,
      "secreta": 4078,
      "secretas": 4079,
      "arreia": 4080,
      "alarga": 4081,
      "respondia": 4082,
      "estreita": 4083,
      "subir": 4084,
      "perpétu": 4085,
      "guerreiras": 4086,
      "vassalo": 4087,
      "sanguino": 4088,
      "destruído": 4089,
      "Hispano": 4090,
      "Virão": 4091,
      "afeiço": 4092,
      "húmido": 4093,
      "ennobrece": 4094,
      "descansar": 4095,
      "turno": 4096,
      "sagrado": 4097,
      "trombeta": 4098,
      "trombetas": 4099,
      "furiosos": 4100,
      "Algum": 4101,
      "Algüas": 4102,
      "tardança": 4103,
      "ignora": 4104,
      "Alexandro": 4105,
      "Mauritano": 4106,
      "Eritre": 4107,
      "Gigante": 4108,
      "Ocidente": 4109,
      "Santarém": 4110,
      "Ulisses": 4111,
      "fruto": 4112,
      "estupendo": 4113,
      "especiaria": 4114,
      "selvá": 4115,
      "toldos": 4116,
      "descendentes": 4117,
      "sujeita": 4118,
      "Recebe": 4119,
      "humilde": 4120,
      "sublimada": 4121,
      "bombardas": 4122,
      "aventureiro": 4123,
      "preminente": 4124,
      "Hespéria": 4125,
      "Hemispério": 4126,
      "peregrina": 4127,
      "Henrique": 4128,
      "Itália": 4129,
      "Pérsia": 4130,
      "Sentiu": 4131,
      "arreceia": 4132,
      "altivo": 4133,
      "polícia": 4134,
      "vimentos": 4135,
      "vitupério": 4136,
      "divinas": 4137,
      "tempestade": 4138,
      "cheiroso": 4139,
      "murmurando": 4140,
      "contentamento": 4141,
      "fugir": 4142,
      "acontece": 4143,
      "destruir": 4144,
      "vencedora": 4145,
      "rédeas": 4146,
      "Razões": 4147,
      "exercício": 4148,
      "odoríferos": 4149,
      "Maumetanos": 4150,
      "Brâmen": 4151,
      "César": 4152,
      "Dóris": 4153,
      "Eolo": 4154,
      "Troi": 4155,
      "célebre": 4156,
      "izonte": 4157,
      "olhar": 4158,
      "infernais": 4159,
      "encerra": 4160,
      "supremo": 4161,
      "liberdade": 4162,
      "manhã": 4163,
      "manjares": 4164,
      "Inverno": 4165,
      "Alcides": 4166,
      "Tebano": 4167,
      "Ismaelita": 4168,
      "sonhadas": 4169,
      "Antártico": 4170,
      "míseros": 4171,
      "Egípcia": 4172,
      "Ceilão": 4173,
      "Egipto": 4174,
      "Milhor": 4175,
      "Narsinga": 4176,
      "Ormuz": 4177,
      "atraves": 4178,
      "avorre": 4179,
      "blasfem": 4180,
      "opinião": 4181,
      "tínhamos": 4182,
      "Ídolos": 4183,
      "arneses": 4184,
      "desterro": 4185,
      "diversas": 4186,
      "divisa": 4187,
      "antiguidade": 4188,
      "convosco": 4189,
      "Quíloa": 4190,
      "Mafamede": 4191,
      "Embarca": 4192,
      "Guadiana": 4193,
      "Ach": 4194,
      "Aonde": 4195,
      "Abax": 4196,
      "Abila": 4197,
      "Aquelas": 4198,
      "Avante": 4199,
      "Alevantando": 4200,
      "Banda": 4201,
      "Bétis": 4202,
      "Biz": 4203,
      "Cá": 4204,
      "Cru": 4205,
      "Clar": 4206,
      "Cala": 4207,
      "Cil": 4208,
      "Cüa": 4209,
      "Cás": 4210,
      "Canta": 4211,
      "Crendo": 4212,
      "Cini": 4213,
      "Dia": 4214,
      "Dino": 4215,
      "Düa": 4216,
      "ES": 4217,
      "Er": 4218,
      "Ex": 4219,
      "Elas": 4220,
      "Elem": 4221,
      "Fl": 4222,
      "Fal": 4223,
      "Flo": 4224,
      "Fil": 4225,
      "Feitos": 4226,
      "Gi": 4227,
      "Gl": 4228,
      "Gas": 4229,
      "Gentes": 4230,
      "Gale": 4231,
      "Gré": 4232,
      "Grega": 4233,
      "Hor": 4234,
      "Hei": 4235,
      "Hon": 4236,
      "Ima": 4237,
      "Igu": 4238,
      "Lí": 4239,
      "Lira": 4240,
      "Leis": 4241,
      "Mí": 4242,
      "Mem": 4243,
      "Musa": 4244,
      "Mestre": 4245,
      "OI": 4246,
      "Obri": 4247,
      "Obras": 4248,
      "Olhando": 4249,
      "Pan": 4250,
      "Pri": 4251,
      "Pres": 4252,
      "Pele": 4253,
      "Pint": 4254,
      "Plan": 4255,
      "Põem": 4256,
      "Ru": 4257,
      "Ré": 4258,
      "Rel": 4259,
      "Rio": 4260,
      "Reno": 4261,
      "Reli": 4262,
      "Sint": 4263,
      "Sinal": 4264,
      "Tá": 4265,
      "Tí": 4266,
      "Tes": 4267,
      "Trem": 4268,
      "Têm": 4269,
      "Tais": 4270,
      "Via": 4271,
      "Vinha": 4272,
      "Veio": 4273,
      "Vesti": 4274,
      "Vimos": 4275,
      "Virá": 4276,
      "av": 4277,
      "ate": 4278,
      "acu": 4279,
      "afa": 4280,
      "afo": 4281,
      "apro": 4282,
      "apel": 4283,
      "acaso": 4284,
      "adul": 4285,
      "bes": 4286,
      "bram": 4287,
      "bendo": 4288,
      "bundo": 4289,
      "bele": 4290,
      "bana": 4291,
      "bores": 4292,
      "brindo": 4293,
      "búr": 4294,
      "cei": 4295,
      "ctu": 4296,
      "ceste": 4297,
      "cles": 4298,
      "clim": 4299,
      "centar": 4300,
      "clem": 4301,
      "clin": 4302,
      "cimentos": 4303,
      "cravo": 4304,
      "côn": 4305,
      "dusa": 4306,
      "dinas": 4307,
      "dói": 4308,
      "ecem": 4309,
      "ebúr": 4310,
      "fis": 4311,
      "fun": 4312,
      "flu": 4313,
      "frei": 4314,
      "frios": 4315,
      "fante": 4316,
      "fins": 4317,
      "finas": 4318,
      "feli": 4319,
      "fundas": 4320,
      "fumo": 4321,
      "gus": 4322,
      "gest": 4323,
      "git": 4324,
      "gante": 4325,
      "gnantes": 4326,
      "hei": 4327,
      "hór": 4328,
      "ial": 4329,
      "iro": 4330,
      "ições": 4331,
      "icí": 4332,
      "lú": 4333,
      "lando": 4334,
      "lindo": 4335,
      "leitos": 4336,
      "lentos": 4337,
      "mon": 4338,
      "mun": 4339,
      "meiro": 4340,
      "minas": 4341,
      "mânia": 4342,
      "meios": 4343,
      "mpeto": 4344,
      "nal": 4345,
      "nus": 4346,
      "nüa": 4347,
      "noutro": 4348,
      "nestas": 4349,
      "neles": 4350,
      "nés": 4351,
      "ona": 4352,
      "opri": 4353,
      "ofícios": 4354,
      "pí": 4355,
      "pus": 4356,
      "pla": 4357,
      "ptro": 4358,
      "pinas": 4359,
      "pinado": 4360,
      "peitas": 4361,
      "rm": 4362,
      "sam": 4363,
      "sta": 4364,
      "sant": 4365,
      "sim": 4366,
      "samente": 4367,
      "tê": 4368,
      "timos": 4369,
      "uposto": 4370,
      "ufano": 4371,
      "vel": 4372,
      "vera": 4373,
      "vém": 4374,
      "veste": 4375,
      "vício": 4376,
      "vender": 4377,
      "xada": 4378,
      "Àqueles": 4379,
      "Ás": 4380,
      "árias": 4381,
      "ábil": 4382,
      "áveis": 4383,
      "âmago": 4384,
      "íb": 4385,
      "ínt": 4386,
      "íope": 4387,
      "ímpeto": 4388,
      "ïção": 4389,
      "ólima": 4390,
      "ódios": 4391,
      "úle": 4392,
      "úsi": 4393,
      "úmes": 4394,
      "ral": 4395,
      "radia": 4396,
      "rapinas": 4397,
      "eso": 4398,
      "esqui": 4399,
      "escas": 4400,
      "escolh": 4401,
      "dono": 4402,
      "deno": 4403,
      "deram": 4404,
      "devo": 4405,
      "deza": 4406,
      "devas": 4407,
      "devem": 4408,
      "detinha": 4409,
      "defronte": 4410,
      "detrás": 4411,
      "debaixo": 4412,
      "decreto": 4413,
      "quedo": 4414,
      "erta": 4415,
      "ornado": 4416,
      "daquele": 4417,
      "seca": 4418,
      "senão": 4419,
      "sever": 4420,
      "arem": 4421,
      "arti": 4422,
      "arran": 4423,
      "areias": 4424,
      "arren": 4425,
      "ardil": 4426,
      "arnês": 4427,
      "covas": 4428,
      "anho": 4429,
      "empresas": 4430,
      "alte": 4431,
      "alva": 4432,
      "alum": 4433,
      "alon": 4434,
      "além": 4435,
      "almente": 4436,
      "alteza": 4437,
      "invi": 4438,
      "indi": 4439,
      "infi": 4440,
      "inex": 4441,
      "inoso": 4442,
      "insol": 4443,
      "incerta": 4444,
      "informa": 4445,
      "injuria": 4446,
      "inchando": 4447,
      "endas": 4448,
      "endu": 4449,
      "encar": 4450,
      "amiga": 4451,
      "isa": 4452,
      "istros": 4453,
      "entasse": 4454,
      "tolh": 4455,
      "tona": 4456,
      "tolhe": 4457,
      "ret": 4458,
      "refor": 4459,
      "rela": 4460,
      "reli": 4461,
      "retor": 4462,
      "reira": 4463,
      "rege": 4464,
      "reparte": 4465,
      "reves": 4466,
      "reais": 4467,
      "regia": 4468,
      "recolh": 4469,
      "recreia": 4470,
      "reparo": 4471,
      "refreia": 4472,
      "relíqui": 4473,
      "iado": 4474,
      "iago": 4475,
      "roda": 4476,
      "rotu": 4477,
      "rocos": 4478,
      "usasse": 4479,
      "telha": 4480,
      "Quero": 4481,
      "rida": 4482,
      "riam": 4483,
      "ridos": 4484,
      "riqu": 4485,
      "ritos": 4486,
      "ricos": 4487,
      "rigé": 4488,
      "matou": 4489,
      "magn": 4490,
      "majestade": 4491,
      "cai": 4492,
      "caia": 4493,
      "cante": 4494,
      "cavam": 4495,
      "cair": 4496,
      "capelas": 4497,
      "cativ": 4498,
      "noda": 4499,
      "vaz": 4500,
      "vago": 4501,
      "vaga": 4502,
      "vaidade": 4503,
      "elem": 4504,
      "despo": 4505,
      "destro": 4506,
      "desfaz": 4507,
      "desvia": 4508,
      "desat": 4509,
      "descuidado": 4510,
      "desusada": 4511,
      "desvio": 4512,
      "descansado": 4513,
      "desparz": 4514,
      "compe": 4515,
      "compel": 4516,
      "comigo": 4517,
      "comércio": 4518,
      "naquele": 4519,
      "naquela": 4520,
      "podes": 4521,
      "poli": 4522,
      "ponto": 4523,
      "pondo": 4524,
      "podre": 4525,
      "umes": 4526,
      "vios": 4527,
      "vimos": 4528,
      "vilha": 4529,
      "vilas": 4530,
      "vieram": 4531,
      "vigia": 4532,
      "one": 4533,
      "onha": 4534,
      "oneu": 4535,
      "Deu": 4536,
      "Decer": 4537,
      "terem": 4538,
      "quinha": 4539,
      "quanta": 4540,
      "dica": 4541,
      "dirá": 4542,
      "digni": 4543,
      "antre": 4544,
      "tratam": 4545,
      "tratava": 4546,
      "imal": 4547,
      "porá": 4548,
      "portos": 4549,
      "gues": 4550,
      "cip": 4551,
      "cint": 4552,
      "ceder": 4553,
      "ceptro": 4554,
      "haverá": 4555,
      "soe": 4556,
      "soas": 4557,
      "socorrer": 4558,
      "socorro": 4559,
      "daste": 4560,
      "rosos": 4561,
      "tio": 4562,
      "tiu": 4563,
      "tian": 4564,
      "titu": 4565,
      "tiros": 4566,
      "tinto": 4567,
      "tirando": 4568,
      "meia": 4569,
      "saz": 4570,
      "sava": 4571,
      "sacer": 4572,
      "saindo": 4573,
      "satis": 4574,
      "gava": 4575,
      "estem": 4576,
      "estri": 4577,
      "estrem": 4578,
      "estrui": 4579,
      "estâmago": 4580,
      "unido": 4581,
      "unidos": 4582,
      "vej": 4583,
      "veza": 4584,
      "fizes": 4585,
      "fideli": 4586,
      "veres": 4587,
      "verga": 4588,
      "verdura": 4589,
      "consi": 4590,
      "connos": 4591,
      "conven": 4592,
      "convida": 4593,
      "condição": 4594,
      "congelado": 4595,
      "convém": 4596,
      "forços": 4597,
      "forçoso": 4598,
      "parta": 4599,
      "parente": 4600,
      "partido": 4601,
      "sul": 4602,
      "rasse": 4603,
      "raste": 4604,
      "Cometer": 4605,
      "sibil": 4606,
      "permi": 4607,
      "pernas": 4608,
      "persua": 4609,
      "perlas": 4610,
      "perfeito": 4611,
      "perdê": 4612,
      "pertina": 4613,
      "corda": 4614,
      "façam": 4615,
      "ches": 4616,
      "chim": 4617,
      "cheio": 4618,
      "lira": 4619,
      "lião": 4620,
      "liberta": 4621,
      "amava": 4622,
      "amados": 4623,
      "amadas": 4624,
      "amaina": 4625,
      "vora": 4626,
      "ferir": 4627,
      "ferindo": 4628,
      "feridos": 4629,
      "pace": 4630,
      "pito": 4631,
      "pidas": 4632,
      "piram": 4633,
      "pintando": 4634,
      "pirava": 4635,
      "pitantes": 4636,
      "pilotos": 4637,
      "Estar": 4638,
      "Esfera": 4639,
      "Escul": 4640,
      "Estou": 4641,
      "cere": 4642,
      "cerem": 4643,
      "cercos": 4644,
      "cercando": 4645,
      "cerúle": 4646,
      "mudar": 4647,
      "pexes": 4648,
      "mana": 4649,
      "mansa": 4650,
      "perado": 4651,
      "perador": 4652,
      "estatura": 4653,
      "serem": 4654,
      "seria": 4655,
      "serve": 4656,
      "serás": 4657,
      "moça": 4658,
      "movido": 4659,
      "nossas": 4660,
      "masto": 4661,
      "massa": 4662,
      "inocência": 4663,
      "inopinado": 4664,
      "jado": 4665,
      "javam": 4666,
      "promes": 4667,
      "procel": 4668,
      "prontos": 4669,
      "probana": 4670,
      "Doze": 4671,
      "quisera": 4672,
      "Seja": 4673,
      "Segue": 4674,
      "Sevilha": 4675,
      "diabó": 4676,
      "mir": 4677,
      "duo": 4678,
      "duvida": 4679,
      "duze": 4680,
      "preten": 4681,
      "pregando": 4682,
      "grandemente": 4683,
      "Daquele": 4684,
      "Daquela": 4685,
      "contam": 4686,
      "brado": 4687,
      "brados": 4688,
      "braveza": 4689,
      "tessem": 4690,
      "rubi": 4691,
      "usadas": 4692,
      "fazendas": 4693,
      "morta": 4694,
      "largamente": 4695,
      "casar": 4696,
      "casca": 4697,
      "Recolhe": 4698,
      "torre": 4699,
      "toridade": 4700,
      "vales": 4701,
      "valente": 4702,
      "valho": 4703,
      "Maham": 4704,
      "sór": 4705,
      "vencem": 4706,
      "irmã": 4707,
      "Cochim": 4708,
      "talho": 4709,
      "talezas": 4710,
      "Emperador": 4711,
      "riso": 4712,
      "alabas": 4713,
      "camos": 4714,
      "prima": 4715,
      "privados": 4716,
      "Ouviu": 4717,
      "jogo": 4718,
      "jogos": 4719,
      "prestante": 4720,
      "caros": 4721,
      "carrega": 4722,
      "Nau": 4723,
      "Natureza": 4724,
      "nascimento": 4725,
      "Nova": 4726,
      "Novo": 4727,
      "Novos": 4728,
      "treva": 4729,
      "malina": 4730,
      "paredes": 4731,
      "entado": 4732,
      "puseram": 4733,
      "vistos": 4734,
      "vistes": 4735,
      "visíbil": 4736,
      "neos": 4737,
      "barão": 4738,
      "êndios": 4739,
      "nomeado": 4740,
      "falo": 4741,
      "faltam": 4742,
      "princes": 4743,
      "darão": 4744,
      "seguir": 4745,
      "seguiam": 4746,
      "fugindo": 4747,
      "périos": 4748,
      "ensão": 4749,
      "Sofala": 4750,
      "itando": 4751,
      "desejam": 4752,
      "desejas": 4753,
      "Ins": 4754,
      "Inês": 4755,
      "Ingl": 4756,
      "Inclin": 4757,
      "discorrendo": 4758,
      "hospício": 4759,
      "vaso": 4760,
      "vasos": 4761,
      "mandara": 4762,
      "mandada": 4763,
      "giosos": 4764,
      "pessoas": 4765,
      "deixe": 4766,
      "Pola": 4767,
      "Poli": 4768,
      "Povo": 4769,
      "térm": 4770,
      "Descobri": 4771,
      "creias": 4772,
      "nie": 4773,
      "mostrado": 4774,
      "Lusitanas": 4775,
      "Albu": 4776,
      "feta": 4777,
      "forçado": 4778,
      "andavam": 4779,
      "amorosas": 4780,
      "pranto": 4781,
      "pranta": 4782,
      "prazo": 4783,
      "vemos": 4784,
      "levaram": 4785,
      "levavam": 4786,
      "ilustr": 4787,
      "Direi": 4788,
      "Dione": 4789,
      "frotas": 4790,
      "assentos": 4791,
      "podem": 4792,
      "poderes": 4793,
      "trazendo": 4794,
      "esperar": 4795,
      "esperavam": 4796,
      "querque": 4797,
      "tenham": 4798,
      "escurece": 4799,
      "contrato": 4800,
      "buscava": 4801,
      "brancas": 4802,
      "ânda": 4803,
      "âncora": 4804,
      "povoa": 4805,
      "acena": 4806,
      "belíg": 4807,
      "salu": 4808,
      "salte": 4809,
      "saltando": 4810,
      "Faça": 4811,
      "varões": 4812,
      "estrangeiros": 4813,
      "Então": 4814,
      "Entrava": 4815,
      "ulto": 4816,
      "chegada": 4817,
      "Casa": 4818,
      "Castro": 4819,
      "limite": 4820,
      "espant": 4821,
      "infame": 4822,
      "infâm": 4823,
      "insânia": 4824,
      "Foge": 4825,
      "dádi": 4826,
      "fracos": 4827,
      "sustinha": 4828,
      "suspira": 4829,
      "árduas": 4830,
      "sincera": 4831,
      "sentem": 4832,
      "navegar": 4833,
      "ficara": 4834,
      "ficado": 4835,
      "pálida": 4836,
      "inimigas": 4837,
      "Argo": 4838,
      "mesquinha": 4839,
      "tré": 4840,
      "poderá": 4841,
      "quiserdes": 4842,
      "memente": 4843,
      "soberbas": 4844,
      "luzentes": 4845,
      "Toma": 4846,
      "Tonante": 4847,
      "adqui": 4848,
      "aparecia": 4849,
      "abom": 4850,
      "abras": 4851,
      "conhecida": 4852,
      "conheçam": 4853,
      "conhecidos": 4854,
      "conhecendo": 4855,
      "mero": 4856,
      "honesta": 4857,
      "negue": 4858,
      "treme": 4859,
      "feroces": 4860,
      "sortes": 4861,
      "defensão": 4862,
      "faria": 4863,
      "farás": 4864,
      "fareis": 4865,
      "culta": 4866,
      "culpas": 4867,
      "dissera": 4868,
      "Terá": 4869,
      "Teresa": 4870,
      "Torres": 4871,
      "Tornado": 4872,
      "Torvado": 4873,
      "Torment": 4874,
      "banhar": 4875,
      "mágoas": 4876,
      "incípi": 4877,
      "incêndios": 4878,
      "chamada": 4879,
      "chamava": 4880,
      "passam": 4881,
      "passou": 4882,
      "Convo": 4883,
      "Mart": 4884,
      "Maria": 4885,
      "Marrocos": 4886,
      "eternamente": 4887,
      "estimada": 4888,
      "conselhos": 4889,
      "Dizer": 4890,
      "Dizei": 4891,
      "Pergu": 4892,
      "Perimal": 4893,
      "Fazer": 4894,
      "Cuida": 4895,
      "Cupido": 4896,
      "Medi": 4897,
      "Medusa": 4898,
      "Proteu": 4899,
      "Profeta": 4900,
      "Sereno": 4901,
      "Sertório": 4902,
      "senhorios": 4903,
      "acham": 4904,
      "potência": 4905,
      "acode": 4906,
      "acolh": 4907,
      "ousada": 4908,
      "ousados": 4909,
      "cadoria": 4910,
      "Andar": 4911,
      "Anjos": 4912,
      "Rodes": 4913,
      "Rodri": 4914,
      "fossem": 4915,
      "soneso": 4916,
      "Correndo": 4917,
      "Lágrimas": 4918,
      "Verão": 4919,
      "Verás": 4920,
      "tími": 4921,
      "tífero": 4922,
      "élio": 4923,
      "ordem": 4924,
      "Deitando": 4925,
      "Deidades": 4926,
      "criou": 4927,
      "famas": 4928,
      "escondida": 4929,
      "escondidos": 4930,
      "touros": 4931,
      "juntos": 4932,
      "juntas": 4933,
      "alevantando": 4934,
      "finalmente": 4935,
      "louva": 4936,
      "lançavam": 4937,
      "favorece": 4938,
      "vencedores": 4939,
      "Fili": 4940,
      "Saber": 4941,
      "Sua": 4942,
      "Sub": 4943,
      "Subi": 4944,
      "bomba": 4945,
      "brutos": 4946,
      "régia": 4947,
      "estenderam": 4948,
      "Cipi": 4949,
      "cítara": 4950,
      "solta": 4951,
      "Levam": 4952,
      "Levando": 4953,
      "tumulto": 4954,
      "nautas": 4955,
      "naufrá": 4956,
      "terríbil": 4957,
      "crueza": 4958,
      "Juno": 4959,
      "Romana": 4960,
      "Rompendo": 4961,
      "Rompem": 4962,
      "Tomou": 4963,
      "aparência": 4964,
      "apartado": 4965,
      "apartou": 4966,
      "angélico": 4967,
      "soberanas": 4968,
      "morador": 4969,
      "possante": 4970,
      "navegam": 4971,
      "Castelhanos": 4972,
      "firmeza": 4973,
      "obrigação": 4974,
      "acab": 4975,
      "acabar": 4976,
      "indino": 4977,
      "indús": 4978,
      "constantes": 4979,
      "consciência": 4980,
      "valerosos": 4981,
      "deixaram": 4982,
      "verdadeiras": 4983,
      "Muitas": 4984,
      "cristalina": 4985,
      "Cambai": 4986,
      "cruas": 4987,
      "tirano": 4988,
      "fizer": 4989,
      "livrar": 4990,
      "íncias": 4991,
      "Chama": 4992,
      "Montes": 4993,
      "Malaca": 4994,
      "atrevimentos": 4995,
      "canora": 4996,
      "piadoso": 4997,
      "amea": 4998,
      "causaram": 4999
    },
    "merges": [
      [
        "o",
        "s"
      ],
      [
        "r",
        "a"
      ],
      [
        "e",
        "s"
      ],
      [
        "u",
        "e"
      ],
      [
        "a",
        "s"
      ],
      [
        "d",
        "o"
      ],
      [
        "n",
        "t"
      ],
      [
        "d",
        "e"
      ],
      [
        "q",
        "ue"
      ],
      [
        "e",
        "r"
      ],
      [
        "o",
        "r"
      ],
      [
        "d",
        "a"
      ],
      [
        "s",
        "e"
      ],
      [
        "a",
        "r"
      ],
      [
        "c",
        "o"
      ],
      [
        "a",
        "n"
      ],
      [
        "e",
        "m"
      ],
      [
        "a",
        "l"
      ],
      [
        "ã",
        "o"
      ],
      [
        "i",
        "n"
      ],
      [
        "e",
        "n"
      ],
      [
        "a",
        "m"
      ],
      [
        "i",
        "s"
      ],
      [
        "e",
        "nt"
      ],
      [
        "t",
        "o"
      ],
      [
        "r",
        "e"
      ],
      [
        "i",
        "a"
      ],
      [
        "t",
        "a"
      ],
      [
        "r",
        "o"
      ],
      [
        "e",
        "i"
      ],
      [
        "u",
        "s"
      ],
      [
        "t",
        "e"
      ],
      [
        "Q",
        "ue"
      ],
      [
        "l",
        "h"
      ],
      [
        "r",
        "i"
      ],
      [
        "m",
        "a"
      ],
      [
        "o",
        "u"
      ],
      [
        "c",
        "a"
      ],
      [
        "n",
        "o"
      ],
      [
        "v",
        "a"
      ],
      [
        "d",
        "os"
      ],
      [
        "e",
        "l"
      ],
      [
        "d",
        "es"
      ],
      [
        "co",
        "m"
      ],
      [
        "n",
        "a"
      ],
      [
        "p",
        "o"
      ],
      [
        "ent",
        "e"
      ],
      [
        "e",
        "ra"
      ],
      [
        "u",
        "m"
      ],
      [
        "v",
        "i"
      ],
      [
        "o",
        "n"
      ],
      [
        "o",
        "m"
      ],
      [
        "an",
        "do"
      ],
      [
        "D",
        "e"
      ],
      [
        "t",
        "er"
      ],
      [
        "q",
        "u"
      ],
      [
        "g",
        "o"
      ],
      [
        "d",
        "i"
      ],
      [
        "a",
        "nt"
      ],
      [
        "t",
        "ra"
      ],
      [
        "i",
        "m"
      ],
      [
        "p",
        "or"
      ],
      [
        "g",
        "u"
      ],
      [
        "t",
        "u"
      ],
      [
        "c",
        "i"
      ],
      [
        "n",
        "ão"
      ],
      [
        "c",
        "e"
      ],
      [
        "h",
        "a"
      ],
      [
        "s",
        "o"
      ],
      [
        "d",
        "as"
      ],
      [
        "r",
        "os"
      ],
      [
        "t",
        "i"
      ],
      [
        "m",
        "e"
      ],
      [
        "lh",
        "e"
      ],
      [
        "s",
        "a"
      ],
      [
        "ç",
        "a"
      ],
      [
        "ra",
        "n"
      ],
      [
        "r",
        "es"
      ],
      [
        "P",
        "or"
      ],
      [
        "g",
        "a"
      ],
      [
        "es",
        "t"
      ],
      [
        "u",
        "n"
      ],
      [
        "v",
        "e"
      ],
      [
        "f",
        "i"
      ],
      [
        "v",
        "er"
      ],
      [
        "l",
        "e"
      ],
      [
        "co",
        "n"
      ],
      [
        "f",
        "or"
      ],
      [
        "r",
        "ia"
      ],
      [
        "p",
        "ar"
      ],
      [
        "l",
        "a"
      ],
      [
        "s",
        "u"
      ],
      [
        "ra",
        "s"
      ],
      [
        "C",
        "om"
      ],
      [
        "s",
        "i"
      ],
      [
        "p",
        "er"
      ],
      [
        "t",
        "em"
      ],
      [
        "t",
        "ão"
      ],
      [
        "ra",
        "m"
      ],
      [
        "ma",
        "is"
      ],
      [
        "m",
        "ar"
      ],
      [
        "t",
        "os"
      ],
      [
        "c",
        "or"
      ],
      [
        "c",
        "u"
      ],
      [
        "en",
        "do"
      ],
      [
        "f",
        "a"
      ],
      [
        "c",
        "h"
      ],
      [
        "g",
        "ente"
      ],
      [
        "l",
        "i"
      ],
      [
        "l",
        "o"
      ],
      [
        "am",
        "a"
      ],
      [
        "f",
        "o"
      ],
      [
        "M",
        "as"
      ],
      [
        "nt",
        "e"
      ],
      [
        "v",
        "o"
      ],
      [
        "f",
        "er"
      ],
      [
        "da",
        "de"
      ],
      [
        "p",
        "a"
      ],
      [
        "p",
        "i"
      ],
      [
        "b",
        "i"
      ],
      [
        "b",
        "a"
      ],
      [
        "ter",
        "ra"
      ],
      [
        "g",
        "ran"
      ],
      [
        "E",
        "s"
      ],
      [
        "j",
        "á"
      ],
      [
        "c",
        "er"
      ],
      [
        "nt",
        "o"
      ],
      [
        "se",
        "m"
      ],
      [
        "c",
        "os"
      ],
      [
        "R",
        "ei"
      ],
      [
        "m",
        "u"
      ],
      [
        "p",
        "e"
      ],
      [
        "a",
        "o"
      ],
      [
        "m",
        "an"
      ],
      [
        "m",
        "os"
      ],
      [
        "p",
        "era"
      ],
      [
        "es",
        "ta"
      ],
      [
        "in",
        "a"
      ],
      [
        "s",
        "er"
      ],
      [
        "nt",
        "a"
      ],
      [
        "ent",
        "o"
      ],
      [
        "que",
        "m"
      ],
      [
        "t",
        "ro"
      ],
      [
        "m",
        "o"
      ],
      [
        "n",
        "os"
      ],
      [
        "an",
        "o"
      ],
      [
        "A",
        "s"
      ],
      [
        "j",
        "u"
      ],
      [
        "m",
        "as"
      ],
      [
        "lh",
        "a"
      ],
      [
        "in",
        "o"
      ],
      [
        "j",
        "a"
      ],
      [
        "p",
        "ro"
      ],
      [
        "b",
        "e"
      ],
      [
        "O",
        "s"
      ],
      [
        "D",
        "o"
      ],
      [
        "qu",
        "i"
      ],
      [
        "S",
        "e"
      ],
      [
        "d",
        "ia"
      ],
      [
        "m",
        "i"
      ],
      [
        "v",
        "am"
      ],
      [
        "ei",
        "to"
      ],
      [
        "N",
        "ão"
      ],
      [
        "h",
        "o"
      ],
      [
        "v",
        "os"
      ],
      [
        "el",
        "a"
      ],
      [
        "ant",
        "o"
      ],
      [
        "Q",
        "u"
      ],
      [
        "g",
        "os"
      ],
      [
        "d",
        "u"
      ],
      [
        "p",
        "re"
      ],
      [
        "se",
        "u"
      ],
      [
        "un",
        "do"
      ],
      [
        "gran",
        "de"
      ],
      [
        "r",
        "em"
      ],
      [
        "t",
        "as"
      ],
      [
        "D",
        "a"
      ],
      [
        "co",
        "nt"
      ],
      [
        "in",
        "ha"
      ],
      [
        "c",
        "ia"
      ],
      [
        "ç",
        "o"
      ],
      [
        "b",
        "ra"
      ],
      [
        "n",
        "do"
      ],
      [
        "t",
        "es"
      ],
      [
        "de",
        "i"
      ],
      [
        "p",
        "as"
      ],
      [
        "on",
        "de"
      ],
      [
        "r",
        "u"
      ],
      [
        "é",
        "m"
      ],
      [
        "e",
        "x"
      ],
      [
        "ri",
        "o"
      ],
      [
        "com",
        "o"
      ],
      [
        "us",
        "a"
      ],
      [
        "e",
        "g"
      ],
      [
        "p",
        "os"
      ],
      [
        "fa",
        "z"
      ],
      [
        "m",
        "or"
      ],
      [
        "b",
        "re"
      ],
      [
        "l",
        "ar"
      ],
      [
        "en",
        "de"
      ],
      [
        "t",
        "am"
      ],
      [
        "c",
        "as"
      ],
      [
        "R",
        "e"
      ],
      [
        "g",
        "ue"
      ],
      [
        "t",
        "or"
      ],
      [
        "v",
        "al"
      ],
      [
        "M",
        "a"
      ],
      [
        "s",
        "ó"
      ],
      [
        "v",
        "en"
      ],
      [
        "el",
        "e"
      ],
      [
        "P",
        "era"
      ],
      [
        "i",
        "r"
      ],
      [
        "lh",
        "o"
      ],
      [
        "C",
        "o"
      ],
      [
        "h",
        "um"
      ],
      [
        "i",
        "o"
      ],
      [
        "t",
        "al"
      ],
      [
        "z",
        "a"
      ],
      [
        "ç",
        "ão"
      ],
      [
        "E",
        "m"
      ],
      [
        "n",
        "de"
      ],
      [
        "r",
        "is"
      ],
      [
        "ta",
        "nto"
      ],
      [
        "b",
        "er"
      ],
      [
        "es",
        "te"
      ],
      [
        "al",
        "a"
      ],
      [
        "c",
        "am"
      ],
      [
        "p",
        "ri"
      ],
      [
        "mu",
        "i"
      ],
      [
        "ent",
        "es"
      ],
      [
        "O",
        "u"
      ],
      [
        "j",
        "o"
      ],
      [
        "p",
        "res"
      ],
      [
        "ei",
        "ro"
      ],
      [
        "C",
        "a"
      ],
      [
        "c",
        "ar"
      ],
      [
        "h",
        "e"
      ],
      [
        "de",
        "r"
      ],
      [
        "se",
        "us"
      ],
      [
        "ó",
        "s"
      ],
      [
        "ou",
        "ro"
      ],
      [
        "N",
        "a"
      ],
      [
        "á",
        "gu"
      ],
      [
        "i",
        "l"
      ],
      [
        "os",
        "o"
      ],
      [
        "n",
        "as"
      ],
      [
        "ê",
        "s"
      ],
      [
        "õ",
        "es"
      ],
      [
        "fo",
        "i"
      ],
      [
        "J",
        "á"
      ],
      [
        "ü",
        "a"
      ],
      [
        "N",
        "o"
      ],
      [
        "t",
        "re"
      ],
      [
        "nt",
        "es"
      ],
      [
        "m",
        "al"
      ],
      [
        "p",
        "an"
      ],
      [
        "ê",
        "m"
      ],
      [
        "po",
        "is"
      ],
      [
        "á",
        "s"
      ],
      [
        "b",
        "em"
      ],
      [
        "De",
        "us"
      ],
      [
        "par",
        "e"
      ],
      [
        "ent",
        "a"
      ],
      [
        "i",
        "gos"
      ],
      [
        "m",
        "undo"
      ],
      [
        "p",
        "u"
      ],
      [
        "s",
        "os"
      ],
      [
        "p",
        "ou"
      ],
      [
        "p",
        "eito"
      ],
      [
        "é",
        "u"
      ],
      [
        "b",
        "o"
      ],
      [
        "l",
        "on"
      ],
      [
        "v",
        "is"
      ],
      [
        "ó",
        "ria"
      ],
      [
        "n",
        "e"
      ],
      [
        "an",
        "a"
      ],
      [
        "L",
        "us"
      ],
      [
        "b",
        "ar"
      ],
      [
        "ê",
        "n"
      ],
      [
        "lh",
        "os"
      ],
      [
        "c",
        "es"
      ],
      [
        "e",
        "u"
      ],
      [
        "f",
        "im"
      ],
      [
        "in",
        "do"
      ],
      [
        "no",
        "me"
      ],
      [
        "p",
        "el"
      ],
      [
        "f",
        "al"
      ],
      [
        "p",
        "r"
      ],
      [
        "do",
        "r"
      ],
      [
        "da",
        "r"
      ],
      [
        "al",
        "i"
      ],
      [
        "i",
        "go"
      ],
      [
        "or",
        "es"
      ],
      [
        "in",
        "da"
      ],
      [
        "su",
        "a"
      ],
      [
        "se",
        "gu"
      ],
      [
        "ei",
        "tos"
      ],
      [
        "b",
        "ém"
      ],
      [
        "f",
        "u"
      ],
      [
        "p",
        "é"
      ],
      [
        "v",
        "ent"
      ],
      [
        "en",
        "s"
      ],
      [
        "an",
        "ça"
      ],
      [
        "en",
        "g"
      ],
      [
        "for",
        "te"
      ],
      [
        "S",
        "o"
      ],
      [
        "an",
        "os"
      ],
      [
        "v",
        "ão"
      ],
      [
        "ar",
        "te"
      ],
      [
        "un",
        "ca"
      ],
      [
        "sem",
        "pre"
      ],
      [
        "i",
        "t"
      ],
      [
        "i",
        "ra"
      ],
      [
        "ç",
        "as"
      ],
      [
        "to",
        "da"
      ],
      [
        "ri",
        "as"
      ],
      [
        "tem",
        "po"
      ],
      [
        "ên",
        "cia"
      ],
      [
        "g",
        "e"
      ],
      [
        "des",
        "e"
      ],
      [
        "gue",
        "r"
      ],
      [
        "I",
        "n"
      ],
      [
        "d",
        "is"
      ],
      [
        "h",
        "os"
      ],
      [
        "t",
        "ros"
      ],
      [
        "vi",
        "da"
      ],
      [
        "di",
        "z"
      ],
      [
        "par",
        "te"
      ],
      [
        "b",
        "al"
      ],
      [
        "l",
        "as"
      ],
      [
        "v",
        "as"
      ],
      [
        "tra",
        "n"
      ],
      [
        "man",
        "da"
      ],
      [
        "g",
        "i"
      ],
      [
        "p",
        "es"
      ],
      [
        "est",
        "á"
      ],
      [
        "f",
        "ama"
      ],
      [
        "tu",
        "do"
      ],
      [
        "O",
        "nde"
      ],
      [
        "l",
        "u"
      ],
      [
        "s",
        "ão"
      ],
      [
        "dei",
        "x"
      ],
      [
        "P",
        "o"
      ],
      [
        "b",
        "ri"
      ],
      [
        "l",
        "á"
      ],
      [
        "t",
        "é"
      ],
      [
        "u",
        "ra"
      ],
      [
        "to",
        "do"
      ],
      [
        "era",
        "m"
      ],
      [
        "D",
        "es"
      ],
      [
        "c",
        "re"
      ],
      [
        "n",
        "i"
      ],
      [
        "t",
        "ando"
      ],
      [
        "as",
        "si"
      ],
      [
        "mos",
        "tra"
      ],
      [
        "Lus",
        "it"
      ],
      [
        "A",
        "l"
      ],
      [
        "f",
        "e"
      ],
      [
        "g",
        "ar"
      ],
      [
        "h",
        "or"
      ],
      [
        "n",
        "unca"
      ],
      [
        "com",
        "pan"
      ],
      [
        "for",
        "ça"
      ],
      [
        "pri",
        "m"
      ],
      [
        "C",
        "éu"
      ],
      [
        "ei",
        "o"
      ],
      [
        "qu",
        "anto"
      ],
      [
        "ant",
        "es"
      ],
      [
        "Com",
        "o"
      ],
      [
        "tam",
        "bém"
      ],
      [
        "D",
        "os"
      ],
      [
        "l",
        "es"
      ],
      [
        "í",
        "s"
      ],
      [
        "en",
        "o"
      ],
      [
        "re",
        "i"
      ],
      [
        "ei",
        "ros"
      ],
      [
        "Re",
        "ino"
      ],
      [
        "an",
        "da"
      ],
      [
        "am",
        "or"
      ],
      [
        "to",
        "dos"
      ],
      [
        "ou",
        "tra"
      ],
      [
        "Por",
        "tu"
      ],
      [
        "m",
        "en"
      ],
      [
        "p",
        "ra"
      ],
      [
        "v",
        "em"
      ],
      [
        "le",
        "va"
      ],
      [
        "t",
        "ar"
      ],
      [
        "t",
        "inha"
      ],
      [
        "v",
        "or"
      ],
      [
        "pas",
        "sa"
      ],
      [
        "a",
        "ju"
      ],
      [
        "h",
        "as"
      ],
      [
        "r",
        "á"
      ],
      [
        "v",
        "á"
      ],
      [
        "í",
        "n"
      ],
      [
        "ri",
        "os"
      ],
      [
        "ma",
        "da"
      ],
      [
        "Qu",
        "ando"
      ],
      [
        "il",
        "us"
      ],
      [
        "D",
        "i"
      ],
      [
        "c",
        "lar"
      ],
      [
        "i",
        "da"
      ],
      [
        "ga",
        "do"
      ],
      [
        "f",
        "ro"
      ],
      [
        "as",
        "se"
      ],
      [
        "am",
        "os"
      ],
      [
        "pi",
        "tão"
      ],
      [
        "s",
        "om"
      ],
      [
        "po",
        "de"
      ],
      [
        "tra",
        "z"
      ],
      [
        "a",
        "os"
      ],
      [
        "m",
        "ã"
      ],
      [
        "es",
        "pera"
      ],
      [
        "que",
        "r"
      ],
      [
        "al",
        "eg"
      ],
      [
        "en",
        "fim"
      ],
      [
        "ou",
        "tro"
      ],
      [
        "go",
        "ra"
      ],
      [
        "tra",
        "bal"
      ],
      [
        "ci",
        "o"
      ],
      [
        "U",
        "m"
      ],
      [
        "a",
        "qui"
      ],
      [
        "t",
        "en"
      ],
      [
        "v",
        "ia"
      ],
      [
        "es",
        "cu"
      ],
      [
        "lo",
        "go"
      ],
      [
        "cont",
        "ra"
      ],
      [
        "águ",
        "a"
      ],
      [
        "D",
        "as"
      ],
      [
        "b",
        "us"
      ],
      [
        "b",
        "ran"
      ],
      [
        "i",
        "dade"
      ],
      [
        "â",
        "n"
      ],
      [
        "ar",
        "mas"
      ],
      [
        "am",
        "ente"
      ],
      [
        "po",
        "vo"
      ],
      [
        "ant",
        "e"
      ],
      [
        "ver",
        "dade"
      ],
      [
        "a",
        "c"
      ],
      [
        "b",
        "el"
      ],
      [
        "g",
        "l"
      ],
      [
        "g",
        "entes"
      ],
      [
        "i",
        "do"
      ],
      [
        "i",
        "nt"
      ],
      [
        "s",
        "al"
      ],
      [
        "z",
        "es"
      ],
      [
        "ç",
        "os"
      ],
      [
        "ent",
        "re"
      ],
      [
        "qu",
        "al"
      ],
      [
        "ci",
        "do"
      ],
      [
        "Por",
        "que"
      ],
      [
        "v",
        "es"
      ],
      [
        "v",
        "ós"
      ],
      [
        "ei",
        "ra"
      ],
      [
        "vi",
        "r"
      ],
      [
        "Portu",
        "gu"
      ],
      [
        "F",
        "a"
      ],
      [
        "v",
        "ar"
      ],
      [
        "es",
        "tran"
      ],
      [
        "va",
        "i"
      ],
      [
        "tu",
        "ra"
      ],
      [
        "fi",
        "lho"
      ],
      [
        "fer",
        "mos"
      ],
      [
        "E",
        "nt"
      ],
      [
        "M",
        "ouro"
      ],
      [
        "m",
        "ente"
      ],
      [
        "u",
        "l"
      ],
      [
        "es",
        "to"
      ],
      [
        "se",
        "n"
      ],
      [
        "águ",
        "as"
      ],
      [
        "compan",
        "h"
      ],
      [
        "S",
        "em"
      ],
      [
        "a",
        "que"
      ],
      [
        "g",
        "as"
      ],
      [
        "re",
        "ce"
      ],
      [
        "ou",
        "ros"
      ],
      [
        "no",
        "bre"
      ],
      [
        "ant",
        "a"
      ],
      [
        "ch",
        "e"
      ],
      [
        "Ca",
        "pitão"
      ],
      [
        "guer",
        "ra"
      ],
      [
        "A",
        "f"
      ],
      [
        "C",
        "as"
      ],
      [
        "G",
        "ama"
      ],
      [
        "N",
        "em"
      ],
      [
        "c",
        "an"
      ],
      [
        "e",
        "is"
      ],
      [
        "l",
        "im"
      ],
      [
        "r",
        "ão"
      ],
      [
        "es",
        "p"
      ],
      [
        "in",
        "f"
      ],
      [
        "in",
        "s"
      ],
      [
        "com",
        "e"
      ],
      [
        "ter",
        "ras"
      ],
      [
        "gran",
        "des"
      ],
      [
        "mor",
        "te"
      ],
      [
        "E",
        "n"
      ],
      [
        "F",
        "o"
      ],
      [
        "d",
        "á"
      ],
      [
        "f",
        "ra"
      ],
      [
        "g",
        "ra"
      ],
      [
        "o",
        "lhos"
      ],
      [
        "s",
        "us"
      ],
      [
        "á",
        "r"
      ],
      [
        "ar",
        "de"
      ],
      [
        "el",
        "as"
      ],
      [
        "des",
        "pois"
      ],
      [
        "qu",
        "ando"
      ],
      [
        "pou",
        "co"
      ],
      [
        "g",
        "ri"
      ],
      [
        "p",
        "en"
      ],
      [
        "s",
        "in"
      ],
      [
        "se",
        "nt"
      ],
      [
        "in",
        "ho"
      ],
      [
        "Que",
        "m"
      ],
      [
        "na",
        "ve"
      ],
      [
        "fi",
        "ca"
      ],
      [
        "cer",
        "to"
      ],
      [
        "As",
        "si"
      ],
      [
        "mui",
        "to"
      ],
      [
        "T",
        "e"
      ],
      [
        "c",
        "em"
      ],
      [
        "p",
        "á"
      ],
      [
        "v",
        "endo"
      ],
      [
        "é",
        "r"
      ],
      [
        "in",
        "im"
      ],
      [
        "A",
        "r"
      ],
      [
        "C",
        "ris"
      ],
      [
        "O",
        "lha"
      ],
      [
        "a",
        "da"
      ],
      [
        "m",
        "es"
      ],
      [
        "t",
        "r"
      ],
      [
        "v",
        "ê"
      ],
      [
        "co",
        "ra"
      ],
      [
        "po",
        "der"
      ],
      [
        "qu",
        "is"
      ],
      [
        "ci",
        "dade"
      ],
      [
        "L",
        "he"
      ],
      [
        "m",
        "em"
      ],
      [
        "à",
        "s"
      ],
      [
        "al",
        "e"
      ],
      [
        "ri",
        "ca"
      ],
      [
        "na",
        "us"
      ],
      [
        "so",
        "ber"
      ],
      [
        "su",
        "b"
      ],
      [
        "So",
        "l"
      ],
      [
        "lu",
        "z"
      ],
      [
        "clar",
        "o"
      ],
      [
        "A",
        "qui"
      ],
      [
        "T",
        "o"
      ],
      [
        "a",
        "d"
      ],
      [
        "a",
        "pare"
      ],
      [
        "h",
        "á"
      ],
      [
        "r",
        "endo"
      ],
      [
        "t",
        "êm"
      ],
      [
        "v",
        "ento"
      ],
      [
        "x",
        "o"
      ],
      [
        "os",
        "os"
      ],
      [
        "al",
        "g"
      ],
      [
        "Es",
        "te"
      ],
      [
        "Qu",
        "al"
      ],
      [
        "M",
        "ouros"
      ],
      [
        "a",
        "is"
      ],
      [
        "c",
        "el"
      ],
      [
        "h",
        "am"
      ],
      [
        "n",
        "s"
      ],
      [
        "n",
        "em"
      ],
      [
        "ent",
        "os"
      ],
      [
        "ou",
        "tros"
      ],
      [
        "ca",
        "val"
      ],
      [
        "on",
        "das"
      ],
      [
        "du",
        "ra"
      ],
      [
        "ilus",
        "tre"
      ],
      [
        "a",
        "b"
      ],
      [
        "g",
        "rão"
      ],
      [
        "o",
        "be"
      ],
      [
        "al",
        "ta"
      ],
      [
        "ta",
        "is"
      ],
      [
        "ta",
        "va"
      ],
      [
        "im",
        "o"
      ],
      [
        "im",
        "ento"
      ],
      [
        "por",
        "que"
      ],
      [
        "con",
        "he"
      ],
      [
        "fo",
        "ra"
      ],
      [
        "cos",
        "ta"
      ],
      [
        "esta",
        "va"
      ],
      [
        "mi",
        "l"
      ],
      [
        "vis",
        "ta"
      ],
      [
        "fe",
        "z"
      ],
      [
        "T",
        "u"
      ],
      [
        "m",
        "er"
      ],
      [
        "v",
        "in"
      ],
      [
        "us",
        "as"
      ],
      [
        "men",
        "os"
      ],
      [
        "pá",
        "t"
      ],
      [
        "h",
        "on"
      ],
      [
        "n",
        "eg"
      ],
      [
        "s",
        "an"
      ],
      [
        "t",
        "rem"
      ],
      [
        "do",
        "res"
      ],
      [
        "en",
        "hum"
      ],
      [
        "fo",
        "go"
      ],
      [
        "fer",
        "o"
      ],
      [
        "Cas",
        "te"
      ],
      [
        "c",
        "r"
      ],
      [
        "f",
        "l"
      ],
      [
        "i",
        "ga"
      ],
      [
        "p",
        "ô"
      ],
      [
        "s",
        "or"
      ],
      [
        "u",
        "ro"
      ],
      [
        "ra",
        "z"
      ],
      [
        "es",
        "for"
      ],
      [
        "de",
        "f"
      ],
      [
        "des",
        "co"
      ],
      [
        "cu",
        "ida"
      ],
      [
        "Co",
        "nt"
      ],
      [
        "a",
        "gora"
      ],
      [
        "e",
        "ce"
      ],
      [
        "f",
        "ar"
      ],
      [
        "f",
        "era"
      ],
      [
        "f",
        "eitos"
      ],
      [
        "i",
        "os"
      ],
      [
        "i",
        "dos"
      ],
      [
        "es",
        "pa"
      ],
      [
        "al",
        "to"
      ],
      [
        "vi",
        "t"
      ],
      [
        "cu",
        "l"
      ],
      [
        "Ma",
        "is"
      ],
      [
        "ala",
        "v"
      ],
      [
        "lon",
        "ge"
      ],
      [
        "esfor",
        "ço"
      ],
      [
        "A",
        "li"
      ],
      [
        "D",
        "est"
      ],
      [
        "l",
        "os"
      ],
      [
        "v",
        "êm"
      ],
      [
        "ç",
        "ões"
      ],
      [
        "ar",
        "mada"
      ],
      [
        "al",
        "ma"
      ],
      [
        "is",
        "to"
      ],
      [
        "ran",
        "do"
      ],
      [
        "du",
        "ro"
      ],
      [
        "dis",
        "se"
      ],
      [
        "Portugu",
        "es"
      ],
      [
        "N",
        "os"
      ],
      [
        "T",
        "er"
      ],
      [
        "T",
        "or"
      ],
      [
        "b",
        "an"
      ],
      [
        "d",
        "ão"
      ],
      [
        "p",
        "alav"
      ],
      [
        "Í",
        "n"
      ],
      [
        "te",
        "u"
      ],
      [
        "di",
        "do"
      ],
      [
        "est",
        "as"
      ],
      [
        "vent",
        "ura"
      ],
      [
        "arde",
        "nte"
      ],
      [
        "j",
        "us"
      ],
      [
        "m",
        "á"
      ],
      [
        "p",
        "ela"
      ],
      [
        "do",
        "ce"
      ],
      [
        "de",
        "ce"
      ],
      [
        "da",
        "do"
      ],
      [
        "in",
        "c"
      ],
      [
        "in",
        "as"
      ],
      [
        "to",
        "ma"
      ],
      [
        "ta",
        "nt"
      ],
      [
        "lh",
        "as"
      ],
      [
        "ca",
        "be"
      ],
      [
        "ch",
        "ama"
      ],
      [
        "pas",
        "s"
      ],
      [
        "ís",
        "s"
      ],
      [
        "gl",
        "ória"
      ],
      [
        "palav",
        "ras"
      ],
      [
        "C",
        "on"
      ],
      [
        "M",
        "ar"
      ],
      [
        "V",
        "i"
      ],
      [
        "a",
        "do"
      ],
      [
        "e",
        "ter"
      ],
      [
        "es",
        "ti"
      ],
      [
        "da",
        "ndo"
      ],
      [
        "in",
        "os"
      ],
      [
        "ta",
        "do"
      ],
      [
        "ci",
        "da"
      ],
      [
        "ve",
        "zes"
      ],
      [
        "con",
        "se"
      ],
      [
        "Deus",
        "es"
      ],
      [
        "pel",
        "o"
      ],
      [
        "Po",
        "is"
      ],
      [
        "Di",
        "z"
      ],
      [
        "I",
        "lha"
      ],
      [
        "P",
        "er"
      ],
      [
        "b",
        "as"
      ],
      [
        "c",
        "la"
      ],
      [
        "f",
        "eito"
      ],
      [
        "f",
        "undo"
      ],
      [
        "g",
        "esto"
      ],
      [
        "i",
        "as"
      ],
      [
        "m",
        "ão"
      ],
      [
        "p",
        "tu"
      ],
      [
        "s",
        "á"
      ],
      [
        "ç",
        "am"
      ],
      [
        "el",
        "o"
      ],
      [
        "des",
        "te"
      ],
      [
        "ci",
        "os"
      ],
      [
        "est",
        "ão"
      ],
      [
        "bi",
        "l"
      ],
      [
        "cam",
        "po"
      ],
      [
        "pare",
        "ce"
      ],
      [
        "dese",
        "ja"
      ],
      [
        "prim",
        "eiro"
      ],
      [
        "Fa",
        "z"
      ],
      [
        "Ent",
        "re"
      ],
      [
        "pát",
        "ria"
      ],
      [
        "A",
        "o"
      ],
      [
        "C",
        "u"
      ],
      [
        "C",
        "os"
      ],
      [
        "M",
        "e"
      ],
      [
        "O",
        "ri"
      ],
      [
        "P",
        "ro"
      ],
      [
        "S",
        "er"
      ],
      [
        "b",
        "ras"
      ],
      [
        "f",
        "re"
      ],
      [
        "i",
        "ma"
      ],
      [
        "n",
        "enhum"
      ],
      [
        "o",
        "ra"
      ],
      [
        "am",
        "ento"
      ],
      [
        "ei",
        "ta"
      ],
      [
        "gu",
        "ar"
      ],
      [
        "ros",
        "o"
      ],
      [
        "dia",
        "nte"
      ],
      [
        "sen",
        "hor"
      ],
      [
        "F",
        "or"
      ],
      [
        "a",
        "ch"
      ],
      [
        "f",
        "í"
      ],
      [
        "g",
        "em"
      ],
      [
        "i",
        "g"
      ],
      [
        "n",
        "u"
      ],
      [
        "t",
        "á"
      ],
      [
        "ta",
        "nta"
      ],
      [
        "el",
        "es"
      ],
      [
        "po",
        "t"
      ],
      [
        "um",
        "e"
      ],
      [
        "di",
        "v"
      ],
      [
        "ba",
        "ra"
      ],
      [
        "Des",
        "pois"
      ],
      [
        "Af",
        "on"
      ],
      [
        "san",
        "gue"
      ],
      [
        "sor",
        "te"
      ],
      [
        "N",
        "as"
      ],
      [
        "a",
        "co"
      ],
      [
        "g",
        "era"
      ],
      [
        "o",
        "usa"
      ],
      [
        "s",
        "as"
      ],
      [
        "de",
        "l"
      ],
      [
        "in",
        "i"
      ],
      [
        "ro",
        "u"
      ],
      [
        "ca",
        "do"
      ],
      [
        "des",
        "t"
      ],
      [
        "na",
        "da"
      ],
      [
        "ter",
        "m"
      ],
      [
        "per",
        "igos"
      ],
      [
        "pe",
        "que"
      ],
      [
        "rem",
        "o"
      ],
      [
        "hum",
        "ano"
      ],
      [
        "eng",
        "ano"
      ],
      [
        "outra",
        "s"
      ],
      [
        "alg",
        "um"
      ],
      [
        "Ín",
        "dia"
      ],
      [
        "A",
        "n"
      ],
      [
        "I",
        "s"
      ],
      [
        "R",
        "o"
      ],
      [
        "a",
        "va"
      ],
      [
        "b",
        "era"
      ],
      [
        "b",
        "ela"
      ],
      [
        "f",
        "os"
      ],
      [
        "f",
        "ia"
      ],
      [
        "g",
        "ando"
      ],
      [
        "h",
        "om"
      ],
      [
        "l",
        "an"
      ],
      [
        "s",
        "on"
      ],
      [
        "t",
        "ris"
      ],
      [
        "me",
        "do"
      ],
      [
        "tem",
        "er"
      ],
      [
        "fer",
        "ro"
      ],
      [
        "bi",
        "do"
      ],
      [
        "companh",
        "ia"
      ],
      [
        "cora",
        "ção"
      ],
      [
        "Cont",
        "ra"
      ],
      [
        "Afon",
        "so"
      ],
      [
        "C",
        "or"
      ],
      [
        "L",
        "á"
      ],
      [
        "T",
        "em"
      ],
      [
        "V",
        "er"
      ],
      [
        "n",
        "ós"
      ],
      [
        "p",
        "ele"
      ],
      [
        "t",
        "í"
      ],
      [
        "t",
        "ri"
      ],
      [
        "é",
        "us"
      ],
      [
        "é",
        "li"
      ],
      [
        "es",
        "se"
      ],
      [
        "or",
        "de"
      ],
      [
        "ent",
        "ra"
      ],
      [
        "no",
        "vo"
      ],
      [
        "vi",
        "u"
      ],
      [
        "fi",
        "r"
      ],
      [
        "le",
        "ve"
      ],
      [
        "par",
        "tes"
      ],
      [
        "ex",
        "cel"
      ],
      [
        "Re",
        "is"
      ],
      [
        "pé",
        "rio"
      ],
      [
        "vá",
        "rias"
      ],
      [
        "fro",
        "ta"
      ],
      [
        "D",
        "ei"
      ],
      [
        "c",
        "ri"
      ],
      [
        "d",
        "ro"
      ],
      [
        "f",
        "am"
      ],
      [
        "f",
        "amos"
      ],
      [
        "t",
        "is"
      ],
      [
        "es",
        "con"
      ],
      [
        "do",
        "u"
      ],
      [
        "que",
        "le"
      ],
      [
        "al",
        "h"
      ],
      [
        "en",
        "da"
      ],
      [
        "to",
        "u"
      ],
      [
        "ei",
        "as"
      ],
      [
        "im",
        "os"
      ],
      [
        "est",
        "re"
      ],
      [
        "mar",
        "es"
      ],
      [
        "cor",
        "po"
      ],
      [
        "vo",
        "z"
      ],
      [
        "ju",
        "nt"
      ],
      [
        "pr",
        "ó"
      ],
      [
        "vent",
        "os"
      ],
      [
        "Lusit",
        "ano"
      ],
      [
        "mã",
        "os"
      ],
      [
        "Te",
        "jo"
      ],
      [
        "ale",
        "va"
      ],
      [
        "F",
        "er"
      ],
      [
        "M",
        "arte"
      ],
      [
        "N",
        "e"
      ],
      [
        "V",
        "ê"
      ],
      [
        "c",
        "á"
      ],
      [
        "f",
        "in"
      ],
      [
        "i",
        "gu"
      ],
      [
        "l",
        "ou"
      ],
      [
        "l",
        "ança"
      ],
      [
        "v",
        "inha"
      ],
      [
        "os",
        "as"
      ],
      [
        "do",
        "nde"
      ],
      [
        "de",
        "le"
      ],
      [
        "al",
        "ha"
      ],
      [
        "is",
        "t"
      ],
      [
        "to",
        "m"
      ],
      [
        "des",
        "ta"
      ],
      [
        "ga",
        "da"
      ],
      [
        "fa",
        "vor"
      ],
      [
        "pa",
        "i"
      ],
      [
        "faz",
        "er"
      ],
      [
        "lar",
        "go"
      ],
      [
        "tam",
        "an"
      ],
      [
        "ven",
        "ce"
      ],
      [
        "cam",
        "inho"
      ],
      [
        "Ne",
        "ptu"
      ],
      [
        "B",
        "em"
      ],
      [
        "E",
        "u"
      ],
      [
        "F",
        "i"
      ],
      [
        "G",
        "ent"
      ],
      [
        "L",
        "ei"
      ],
      [
        "M",
        "u"
      ],
      [
        "P",
        "a"
      ],
      [
        "S",
        "a"
      ],
      [
        "S",
        "u"
      ],
      [
        "V",
        "ês"
      ],
      [
        "b",
        "om"
      ],
      [
        "b",
        "ru"
      ],
      [
        "c",
        "ris"
      ],
      [
        "i",
        "am"
      ],
      [
        "m",
        "inha"
      ],
      [
        "n",
        "um"
      ],
      [
        "o",
        "bri"
      ],
      [
        "p",
        "eitos"
      ],
      [
        "r",
        "é"
      ],
      [
        "z",
        "e"
      ],
      [
        "é",
        "s"
      ],
      [
        "ó",
        "rias"
      ],
      [
        "do",
        "us"
      ],
      [
        "ant",
        "igo"
      ],
      [
        "gu",
        "ns"
      ],
      [
        "tu",
        "na"
      ],
      [
        "ci",
        "dos"
      ],
      [
        "ce",
        "de"
      ],
      [
        "sa",
        "be"
      ],
      [
        "est",
        "es"
      ],
      [
        "est",
        "ende"
      ],
      [
        "bra",
        "ço"
      ],
      [
        "fermos",
        "a"
      ],
      [
        "Fo",
        "i"
      ],
      [
        "mem",
        "ória"
      ],
      [
        "C",
        "i"
      ],
      [
        "T",
        "ão"
      ],
      [
        "V",
        "e"
      ],
      [
        "a",
        "pres"
      ],
      [
        "b",
        "ia"
      ],
      [
        "c",
        "í"
      ],
      [
        "f",
        "res"
      ],
      [
        "f",
        "ria"
      ],
      [
        "f",
        "rio"
      ],
      [
        "g",
        "al"
      ],
      [
        "j",
        "am"
      ],
      [
        "o",
        "fer"
      ],
      [
        "p",
        "ens"
      ],
      [
        "de",
        "term"
      ],
      [
        "da",
        "no"
      ],
      [
        "co",
        "u"
      ],
      [
        "co",
        "usas"
      ],
      [
        "an",
        "as"
      ],
      [
        "po",
        "nde"
      ],
      [
        "di",
        "as"
      ],
      [
        "di",
        "da"
      ],
      [
        "di",
        "rei"
      ],
      [
        "por",
        "to"
      ],
      [
        "so",
        "l"
      ],
      [
        "ros",
        "to"
      ],
      [
        "Por",
        "ém"
      ],
      [
        "un",
        "da"
      ],
      [
        "fi",
        "lhos"
      ],
      [
        "cu",
        "ja"
      ],
      [
        "ch",
        "o"
      ],
      [
        "ju",
        "nto"
      ],
      [
        "pos",
        "to"
      ],
      [
        "cas",
        "o"
      ],
      [
        "tor",
        "n"
      ],
      [
        "pres",
        "a"
      ],
      [
        "trabal",
        "ho"
      ],
      [
        "bus",
        "car"
      ],
      [
        "estran",
        "ha"
      ],
      [
        "aque",
        "le"
      ],
      [
        "espa",
        "da"
      ],
      [
        "vit",
        "ória"
      ],
      [
        "G",
        "u"
      ],
      [
        "L",
        "e"
      ],
      [
        "O",
        "ce"
      ],
      [
        "P",
        "r"
      ],
      [
        "V",
        "en"
      ],
      [
        "a",
        "per"
      ],
      [
        "c",
        "ando"
      ],
      [
        "c",
        "endo"
      ],
      [
        "f",
        "ú"
      ],
      [
        "g",
        "re"
      ],
      [
        "j",
        "os"
      ],
      [
        "o",
        "bras"
      ],
      [
        "r",
        "er"
      ],
      [
        "t",
        "um"
      ],
      [
        "x",
        "a"
      ],
      [
        "á",
        "si"
      ],
      [
        "nt",
        "ando"
      ],
      [
        "de",
        "la"
      ],
      [
        "in",
        "h"
      ],
      [
        "in",
        "ci"
      ],
      [
        "en",
        "ho"
      ],
      [
        "to",
        "mar"
      ],
      [
        "re",
        "ino"
      ],
      [
        "ta",
        "nte"
      ],
      [
        "ca",
        "da"
      ],
      [
        "no",
        "va"
      ],
      [
        "na",
        "u"
      ],
      [
        "na",
        "do"
      ],
      [
        "na",
        "tura"
      ],
      [
        "vi",
        "do"
      ],
      [
        "ter",
        "r"
      ],
      [
        "ant",
        "as"
      ],
      [
        "ant",
        "iga"
      ],
      [
        "ti",
        "l"
      ],
      [
        "ti",
        "do"
      ],
      [
        "ve",
        "ja"
      ],
      [
        "su",
        "as"
      ],
      [
        "si",
        "ma"
      ],
      [
        "ser",
        "á"
      ],
      [
        "vos",
        "so"
      ],
      [
        "cas",
        "ti"
      ],
      [
        "dese",
        "jo"
      ],
      [
        "ís",
        "sima"
      ],
      [
        "trabal",
        "hos"
      ],
      [
        "inim",
        "igos"
      ],
      [
        "Cris",
        "to"
      ],
      [
        "cr",
        "ue"
      ],
      [
        "Portugues",
        "es"
      ],
      [
        "pot",
        "ente"
      ],
      [
        "tris",
        "te"
      ],
      [
        "Oce",
        "ano"
      ],
      [
        "A",
        "mor"
      ],
      [
        "A",
        "gora"
      ],
      [
        "J",
        "u"
      ],
      [
        "M",
        "os"
      ],
      [
        "N",
        "inf"
      ],
      [
        "P",
        "ar"
      ],
      [
        "R",
        "om"
      ],
      [
        "T",
        "al"
      ],
      [
        "T",
        "om"
      ],
      [
        "T",
        "anto"
      ],
      [
        "a",
        "par"
      ],
      [
        "b",
        "os"
      ],
      [
        "l",
        "í"
      ],
      [
        "n",
        "ça"
      ],
      [
        "n",
        "este"
      ],
      [
        "s",
        "anta"
      ],
      [
        "v",
        "ã"
      ],
      [
        "v",
        "elas"
      ],
      [
        "z",
        "as"
      ],
      [
        "ó",
        "n"
      ],
      [
        "ú",
        "bi"
      ],
      [
        "que",
        "la"
      ],
      [
        "se",
        "ndo"
      ],
      [
        "an",
        "g"
      ],
      [
        "te",
        "ve"
      ],
      [
        "ma",
        "i"
      ],
      [
        "vi",
        "l"
      ],
      [
        "De",
        "usa"
      ],
      [
        "di",
        "o"
      ],
      [
        "so",
        "bera"
      ],
      [
        "cor",
        "re"
      ],
      [
        "mo",
        "ra"
      ],
      [
        "mo",
        "nte"
      ],
      [
        "qui",
        "e"
      ],
      [
        "pos",
        "s"
      ],
      [
        "cam",
        "pos"
      ],
      [
        "mui",
        "tos"
      ],
      [
        "Ou",
        "tros"
      ],
      [
        "lon",
        "go"
      ],
      [
        "segu",
        "ndo"
      ],
      [
        "fro",
        "nte"
      ],
      [
        "mã",
        "e"
      ],
      [
        "aleg",
        "ria"
      ],
      [
        "sus",
        "t"
      ],
      [
        "nave",
        "g"
      ],
      [
        "Caste",
        "lh"
      ],
      [
        "íss",
        "imo"
      ],
      [
        "fir",
        "me"
      ],
      [
        "Neptu",
        "no"
      ],
      [
        "obri",
        "ga"
      ],
      [
        "Ninf",
        "as"
      ],
      [
        "A",
        "nt"
      ],
      [
        "A",
        "té"
      ],
      [
        "P",
        "ela"
      ],
      [
        "S",
        "ó"
      ],
      [
        "V",
        "endo"
      ],
      [
        "a",
        "ca"
      ],
      [
        "b",
        "u"
      ],
      [
        "g",
        "ia"
      ],
      [
        "i",
        "u"
      ],
      [
        "j",
        "eito"
      ],
      [
        "s",
        "anto"
      ],
      [
        "t",
        "endo"
      ],
      [
        "á",
        "mos"
      ],
      [
        "que",
        "les"
      ],
      [
        "se",
        "ja"
      ],
      [
        "co",
        "bi"
      ],
      [
        "al",
        "tos"
      ],
      [
        "in",
        "d"
      ],
      [
        "ma",
        "do"
      ],
      [
        "vi",
        "z"
      ],
      [
        "tra",
        "s"
      ],
      [
        "tu",
        "a"
      ],
      [
        "so",
        "bre"
      ],
      [
        "me",
        "u"
      ],
      [
        "le",
        "do"
      ],
      [
        "con",
        "s"
      ],
      [
        "for",
        "tes"
      ],
      [
        "tem",
        "or"
      ],
      [
        "lo",
        "to"
      ],
      [
        "vo",
        "l"
      ],
      [
        "mu",
        "ros"
      ],
      [
        "pe",
        "d"
      ],
      [
        "mo",
        "ntes"
      ],
      [
        "mi",
        "lh"
      ],
      [
        "vos",
        "sos"
      ],
      [
        "val",
        "er"
      ],
      [
        "Ou",
        "tro"
      ],
      [
        "der",
        "ra"
      ],
      [
        "pel",
        "as"
      ],
      [
        "ira",
        "do"
      ],
      [
        "deix",
        "a"
      ],
      [
        "som",
        "ente"
      ],
      [
        "verdade",
        "i"
      ],
      [
        "vir",
        "tu"
      ],
      [
        "gri",
        "mas"
      ],
      [
        "apare",
        "lha"
      ],
      [
        "raz",
        "ão"
      ],
      [
        "def",
        "ende"
      ],
      [
        "Ter",
        "ra"
      ],
      [
        "cla",
        "ra"
      ],
      [
        "Ori",
        "ente"
      ],
      [
        "Mu",
        "i"
      ],
      [
        "cris",
        "tal"
      ],
      [
        "determ",
        "ina"
      ],
      [
        "C",
        "am"
      ],
      [
        "E",
        "is"
      ],
      [
        "P",
        "os"
      ],
      [
        "S",
        "en"
      ],
      [
        "a",
        "i"
      ],
      [
        "c",
        "ru"
      ],
      [
        "c",
        "éu"
      ],
      [
        "c",
        "ança"
      ],
      [
        "g",
        "en"
      ],
      [
        "g",
        "eiro"
      ],
      [
        "v",
        "eram"
      ],
      [
        "z",
        "o"
      ],
      [
        "é",
        "n"
      ],
      [
        "é",
        "mi"
      ],
      [
        "os",
        "a"
      ],
      [
        "ra",
        "va"
      ],
      [
        "is",
        "so"
      ],
      [
        "ma",
        "ta"
      ],
      [
        "va",
        "do"
      ],
      [
        "vi",
        "dos"
      ],
      [
        "ti",
        "ra"
      ],
      [
        "ve",
        "lho"
      ],
      [
        "fi",
        "z"
      ],
      [
        "si",
        "go"
      ],
      [
        "li",
        "v"
      ],
      [
        "fo",
        "ram"
      ],
      [
        "vo",
        "nta"
      ],
      [
        "ba",
        "i"
      ],
      [
        "ba",
        "xo"
      ],
      [
        "Es",
        "ta"
      ],
      [
        "Es",
        "tre"
      ],
      [
        "cer",
        "ta"
      ],
      [
        "hum",
        "ana"
      ],
      [
        "diz",
        "ia"
      ],
      [
        "Lusit",
        "ana"
      ],
      [
        "ín",
        "ci"
      ],
      [
        "che",
        "ga"
      ],
      [
        "lim",
        "e"
      ],
      [
        "mer",
        "e"
      ],
      [
        "ban",
        "dei"
      ],
      [
        "sá",
        "bi"
      ],
      [
        "Is",
        "to"
      ],
      [
        "Mos",
        "tra"
      ],
      [
        "C",
        "h"
      ],
      [
        "F",
        "e"
      ],
      [
        "M",
        "o"
      ],
      [
        "M",
        "ala"
      ],
      [
        "T",
        "ra"
      ],
      [
        "a",
        "tre"
      ],
      [
        "b",
        "res"
      ],
      [
        "c",
        "um"
      ],
      [
        "c",
        "ano"
      ],
      [
        "c",
        "ele"
      ],
      [
        "d",
        "um"
      ],
      [
        "g",
        "ni"
      ],
      [
        "i",
        "te"
      ],
      [
        "l",
        "ia"
      ],
      [
        "p",
        "ia"
      ],
      [
        "t",
        "in"
      ],
      [
        "se",
        "i"
      ],
      [
        "an",
        "ha"
      ],
      [
        "al",
        "cança"
      ],
      [
        "en",
        "x"
      ],
      [
        "en",
        "ça"
      ],
      [
        "am",
        "e"
      ],
      [
        "am",
        "ores"
      ],
      [
        "ent",
        "ar"
      ],
      [
        "ro",
        "m"
      ],
      [
        "ei",
        "ras"
      ],
      [
        "ri",
        "co"
      ],
      [
        "ca",
        "usa"
      ],
      [
        "des",
        "se"
      ],
      [
        "des",
        "bara"
      ],
      [
        "qu",
        "ási"
      ],
      [
        "go",
        "ver"
      ],
      [
        "so",
        "no"
      ],
      [
        "ti",
        "co"
      ],
      [
        "me",
        "us"
      ],
      [
        "ver",
        "eis"
      ],
      [
        "Com",
        "e"
      ],
      [
        "si",
        "dade"
      ],
      [
        "per",
        "to"
      ],
      [
        "cu",
        "r"
      ],
      [
        "cu",
        "jo"
      ],
      [
        "pa",
        "z"
      ],
      [
        "tro",
        "u"
      ],
      [
        "pro",
        "v"
      ],
      [
        "pro",
        "me"
      ],
      [
        "Qu",
        "anto"
      ],
      [
        "ex",
        "prim"
      ],
      [
        "ex",
        "trem"
      ],
      [
        "faz",
        "em"
      ],
      [
        "faz",
        "endo"
      ],
      [
        "tor",
        "na"
      ],
      [
        "val",
        "or"
      ],
      [
        "ber",
        "to"
      ],
      [
        "pou",
        "ca"
      ],
      [
        "escu",
        "ra"
      ],
      [
        "ân",
        "ia"
      ],
      [
        "Portugu",
        "ês"
      ],
      [
        "pen",
        "e"
      ],
      [
        "sin",
        "al"
      ],
      [
        "Dest",
        "arte"
      ],
      [
        "For",
        "tuna"
      ],
      [
        "junt",
        "amente"
      ],
      [
        "A",
        "us"
      ],
      [
        "B",
        "aco"
      ],
      [
        "L",
        "i"
      ],
      [
        "M",
        "el"
      ],
      [
        "M",
        "anda"
      ],
      [
        "N",
        "in"
      ],
      [
        "P",
        "e"
      ],
      [
        "P",
        "ó"
      ],
      [
        "T",
        "am"
      ],
      [
        "a",
        "t"
      ],
      [
        "a",
        "tro"
      ],
      [
        "b",
        "ros"
      ],
      [
        "h",
        "ou"
      ],
      [
        "l",
        "em"
      ],
      [
        "l",
        "ti"
      ],
      [
        "m",
        "in"
      ],
      [
        "m",
        "ent"
      ],
      [
        "m",
        "ento"
      ],
      [
        "n",
        "ela"
      ],
      [
        "p",
        "al"
      ],
      [
        "r",
        "indo"
      ],
      [
        "t",
        "ia"
      ],
      [
        "de",
        "u"
      ],
      [
        "er",
        "es"
      ],
      [
        "ar",
        "á"
      ],
      [
        "ar",
        "ra"
      ],
      [
        "ar",
        "es"
      ],
      [
        "an",
        "e"
      ],
      [
        "en",
        "a"
      ],
      [
        "us",
        "o"
      ],
      [
        "ca",
        "va"
      ],
      [
        "di",
        "fer"
      ],
      [
        "ant",
        "os"
      ],
      [
        "sa",
        "ber"
      ],
      [
        "fi",
        "lha"
      ],
      [
        "ver",
        "sos"
      ],
      [
        "for",
        "ças"
      ],
      [
        "per",
        "igo"
      ],
      [
        "cor",
        "o"
      ],
      [
        "cor",
        "es"
      ],
      [
        "li",
        "ma"
      ],
      [
        "pi",
        "ter"
      ],
      [
        "bi",
        "dos"
      ],
      [
        "pe",
        "de"
      ],
      [
        "dei",
        "ro"
      ],
      [
        "ru",
        "í"
      ],
      [
        "pos",
        "ta"
      ],
      [
        "Lus",
        "o"
      ],
      [
        "pel",
        "os"
      ],
      [
        "fal",
        "ta"
      ],
      [
        "pr",
        "émi"
      ],
      [
        "segu",
        "ro"
      ],
      [
        "fu",
        "r"
      ],
      [
        "lá",
        "grimas"
      ],
      [
        "hor",
        "rendo"
      ],
      [
        "compan",
        "ha"
      ],
      [
        "vá",
        "rios"
      ],
      [
        "can",
        "sa"
      ],
      [
        "ér",
        "ci"
      ],
      [
        "Cris",
        "t"
      ],
      [
        "sober",
        "ba"
      ],
      [
        "sub",
        "lime"
      ],
      [
        "caval",
        "eiro"
      ],
      [
        "Caste",
        "la"
      ],
      [
        "tant",
        "as"
      ],
      [
        "cabe",
        "ça"
      ],
      [
        "pass",
        "ar"
      ],
      [
        "fos",
        "se"
      ],
      [
        "Gent",
        "io"
      ],
      [
        "virtu",
        "de"
      ],
      [
        "vonta",
        "de"
      ],
      [
        "J",
        "o"
      ],
      [
        "L",
        "o"
      ],
      [
        "P",
        "ad"
      ],
      [
        "U",
        "ns"
      ],
      [
        "V",
        "ai"
      ],
      [
        "a",
        "ces"
      ],
      [
        "c",
        "imento"
      ],
      [
        "e",
        "za"
      ],
      [
        "f",
        "ei"
      ],
      [
        "f",
        "ala"
      ],
      [
        "f",
        "ér"
      ],
      [
        "i",
        "cos"
      ],
      [
        "l",
        "ei"
      ],
      [
        "n",
        "am"
      ],
      [
        "r",
        "en"
      ],
      [
        "s",
        "úbi"
      ],
      [
        "t",
        "ens"
      ],
      [
        "v",
        "ês"
      ],
      [
        "ó",
        "rio"
      ],
      [
        "õ",
        "e"
      ],
      [
        "ra",
        "vi"
      ],
      [
        "da",
        "mas"
      ],
      [
        "co",
        "usa"
      ],
      [
        "am",
        "ar"
      ],
      [
        "re",
        "ga"
      ],
      [
        "re",
        "za"
      ],
      [
        "ri",
        "que"
      ],
      [
        "ma",
        "nt"
      ],
      [
        "no",
        "vas"
      ],
      [
        "vi",
        "das"
      ],
      [
        "di",
        "dos"
      ],
      [
        "gu",
        "a"
      ],
      [
        "ci",
        "ma"
      ],
      [
        "ha",
        "bi"
      ],
      [
        "fi",
        "gu"
      ],
      [
        "ba",
        "tal"
      ],
      [
        "man",
        "ce"
      ],
      [
        "man",
        "ha"
      ],
      [
        "man",
        "eira"
      ],
      [
        "ser",
        "eno"
      ],
      [
        "nta",
        "va"
      ],
      [
        "du",
        "z"
      ],
      [
        "ex",
        "érci"
      ],
      [
        "lar",
        "ga"
      ],
      [
        "pan",
        "ha"
      ],
      [
        "pu",
        "l"
      ],
      [
        "fal",
        "so"
      ],
      [
        "pé",
        "r"
      ],
      [
        "diz",
        "endo"
      ],
      [
        "té",
        "is"
      ],
      [
        "bran",
        "do"
      ],
      [
        "gl",
        "or"
      ],
      [
        "En",
        "quanto"
      ],
      [
        "sober",
        "bo"
      ],
      [
        "obe",
        "di"
      ],
      [
        "fl",
        "ores"
      ],
      [
        "pô",
        "s"
      ],
      [
        "tant",
        "os"
      ],
      [
        "ima",
        "g"
      ],
      [
        "gera",
        "ção"
      ],
      [
        "pens",
        "amento"
      ],
      [
        "Pr",
        "ínci"
      ],
      [
        "terr",
        "eno"
      ],
      [
        "ón",
        "io"
      ],
      [
        "Nin",
        "fa"
      ],
      [
        "Pad",
        "re"
      ],
      [
        "Prínci",
        "pe"
      ],
      [
        "A",
        "m"
      ],
      [
        "A",
        "rá"
      ],
      [
        "D",
        "om"
      ],
      [
        "J",
        "ú"
      ],
      [
        "M",
        "on"
      ],
      [
        "M",
        "undo"
      ],
      [
        "P",
        "elo"
      ],
      [
        "R",
        "a"
      ],
      [
        "V",
        "én"
      ],
      [
        "c",
        "ria"
      ],
      [
        "e",
        "di"
      ],
      [
        "g",
        "ent"
      ],
      [
        "l",
        "is"
      ],
      [
        "l",
        "ín"
      ],
      [
        "p",
        "lo"
      ],
      [
        "s",
        "es"
      ],
      [
        "s",
        "ou"
      ],
      [
        "t",
        "ende"
      ],
      [
        "ã",
        "os"
      ],
      [
        "í",
        "bil"
      ],
      [
        "ó",
        "ni"
      ],
      [
        "ra",
        "do"
      ],
      [
        "es",
        "a"
      ],
      [
        "da",
        "va"
      ],
      [
        "ar",
        "ia"
      ],
      [
        "in",
        "hos"
      ],
      [
        "en",
        "quanto"
      ],
      [
        "ent",
        "ão"
      ],
      [
        "re",
        "g"
      ],
      [
        "re",
        "po"
      ],
      [
        "ta",
        "ram"
      ],
      [
        "ri",
        "b"
      ],
      [
        "ca",
        "ra"
      ],
      [
        "no",
        "ite"
      ],
      [
        "ant",
        "igos"
      ],
      [
        "im",
        "igos"
      ],
      [
        "ça",
        "do"
      ],
      [
        "con",
        "ver"
      ],
      [
        "ch",
        "eg"
      ],
      [
        "pa",
        "is"
      ],
      [
        "pi",
        "e"
      ],
      [
        "pi",
        "loto"
      ],
      [
        "ba",
        "téis"
      ],
      [
        "nos",
        "sos"
      ],
      [
        "pro",
        "fundo"
      ],
      [
        "vos",
        "sa"
      ],
      [
        "cont",
        "rá"
      ],
      [
        "bra",
        "ços"
      ],
      [
        "usa",
        "do"
      ],
      [
        "mor",
        "tos"
      ],
      [
        "só",
        "s"
      ],
      [
        "Ca",
        "bo"
      ],
      [
        "pu",
        "ra"
      ],
      [
        "So",
        "bre"
      ],
      [
        "In",
        "g"
      ],
      [
        "Lusit",
        "anos"
      ],
      [
        "passa",
        "dos"
      ],
      [
        "aju",
        "nt"
      ],
      [
        "aju",
        "da"
      ],
      [
        "ac",
        "ha"
      ],
      [
        "ár",
        "bar"
      ],
      [
        "obe",
        "de"
      ],
      [
        "Tu",
        "do"
      ],
      [
        "hon",
        "ras"
      ],
      [
        "div",
        "ina"
      ],
      [
        "pele",
        "ja"
      ],
      [
        "orde",
        "na"
      ],
      [
        "Dei",
        "x"
      ],
      [
        "pró",
        "p"
      ],
      [
        "Castelh",
        "ano"
      ],
      [
        "cele",
        "bra"
      ],
      [
        "Pó",
        "lo"
      ],
      [
        "Tam",
        "bém"
      ],
      [
        "prémi",
        "o"
      ],
      [
        "Vén",
        "us"
      ],
      [
        "A",
        "le"
      ],
      [
        "E",
        "ra"
      ],
      [
        "F",
        "ran"
      ],
      [
        "I",
        "m"
      ],
      [
        "T",
        "i"
      ],
      [
        "a",
        "dor"
      ],
      [
        "a",
        "companha"
      ],
      [
        "c",
        "in"
      ],
      [
        "d",
        "re"
      ],
      [
        "e",
        "ia"
      ],
      [
        "h",
        "ores"
      ],
      [
        "i",
        "lha"
      ],
      [
        "j",
        "as"
      ],
      [
        "l",
        "us"
      ],
      [
        "l",
        "ina"
      ],
      [
        "m",
        "ando"
      ],
      [
        "m",
        "eio"
      ],
      [
        "n",
        "ando"
      ],
      [
        "n",
        "esta"
      ],
      [
        "n",
        "isto"
      ],
      [
        "v",
        "ela"
      ],
      [
        "v",
        "ores"
      ],
      [
        "ã",
        "es"
      ],
      [
        "é",
        "tis"
      ],
      [
        "es",
        "pes"
      ],
      [
        "se",
        "tas"
      ],
      [
        "al",
        "tas"
      ],
      [
        "ent",
        "ende"
      ],
      [
        "ta",
        "dos"
      ],
      [
        "ro",
        "de"
      ],
      [
        "ma",
        "ravi"
      ],
      [
        "ca",
        "nto"
      ],
      [
        "ca",
        "bel"
      ],
      [
        "el",
        "i"
      ],
      [
        "di",
        "am"
      ],
      [
        "di",
        "to"
      ],
      [
        "di",
        "tos"
      ],
      [
        "tra",
        "to"
      ],
      [
        "gu",
        "ia"
      ],
      [
        "est",
        "ar"
      ],
      [
        "un",
        "s"
      ],
      [
        "fi",
        "cou"
      ],
      [
        "for",
        "ma"
      ],
      [
        "par",
        "ti"
      ],
      [
        "la",
        "va"
      ],
      [
        "fer",
        "os"
      ],
      [
        "pi",
        "nta"
      ],
      [
        "Es",
        "panha"
      ],
      [
        "cos",
        "tu"
      ],
      [
        "cos",
        "tum"
      ],
      [
        "esta",
        "de"
      ],
      [
        "mo",
        "do"
      ],
      [
        "ju",
        "í"
      ],
      [
        "bra",
        "vo"
      ],
      [
        "ex",
        "per"
      ],
      [
        "bre",
        "ve"
      ],
      [
        "ven",
        "cer"
      ],
      [
        "ir",
        "á"
      ],
      [
        "Ca",
        "tu"
      ],
      [
        "ás",
        "per"
      ],
      [
        "sos",
        "se"
      ],
      [
        "pou",
        "cos"
      ],
      [
        "pr",
        "inci"
      ],
      [
        "vent",
        "u"
      ],
      [
        "eng",
        "enho"
      ],
      [
        "men",
        "sa"
      ],
      [
        "pra",
        "ia"
      ],
      [
        "aju",
        "nta"
      ],
      [
        "traz",
        "ia"
      ],
      [
        "aleg",
        "re"
      ],
      [
        "int",
        "er"
      ],
      [
        "nave",
        "ga"
      ],
      [
        "tr",
        "ês"
      ],
      [
        "pô",
        "r"
      ],
      [
        "vit",
        "órias"
      ],
      [
        "eter",
        "na"
      ],
      [
        "conse",
        "lho"
      ],
      [
        "ach",
        "ar"
      ],
      [
        "fí",
        "cio"
      ],
      [
        "éli",
        "ca"
      ],
      [
        "famos",
        "a"
      ],
      [
        "apres",
        "enta"
      ],
      [
        "aper",
        "ce"
      ],
      [
        "mai",
        "or"
      ],
      [
        "sábi",
        "o"
      ],
      [
        "Mala",
        "bar"
      ],
      [
        "enx",
        "er"
      ],
      [
        "exprim",
        "enta"
      ],
      [
        "fur",
        "or"
      ],
      [
        "exérci",
        "to"
      ],
      [
        "Jú",
        "piter"
      ],
      [
        "A",
        "uro"
      ],
      [
        "C",
        "ar"
      ],
      [
        "C",
        "um"
      ],
      [
        "D",
        "esta"
      ],
      [
        "F",
        "u"
      ],
      [
        "F",
        "é"
      ],
      [
        "I",
        "ndo"
      ],
      [
        "P",
        "as"
      ],
      [
        "V",
        "os"
      ],
      [
        "a",
        "ves"
      ],
      [
        "b",
        "en"
      ],
      [
        "f",
        "em"
      ],
      [
        "f",
        "ende"
      ],
      [
        "g",
        "io"
      ],
      [
        "i",
        "de"
      ],
      [
        "m",
        "is"
      ],
      [
        "n",
        "ças"
      ],
      [
        "p",
        "ros"
      ],
      [
        "s",
        "um"
      ],
      [
        "u",
        "do"
      ],
      [
        "u",
        "no"
      ],
      [
        "v",
        "indo"
      ],
      [
        "es",
        "c"
      ],
      [
        "que",
        "bra"
      ],
      [
        "da",
        "mente"
      ],
      [
        "an",
        "i"
      ],
      [
        "am",
        "igos"
      ],
      [
        "re",
        "a"
      ],
      [
        "re",
        "c"
      ],
      [
        "ta",
        "da"
      ],
      [
        "te",
        "us"
      ],
      [
        "ri",
        "ba"
      ],
      [
        "no",
        "bres"
      ],
      [
        "po",
        "lo"
      ],
      [
        "qu",
        "ais"
      ],
      [
        "go",
        "a"
      ],
      [
        "di",
        "li"
      ],
      [
        "gu",
        "ém"
      ],
      [
        "ci",
        "l"
      ],
      [
        "so",
        "a"
      ],
      [
        "so",
        "f"
      ],
      [
        "res",
        "ponde"
      ],
      [
        "le",
        "da"
      ],
      [
        "le",
        "al"
      ],
      [
        "con",
        "sigo"
      ],
      [
        "ama",
        "da"
      ],
      [
        "pi",
        "nt"
      ],
      [
        "gran",
        "d"
      ],
      [
        "mo",
        "ço"
      ],
      [
        "pro",
        "va"
      ],
      [
        "gos",
        "to"
      ],
      [
        "du",
        "ros"
      ],
      [
        "pre",
        "ço"
      ],
      [
        "pre",
        "za"
      ],
      [
        "ex",
        "er"
      ],
      [
        "cas",
        "os"
      ],
      [
        "bo",
        "a"
      ],
      [
        "ne",
        "ces"
      ],
      [
        "pé",
        "s"
      ],
      [
        "guer",
        "ras"
      ],
      [
        "lu",
        "gar"
      ],
      [
        "Al",
        "guns"
      ],
      [
        "fe",
        "ia"
      ],
      [
        "prim",
        "eira"
      ],
      [
        "espera",
        "nça"
      ],
      [
        "ân",
        "imo"
      ],
      [
        "ac",
        "en"
      ],
      [
        "bel",
        "icos"
      ],
      [
        "sen",
        "hores"
      ],
      [
        "esp",
        "anto"
      ],
      [
        "fra",
        "co"
      ],
      [
        "pen",
        "a"
      ],
      [
        "inim",
        "igo"
      ],
      [
        "fl",
        "or"
      ],
      [
        "far",
        "á"
      ],
      [
        "Portugues",
        "a"
      ],
      [
        "jus",
        "to"
      ],
      [
        "jus",
        "ta"
      ],
      [
        "cida",
        "des"
      ],
      [
        "senhor",
        "io"
      ],
      [
        "div",
        "ino"
      ],
      [
        "ousa",
        "dia"
      ],
      [
        "hom",
        "ens"
      ],
      [
        "tri",
        "un"
      ],
      [
        "fam",
        "oso"
      ],
      [
        "escon",
        "de"
      ],
      [
        "aleva",
        "nta"
      ],
      [
        "ofer",
        "e"
      ],
      [
        "fú",
        "ria"
      ],
      [
        "crue",
        "l"
      ],
      [
        "Pos",
        "to"
      ],
      [
        "gen",
        "er"
      ],
      [
        "Jo",
        "ane"
      ],
      [
        "Lo",
        "go"
      ],
      [
        "nam",
        "ora"
      ],
      [
        "lín",
        "gua"
      ],
      [
        "árbar",
        "o"
      ],
      [
        "costum",
        "es"
      ],
      [
        "Auro",
        "ra"
      ],
      [
        "A",
        "quele"
      ],
      [
        "D",
        "u"
      ],
      [
        "D",
        "á"
      ],
      [
        "H",
        "er"
      ],
      [
        "N",
        "i"
      ],
      [
        "N",
        "er"
      ],
      [
        "N",
        "este"
      ],
      [
        "T",
        "raz"
      ],
      [
        "V",
        "ão"
      ],
      [
        "a",
        "gu"
      ],
      [
        "a",
        "bri"
      ],
      [
        "a",
        "gas"
      ],
      [
        "a",
        "gra"
      ],
      [
        "b",
        "or"
      ],
      [
        "b",
        "on"
      ],
      [
        "f",
        "é"
      ],
      [
        "f",
        "ina"
      ],
      [
        "g",
        "res"
      ],
      [
        "g",
        "ança"
      ],
      [
        "i",
        "to"
      ],
      [
        "i",
        "za"
      ],
      [
        "j",
        "ú"
      ],
      [
        "l",
        "in"
      ],
      [
        "n",
        "ele"
      ],
      [
        "p",
        "ó"
      ],
      [
        "p",
        "ú"
      ],
      [
        "p",
        "endo"
      ],
      [
        "p",
        "ru"
      ],
      [
        "p",
        "alma"
      ],
      [
        "r",
        "ende"
      ],
      [
        "s",
        "ia"
      ],
      [
        "u",
        "r"
      ],
      [
        "v",
        "ando"
      ],
      [
        "v",
        "eio"
      ],
      [
        "x",
        "e"
      ],
      [
        "ç",
        "ando"
      ],
      [
        "ó",
        "gni"
      ],
      [
        "ü",
        "as"
      ],
      [
        "ra",
        "da"
      ],
      [
        "ra",
        "ios"
      ],
      [
        "de",
        "nte"
      ],
      [
        "de",
        "les"
      ],
      [
        "da",
        "dos"
      ],
      [
        "an",
        "im"
      ],
      [
        "an",
        "dar"
      ],
      [
        "al",
        "mas"
      ],
      [
        "am",
        "as"
      ],
      [
        "am",
        "igo"
      ],
      [
        "to",
        "das"
      ],
      [
        "re",
        "as"
      ],
      [
        "ta",
        "vam"
      ],
      [
        "el",
        "oso"
      ],
      [
        "po",
        "n"
      ],
      [
        "po",
        "dia"
      ],
      [
        "ter",
        "á"
      ],
      [
        "im",
        "or"
      ],
      [
        "tu",
        "reza"
      ],
      [
        "so",
        "is"
      ],
      [
        "so",
        "ju"
      ],
      [
        "ti",
        "ca"
      ],
      [
        "ti",
        "ça"
      ],
      [
        "ti",
        "cas"
      ],
      [
        "res",
        "is"
      ],
      [
        "res",
        "ist"
      ],
      [
        "ver",
        "á"
      ],
      [
        "le",
        "is"
      ],
      [
        "con",
        "quis"
      ],
      [
        "su",
        "bido"
      ],
      [
        "per",
        "gu"
      ],
      [
        "ram",
        "o"
      ],
      [
        "cor",
        "r"
      ],
      [
        "cor",
        "rendo"
      ],
      [
        "vo",
        "a"
      ],
      [
        "mu",
        "lh"
      ],
      [
        "man",
        "de"
      ],
      [
        "ser",
        "ra"
      ],
      [
        "ser",
        "vi"
      ],
      [
        "mo",
        "ve"
      ],
      [
        "nos",
        "sa"
      ],
      [
        "ju",
        "l"
      ],
      [
        "ju",
        "go"
      ],
      [
        "Se",
        "gu"
      ],
      [
        "pre",
        "tende"
      ],
      [
        "pas",
        "so"
      ],
      [
        "faz",
        "enda"
      ],
      [
        "ven",
        "era"
      ],
      [
        "ven",
        "cido"
      ],
      [
        "hum",
        "anos"
      ],
      [
        "pu",
        "ro"
      ],
      [
        "eng",
        "anos"
      ],
      [
        "mostra",
        "s"
      ],
      [
        "anda",
        "va"
      ],
      [
        "Portu",
        "gal"
      ],
      [
        "pra",
        "ias"
      ],
      [
        "leva",
        "nta"
      ],
      [
        "ten",
        "ho"
      ],
      [
        "qual",
        "quer"
      ],
      [
        "aque",
        "les"
      ],
      [
        "esp",
        "anta"
      ],
      [
        "Fo",
        "ram"
      ],
      [
        "obe",
        "dece"
      ],
      [
        "desco",
        "bri"
      ],
      [
        "desco",
        "berto"
      ],
      [
        "cuida",
        "do"
      ],
      [
        "cul",
        "pa"
      ],
      [
        "eter",
        "no"
      ],
      [
        "esti",
        "ma"
      ],
      [
        "deseja",
        "da"
      ],
      [
        "Faz",
        "endo"
      ],
      [
        "lan",
        "ças"
      ],
      [
        "excel",
        "ente"
      ],
      [
        "alh",
        "eio"
      ],
      [
        "Fer",
        "nando"
      ],
      [
        "fin",
        "gi"
      ],
      [
        "tom",
        "ou"
      ],
      [
        "natura",
        "is"
      ],
      [
        "casti",
        "go"
      ],
      [
        "cobi",
        "ça"
      ],
      [
        "ped",
        "ra"
      ],
      [
        "milh",
        "or"
      ],
      [
        "verdadei",
        "ro"
      ],
      [
        "Sen",
        "ão"
      ],
      [
        "fiz",
        "eram"
      ],
      [
        "Pe",
        "dro"
      ],
      [
        "pér",
        "fi"
      ],
      [
        "pie",
        "dade"
      ],
      [
        "Catu",
        "al"
      ],
      [
        "rec",
        "eio"
      ],
      [
        "C",
        "anto"
      ],
      [
        "C",
        "ale"
      ],
      [
        "C",
        "éus"
      ],
      [
        "E",
        "uro"
      ],
      [
        "F",
        "ama"
      ],
      [
        "G",
        "ang"
      ],
      [
        "N",
        "unca"
      ],
      [
        "S",
        "an"
      ],
      [
        "S",
        "ão"
      ],
      [
        "S",
        "amor"
      ],
      [
        "S",
        "arra"
      ],
      [
        "T",
        "étis"
      ],
      [
        "V",
        "êm"
      ],
      [
        "V",
        "eloso"
      ],
      [
        "a",
        "té"
      ],
      [
        "a",
        "ventu"
      ],
      [
        "d",
        "ência"
      ],
      [
        "f",
        "om"
      ],
      [
        "g",
        "on"
      ],
      [
        "g",
        "ela"
      ],
      [
        "g",
        "indo"
      ],
      [
        "h",
        "ar"
      ],
      [
        "h",
        "ist"
      ],
      [
        "i",
        "das"
      ],
      [
        "j",
        "ar"
      ],
      [
        "l",
        "ento"
      ],
      [
        "m",
        "í"
      ],
      [
        "n",
        "es"
      ],
      [
        "p",
        "rem"
      ],
      [
        "r",
        "mu"
      ],
      [
        "t",
        "res"
      ],
      [
        "À",
        "s"
      ],
      [
        "é",
        "is"
      ],
      [
        "í",
        "cia"
      ],
      [
        "í",
        "cio"
      ],
      [
        "ó",
        "r"
      ],
      [
        "ú",
        "mi"
      ],
      [
        "es",
        "que"
      ],
      [
        "es",
        "ca"
      ],
      [
        "as",
        "tu"
      ],
      [
        "as",
        "so"
      ],
      [
        "do",
        "ze"
      ],
      [
        "de",
        "li"
      ],
      [
        "de",
        "ntes"
      ],
      [
        "que",
        "ri"
      ],
      [
        "que",
        "ria"
      ],
      [
        "da",
        "ma"
      ],
      [
        "da",
        "des"
      ],
      [
        "da",
        "nos"
      ],
      [
        "co",
        "lh"
      ],
      [
        "em",
        "bar"
      ],
      [
        "em",
        "presa"
      ],
      [
        "al",
        "can"
      ],
      [
        "in",
        "quie"
      ],
      [
        "am",
        "iza"
      ],
      [
        "ent",
        "en"
      ],
      [
        "to",
        "mada"
      ],
      [
        "re",
        "gi"
      ],
      [
        "ta",
        "ntes"
      ],
      [
        "te",
        "za"
      ],
      [
        "ou",
        "trem"
      ],
      [
        "ca",
        "u"
      ],
      [
        "ca",
        "nta"
      ],
      [
        "no",
        "vos"
      ],
      [
        "el",
        "os"
      ],
      [
        "na",
        "ções"
      ],
      [
        "po",
        "vos"
      ],
      [
        "go",
        "l"
      ],
      [
        "ci",
        "as"
      ],
      [
        "ci",
        "das"
      ],
      [
        "ros",
        "as"
      ],
      [
        "sa",
        "i"
      ],
      [
        "res",
        "p"
      ],
      [
        "un",
        "das"
      ],
      [
        "ve",
        "is"
      ],
      [
        "fi",
        "ança"
      ],
      [
        "la",
        "go"
      ],
      [
        "cor",
        "tando"
      ],
      [
        "cor",
        "rer"
      ],
      [
        "fa",
        "ça"
      ],
      [
        "ama",
        "do"
      ],
      [
        "pa",
        "ços"
      ],
      [
        "pi",
        "ra"
      ],
      [
        "pi",
        "do"
      ],
      [
        "ba",
        "te"
      ],
      [
        "Es",
        "tas"
      ],
      [
        "Es",
        "tava"
      ],
      [
        "mu",
        "lti"
      ],
      [
        "esta",
        "do"
      ],
      [
        "esta",
        "vam"
      ],
      [
        "ina",
        "is"
      ],
      [
        "mo",
        "nt"
      ],
      [
        "pro",
        "a"
      ],
      [
        "mi",
        "la"
      ],
      [
        "du",
        "vidos"
      ],
      [
        "rem",
        "ente"
      ],
      [
        "usa",
        "da"
      ],
      [
        "pos",
        "su"
      ],
      [
        "lar",
        "es"
      ],
      [
        "tam",
        "ente"
      ],
      [
        "cas",
        "a"
      ],
      [
        "tor",
        "pe"
      ],
      [
        "mui",
        "tas"
      ],
      [
        "pres",
        "sa"
      ],
      [
        "car",
        "ne"
      ],
      [
        "lon",
        "ga"
      ],
      [
        "fu",
        "gi"
      ],
      [
        "leva",
        "va"
      ],
      [
        "asse",
        "nto"
      ],
      [
        "trabal",
        "ha"
      ],
      [
        "ten",
        "ha"
      ],
      [
        "ten",
        "ção"
      ],
      [
        "verdade",
        "ira"
      ],
      [
        "companh",
        "eiros"
      ],
      [
        "fra",
        "que"
      ],
      [
        "tr",
        "ás"
      ],
      [
        "To",
        "da"
      ],
      [
        "apare",
        "ce"
      ],
      [
        "alg",
        "üa"
      ],
      [
        "vin",
        "gança"
      ],
      [
        "neg",
        "ra"
      ],
      [
        "neg",
        "ro"
      ],
      [
        "def",
        "esa"
      ],
      [
        "ban",
        "ha"
      ],
      [
        "inc",
        "lina"
      ],
      [
        "inc",
        "ógni"
      ],
      [
        "íss",
        "imos"
      ],
      [
        "Ser",
        "á"
      ],
      [
        "guar",
        "da"
      ],
      [
        "nu",
        "a"
      ],
      [
        "del",
        "eitos"
      ],
      [
        "peque",
        "no"
      ],
      [
        "peque",
        "na"
      ],
      [
        "Ro",
        "ma"
      ],
      [
        "igu",
        "al"
      ],
      [
        "taman",
        "ho"
      ],
      [
        "vence",
        "dor"
      ],
      [
        "poss",
        "antes"
      ],
      [
        "bai",
        "xo"
      ],
      [
        "Crist",
        "ãos"
      ],
      [
        "mant",
        "imento"
      ],
      [
        "imag",
        "ina"
      ],
      [
        "Im",
        "pério"
      ],
      [
        "acompanha",
        "do"
      ],
      [
        "cabel",
        "os"
      ],
      [
        "ani",
        "mais"
      ],
      [
        "resist",
        "ência"
      ],
      [
        "A",
        "b"
      ],
      [
        "B",
        "a"
      ],
      [
        "B",
        "us"
      ],
      [
        "C",
        "í"
      ],
      [
        "C",
        "er"
      ],
      [
        "C",
        "onde"
      ],
      [
        "C",
        "ham"
      ],
      [
        "D",
        "ar"
      ],
      [
        "D",
        "io"
      ],
      [
        "E",
        "la"
      ],
      [
        "F",
        "ará"
      ],
      [
        "G",
        "o"
      ],
      [
        "G",
        "ente"
      ],
      [
        "H",
        "i"
      ],
      [
        "I",
        "lhas"
      ],
      [
        "L",
        "is"
      ],
      [
        "L",
        "ou"
      ],
      [
        "M",
        "en"
      ],
      [
        "N",
        "uno"
      ],
      [
        "O",
        "lim"
      ],
      [
        "P",
        "elas"
      ],
      [
        "R",
        "es"
      ],
      [
        "S",
        "al"
      ],
      [
        "T",
        "r"
      ],
      [
        "V",
        "á"
      ],
      [
        "V",
        "ós"
      ],
      [
        "V",
        "ul"
      ],
      [
        "a",
        "ra"
      ],
      [
        "c",
        "ha"
      ],
      [
        "c",
        "éus"
      ],
      [
        "d",
        "ê"
      ],
      [
        "d",
        "ina"
      ],
      [
        "f",
        "á"
      ],
      [
        "f",
        "ando"
      ],
      [
        "g",
        "or"
      ],
      [
        "g",
        "amente"
      ],
      [
        "l",
        "ouro"
      ],
      [
        "l",
        "inda"
      ],
      [
        "m",
        "be"
      ],
      [
        "n",
        "in"
      ],
      [
        "n",
        "inho"
      ],
      [
        "o",
        "cu"
      ],
      [
        "o",
        "lha"
      ],
      [
        "p",
        "to"
      ],
      [
        "p",
        "õe"
      ],
      [
        "s",
        "ar"
      ],
      [
        "v",
        "ul"
      ],
      [
        "Á",
        "f"
      ],
      [
        "á",
        "u"
      ],
      [
        "ç",
        "ar"
      ],
      [
        "é",
        "dio"
      ],
      [
        "ó",
        "cio"
      ],
      [
        "ó",
        "dio"
      ],
      [
        "es",
        "pos"
      ],
      [
        "do",
        "n"
      ],
      [
        "nt",
        "os"
      ],
      [
        "nt",
        "as"
      ],
      [
        "de",
        "ve"
      ],
      [
        "de",
        "las"
      ],
      [
        "que",
        "rem"
      ],
      [
        "or",
        "o"
      ],
      [
        "se",
        "ra"
      ],
      [
        "se",
        "cre"
      ],
      [
        "se",
        "jam"
      ],
      [
        "se",
        "pul"
      ],
      [
        "ar",
        "re"
      ],
      [
        "ar",
        "rem"
      ],
      [
        "co",
        "lo"
      ],
      [
        "al",
        "ar"
      ],
      [
        "al",
        "guns"
      ],
      [
        "en",
        "ch"
      ],
      [
        "re",
        "o"
      ],
      [
        "ta",
        "das"
      ],
      [
        "ei",
        "os"
      ],
      [
        "ma",
        "go"
      ],
      [
        "ou",
        "t"
      ],
      [
        "ca",
        "pitão"
      ],
      [
        "des",
        "tes"
      ],
      [
        "vi",
        "o"
      ],
      [
        "vi",
        "as"
      ],
      [
        "vi",
        "mento"
      ],
      [
        "ci",
        "ência"
      ],
      [
        "ce",
        "go"
      ],
      [
        "ha",
        "via"
      ],
      [
        "so",
        "fre"
      ],
      [
        "ti",
        "dos"
      ],
      [
        "ti",
        "veram"
      ],
      [
        "res",
        "peito"
      ],
      [
        "res",
        "pon"
      ],
      [
        "ga",
        "dos"
      ],
      [
        "est",
        "rei"
      ],
      [
        "ver",
        "de"
      ],
      [
        "ver",
        "so"
      ],
      [
        "le",
        "var"
      ],
      [
        "con",
        "de"
      ],
      [
        "con",
        "ce"
      ],
      [
        "con",
        "fia"
      ],
      [
        "con",
        "fiança"
      ],
      [
        "su",
        "bi"
      ],
      [
        "su",
        "til"
      ],
      [
        "per",
        "de"
      ],
      [
        "per",
        "pé"
      ],
      [
        "mar",
        "í"
      ],
      [
        "ba",
        "ça"
      ],
      [
        "Es",
        "tão"
      ],
      [
        "Es",
        "tá"
      ],
      [
        "mu",
        "da"
      ],
      [
        "mu",
        "ro"
      ],
      [
        "pe",
        "da"
      ],
      [
        "man",
        "dar"
      ],
      [
        "nos",
        "so"
      ],
      [
        "du",
        "as"
      ],
      [
        "rem",
        "édio"
      ],
      [
        "Da",
        "qui"
      ],
      [
        "cont",
        "ente"
      ],
      [
        "cont",
        "udo"
      ],
      [
        "ru",
        "do"
      ],
      [
        "pos",
        "sa"
      ],
      [
        "tor",
        "m"
      ],
      [
        "Ma",
        "u"
      ],
      [
        "Ma",
        "ura"
      ],
      [
        "tal",
        "eza"
      ],
      [
        "ber",
        "ta"
      ],
      [
        "pres",
        "o"
      ],
      [
        "car",
        "o"
      ],
      [
        "der",
        "riba"
      ],
      [
        "pu",
        "de"
      ],
      [
        "bo",
        "ca"
      ],
      [
        "lon",
        "gos"
      ],
      [
        "fu",
        "tu"
      ],
      [
        "eng",
        "ana"
      ],
      [
        "guer",
        "rei"
      ],
      [
        "vas",
        "sal"
      ],
      [
        "manda",
        "va"
      ],
      [
        "pes",
        "o"
      ],
      [
        "Des",
        "e"
      ],
      [
        "passa",
        "do"
      ],
      [
        "pode",
        "roso"
      ],
      [
        "escu",
        "ro"
      ],
      [
        "bus",
        "ca"
      ],
      [
        "bus",
        "cando"
      ],
      [
        "bran",
        "ca"
      ],
      [
        "ac",
        "ende"
      ],
      [
        "fermos",
        "as"
      ],
      [
        "esto",
        "u"
      ],
      [
        "companh",
        "eiro"
      ],
      [
        "che",
        "gado"
      ],
      [
        "Af",
        "ri"
      ],
      [
        "Af",
        "rica"
      ],
      [
        "come",
        "ça"
      ],
      [
        "tr",
        "um"
      ],
      [
        "mem",
        "bros"
      ],
      [
        "caval",
        "os"
      ],
      [
        "ab",
        "unda"
      ],
      [
        "conhe",
        "cido"
      ],
      [
        "Tu",
        "r"
      ],
      [
        "san",
        "gu"
      ],
      [
        "pô",
        "de"
      ],
      [
        "espa",
        "ço"
      ],
      [
        "Diz",
        "endo"
      ],
      [
        "Cu",
        "ja"
      ],
      [
        "fí",
        "cios"
      ],
      [
        "dest",
        "ruí"
      ],
      [
        "remo",
        "ta"
      ],
      [
        "excel",
        "entes"
      ],
      [
        "pró",
        "pri"
      ],
      [
        "alha",
        "dos"
      ],
      [
        "inh",
        "eiros"
      ],
      [
        "sust",
        "enta"
      ],
      [
        "aca",
        "ba"
      ],
      [
        "ind",
        "ina"
      ],
      [
        "Mui",
        "tos"
      ],
      [
        "Estre",
        "ito"
      ],
      [
        "bandei",
        "ras"
      ],
      [
        "Fe",
        "bo"
      ],
      [
        "Aus",
        "tro"
      ],
      [
        "batal",
        "ha"
      ],
      [
        "mance",
        "bo"
      ],
      [
        "reg",
        "imento"
      ],
      [
        "ajunt",
        "amento"
      ],
      [
        "próp",
        "rio"
      ],
      [
        "maravi",
        "lha"
      ],
      [
        "ásper",
        "os"
      ],
      [
        "mensa",
        "geiro"
      ],
      [
        "enxer",
        "ga"
      ],
      [
        "dili",
        "gente"
      ],
      [
        "pó",
        "si"
      ],
      [
        "servi",
        "ço"
      ],
      [
        "Segu",
        "ndo"
      ],
      [
        "Cale",
        "cu"
      ],
      [
        "Euro",
        "pa"
      ],
      [
        "San",
        "cho"
      ],
      [
        "Samor",
        "im"
      ],
      [
        "Sarra",
        "c"
      ],
      [
        "astu",
        "to"
      ],
      [
        "amiza",
        "de"
      ],
      [
        "multi",
        "dão"
      ],
      [
        "Olim",
        "po"
      ],
      [
        "Res",
        "ponde"
      ],
      [
        "nin",
        "guém"
      ],
      [
        "A",
        "ntes"
      ],
      [
        "A",
        "polo"
      ],
      [
        "B",
        "ar"
      ],
      [
        "C",
        "an"
      ],
      [
        "D",
        "um"
      ],
      [
        "E",
        "le"
      ],
      [
        "G",
        "er"
      ],
      [
        "H",
        "es"
      ],
      [
        "H",
        "em"
      ],
      [
        "H",
        "is"
      ],
      [
        "M",
        "er"
      ],
      [
        "M",
        "or"
      ],
      [
        "M",
        "an"
      ],
      [
        "N",
        "um"
      ],
      [
        "N",
        "enhum"
      ],
      [
        "O",
        "h"
      ],
      [
        "O",
        "ra"
      ],
      [
        "R",
        "eg"
      ],
      [
        "S",
        "i"
      ],
      [
        "T",
        "a"
      ],
      [
        "V",
        "o"
      ],
      [
        "V",
        "ir"
      ],
      [
        "a",
        "ba"
      ],
      [
        "a",
        "ço"
      ],
      [
        "a",
        "pou"
      ],
      [
        "a",
        "ventura"
      ],
      [
        "a",
        "fei"
      ],
      [
        "b",
        "anda"
      ],
      [
        "b",
        "ul"
      ],
      [
        "c",
        "ro"
      ],
      [
        "c",
        "ente"
      ],
      [
        "c",
        "ende"
      ],
      [
        "d",
        "ino"
      ],
      [
        "e",
        "ta"
      ],
      [
        "f",
        "ino"
      ],
      [
        "f",
        "antas"
      ],
      [
        "g",
        "í"
      ],
      [
        "h",
        "úmi"
      ],
      [
        "i",
        "z"
      ],
      [
        "i",
        "res"
      ],
      [
        "i",
        "gas"
      ],
      [
        "j",
        "ando"
      ],
      [
        "m",
        "om"
      ],
      [
        "o",
        "fício"
      ],
      [
        "p",
        "is"
      ],
      [
        "p",
        "ano"
      ],
      [
        "r",
        "um"
      ],
      [
        "s",
        "í"
      ],
      [
        "v",
        "enta"
      ],
      [
        "v",
        "inda"
      ],
      [
        "x",
        "an"
      ],
      [
        "â",
        "m"
      ],
      [
        "ç",
        "ou"
      ],
      [
        "ç",
        "oso"
      ],
      [
        "ó",
        "pia"
      ],
      [
        "ú",
        "l"
      ],
      [
        "ra",
        "r"
      ],
      [
        "es",
        "tra"
      ],
      [
        "es",
        "per"
      ],
      [
        "es",
        "pri"
      ],
      [
        "es",
        "clar"
      ],
      [
        "es",
        "cri"
      ],
      [
        "as",
        "as"
      ],
      [
        "nt",
        "ar"
      ],
      [
        "de",
        "nt"
      ],
      [
        "de",
        "ia"
      ],
      [
        "que",
        "res"
      ],
      [
        "er",
        "o"
      ],
      [
        "er",
        "gu"
      ],
      [
        "da",
        "qui"
      ],
      [
        "se",
        "nte"
      ],
      [
        "se",
        "gre"
      ],
      [
        "ar",
        "en"
      ],
      [
        "ar",
        "ma"
      ],
      [
        "ar",
        "eia"
      ],
      [
        "co",
        "nta"
      ],
      [
        "an",
        "or"
      ],
      [
        "em",
        "os"
      ],
      [
        "al",
[...]
