{
  "version": "1.0",
  "truncation": null,
  "padding": null,
  "added_tokens": [
    {
      "id": 0,
      "content": "<bos>",
      "single_word": false,
      "lstrip": false,
      "rstrip": false,
      "normalized": false,
      "special": true
    },
    {
      "id": 1,
      "content": "<eos>",
      "single_word": false,
      "lstrip": false,
      "rstrip": false,
      "normalized": false,
      "special": true
    },
    {
      "id": 2,
      "content": "<pad>",
      "single_word": false,
      "lstrip": false,
      "rstrip": false,
      "normalized": false,
      "special": true
    },
    {
      "id": 3,
      "content": "<newline>",
      "single_word": false,
      "lstrip": false,
      "rstrip": false,
      "normalized": false,
      "special": true
    }
  ],
  "normalizer": null,
  "pre_tokenizer": null,
  "post_processor": null,
  "decoder": null,
  "model": {
    "type": "BPE",
    "dropout": null,
    "unk_token": null,
    "continuing_subword_prefix": null,
    "end_of_word_suffix": null,
    "fuse_unk": false,
    "byte_fallback": false,
    "ignore_merges": false,
    "vocab": {
      "<bos>": 0,
      "<eos>": 1,
      "<pad>": 2,
      "<newline>": 3,
      "\n": 4,
      " ": 5,
      "!": 6,
      "\"": 7,
      "'": 8,
      "(": 9,
      ")": 10,
      ",": 11,
      "-": 12,
      ".": 13,
      "0": 14,
      "1": 15,
      "2": 16,
      "3": 17,
      "4": 18,
      "5": 19,
      "6": 20,
      "7": 21,
      "8": 22,
      "9": 23,
      ":": 24,
      ";": 25,
      "?": 26,
      "A": 27,
      "B": 28,
      "C": 29,
      "D": 30,
      "E": 31,
      "F": 32,
      "G": 33,
      "H": 34,
      "I": 35,
      "J": 36,
      "L": 37,
      "M": 38,
      "N": 39,
      "O": 40,
      "P": 41,
      "Q": 42,
      "R": 43,
      "S": 44,
      "T": 45,
      "U": 46,
      "V": 47,
      "X": 48,
      "Z": 49,
      "[": 50,
      "]": 51,
      "a": 52,
      "b": 53,
      "c": 54,
      "d": 55,
      "e": 56,
      "f": 57,
      "g": 58,
      "h": 59,
      "i": 60,
      "j": 61,
      "l": 62,
      "m": 63,
      "n": 64,
      "o": 65,
      "p": 66,
      "q": 67,
      "r": 68,
      "s": 69,
      "t": 70,
      "u": 71,
      "v": 72,
      "x": 73,
      "z": 74,
      "~": 75,
      "«": 76,
      "»": 77,
      "À": 78,
      "Á": 79,
      "Ã": 80,
      "Ç": 81,
      "É": 82,
      "Í": 83,
      "Ó": 84,
      "Ô": 85,
      "à": 86,
      "á": 87,
      "â": 88,
      "ã": 89,
      "ç": 90,
      "è": 91,
      "é": 92,
      "ê": 93,
      "ë": 94,
      "ì": 95,
      "í": 96,
      "ï": 97,
      "ò": 98,
      "ó": 99,
      "ô": 100,
      "õ": 101,
      "ù": 102,
      "ú": 103,
      "ü": 104,
      "’": 105,
      ", ": 106,
      "('": 107,
      " \n": 108,
      "))": 109,
      ", (": 110,
      ")) \n": 111,
      "', (": 112,
      ", 1": 113,
      ", 2": 114,
      "', (1": 115,
      "', (2": 116,
      "30": 117,
      "31": 118,
      "6)) \n": 119,
      "(',": 120,
      "4)) \n": 121,
      "9)) \n": 122,
      "3)) \n": 123,
      "2)) \n": 124,
      "7)) \n": 125,
      "8)) \n": 126,
      "5)) \n": 127,
      "0)) \n": 128,
      "1)) \n": 129,
      "80": 130,
      "95": 131,
      "70": 132,
      "32": 133,
      "96": 134,
      "35": 135,
      "72": 136,
      "74": 137,
      "85": 138,
      "75": 139,
      "90": 140,
      "91": 141,
      "os": 142,
      "81": 143,
      "71": 144,
      "86": 145,
      "92": 146,
      "76": 147,
      "84": 148,
      "94": 149,
      "34": 150,
      "36": 151,
      "82": 152,
      "('a": 153,
      "o', (1": 154,
      "e', (2": 155,
      "o', (2": 156,
      "e', (1": 157,
      "('d": 158,
      "o', (": 159,
      "ra": 160,
      "es": 161,
      "40": 162,
      "61": 163,
      "e', (": 164,
      "65": 165,
      "41": 166,
      "45": 167,
      "60": 168,
      "62": 169,
      "42": 170,
      "en": 171,
      "qu": 172,
      "('s": 173,
      "('c": 174,
      "('p": 175,
      "52": 176,
      "as": 177,
      "51": 178,
      "a', (2": 179,
      "50": 180,
      "89": 181,
      "37": 182,
      "er": 183,
      "87": 184,
      "39": 185,
      "('t": 186,
      "('qu": 187,
      ", 30": 188,
      "an": 189,
      "(',', (2": 190,
      ", 21": 191,
      ", 12": 192,
      "(',', (1": 193,
      "or": 194,
      "a', (1": 195,
      ", 10": 196,
      ", 11": 197,
      ", 20": 198,
      ", 22": 199,
      "44": 200,
      "66": 201,
      "a', (": 202,
      "77": 203,
      "('m": 204,
      "88": 205,
      "99": 206,
      "55": 207,
      "em": 208,
      "33": 209,
      "('n": 210,
      "64": 211,
      "('f": 212,
      "(',', (": 213,
      "79": 214,
      "38": 215,
      "('v": 216,
      "10": 217,
      "22": 218,
      "ar": 219,
      "46": 220,
      "00": 221,
      "ei": 222,
      "78": 223,
      "12": 224,
      "('.": 225,
      "56": 226,
      "ad": 227,
      "3, 2": 228,
      "54": 229,
      "3, 1": 230,
      "ent": 231,
      "3, ": 232,
      "in": 233,
      "97": 234,
      "98": 235,
      "om": 236,
      "os', (1": 237,
      "11": 238,
      "20": 239,
      "on": 240,
      "os', (2": 241,
      "('D": 242,
      "('l": 243,
      "is": 244,
      "02": 245,
      "am": 246,
      "('A": 247,
      "67": 248,
      "47": 249,
      "9, ": 250,
      "8, ": 251,
      "8, 2": 252,
      ", 15": 253,
      "01": 254,
      "el": 255,
      "9, 2": 256,
      "21": 257,
      "('C": 258,
      "ri": 259,
      "('E": 260,
      "al": 261,
      "9, 1": 262,
      "Qu": 263,
      "('Qu": 264,
      "8, 1": 265,
      "', (30": 266,
      "ou": 267,
      ", 25": 268,
      ", 5": 269,
      "93": 270,
      "('g": 271,
      "83": 272,
      "('es": 273,
      "(';": 274,
      "7, ": 275,
      "05": 276,
      "as', (1": 277,
      "25": 278,
      "id": 279,
      "('P": 280,
      "os', (": 281,
      "49": 282,
      "7, 2": 283,
      "7, 1": 284,
      "48": 285,
      "69": 286,
      "15": 287,
      "73": 288,
      "68": 289,
      "('O": 290,
      "us": 291,
      "63": 292,
      "as', (2": 293,
      "('M": 294,
      "14": 295,
      "24": 296,
      "('que', (2": 297,
      "ant": 298,
      "6, 1": 299,
      "nd": 300,
      "04": 301,
      "6, ": 302,
      "30)) \n": 303,
      "and": 304,
      "31)) \n": 305,
      "('«": 306,
      ", 14": 307,
      ", 24": 308,
      "('N": 309,
      ", 26": 310,
      ", 4": 311,
      "('e', (1": 312,
      "av": 313,
      "('que', (1": 314,
      "('e', (2": 315,
      "26": 316,
      "('r": 317,
      "06": 318,
      ", 16": 319,
      "16": 320,
      "era": 321,
      "s', (1": 322,
      "('b": 323,
      ", 31": 324,
      "im": 325,
      ", 6": 326,
      "58": 327,
      "('.', (2": 328,
      "59": 329,
      "('com": 330,
      "('S": 331,
      "57": 332,
      "4, 1": 333,
      "ão', (2": 334,
      "ão', (1": 335,
      "('.', (1": 336,
      "es', (1": 337,
      "s', (2": 338,
      "ec": 339,
      "um": 340,
      "1, 2": 341,
      "43": 342,
      "it": 343,
      "5, 2": 344,
      "il": 345,
      "4, ": 346,
      "em', (1": 347,
      "6, 2": 348,
      "('est": 349,
      "em', (2": 350,
      "('que', (": 351,
      "0, 1": 352,
      "('o', (1": 353,
      "('o', (": 354,
      "('-": 355,
      "5, ": 356,
      "4, 2": 357,
      "end": 358,
      "as', (": 359,
      "1, ": 360,
      "1, 1": 361,
      "2, 2": 362,
      "2, 1": 363,
      "0, 2": 364,
      "('a', (1": 365,
      "('a', (2": 366,
      "5, 1": 367,
      "('o', (2": 368,
      "es', (2": 369,
      "17": 370,
      "53": 371,
      "29": 372,
      "27": 373,
      "('al": 374,
      "('e', (": 375,
      "2, ": 376,
      "eg": 377,
      "('T": 378,
      "09": 379,
      ", 27": 380,
      "od": 381,
      "('des": 382,
      ", 29": 383,
      "18": 384,
      "28": 385,
      "19": 386,
      "08": 387,
      "tr": 388,
      "07": 389,
      "('por": 390,
      "('R": 391,
      "ra', (1": 392,
      ", 9": 393,
      "ais": 394,
      "0, ": 395,
      "ed": 396,
      ", 17": 397,
      "34)) \n": 398,
      ", 19": 399,
      ", 13": 400,
      "('de', (1": 401,
      ", 23": 402,
      ", 8": 403,
      "('con": 404,
      ", 28": 405,
      ", 7": 406,
      "('in": 407,
      "ort": 408,
      "ig": 409,
      "36)) \n": 410,
      "39)) \n": 411,
      ", 18": 412,
      ", 3": 413,
      "('a', (": 414,
      "ra', (2": 415,
      "33)) \n": 416,
      "37)) \n": 417,
      "s', (": 418,
      "32)) \n": 419,
      "ob": 420,
      "ão', (": 421,
      "38)) \n": 422,
      "('.', (": 423,
      "('lh": 424,
      "35)) \n": 425,
      "eu": 426,
      "('j": 427,
      "('de', (2": 428,
      "em', (": 429,
      "('pr": 430,
      "et": 431,
      "eit": 432,
      "('ter": 433,
      "('ou": 434,
      "('V": 435,
      "á', (2": 436,
      "310": 437,
      "ol": 438,
      "('h": 439,
      "o', (30": 440,
      "un": 441,
      "('ar": 442,
      "ir": 443,
      "87)) \n": 444,
      "(';', (1": 445,
      "312": 446,
      "86)) \n": 447,
      "ic": 448,
      "70)) \n": 449,
      "71)) \n": 450,
      "311": 451,
      "96)) \n": 452,
      "a', (30": 453,
      "88)) \n": 454,
      "81)) \n": 455,
      "(';', (2": 456,
      "78)) \n": 457,
      "('L": 458,
      "('se', (1": 459,
      "99)) \n": 460,
      "ov": 461,
      "('de', (": 462,
      "('Rei": 463,
      "ev": 464,
      "('Que', (2": 465,
      "82)) \n": 466,
      "rand": 467,
      "ur": 468,
      "('F": 469,
      "('se', (2": 470,
      "93)) \n": 471,
      "84)) \n": 472,
      "('«', (1": 473,
      "ond": 474,
      "76)) \n": 475,
      "89)) \n": 476,
      "es', (": 477,
      "90)) \n": 478,
      "ost": 479,
      "80)) \n": 480,
      "94)) \n": 481,
      "ra', (": 482,
      "72)) \n": 483,
      "gu": 484,
      "('gent": 485,
      "73)) \n": 486,
      "('en": 487,
      "95)) \n": 488,
      "('Que', (1": 489,
      "92)) \n": 490,
      "est": 491,
      "('Com": 492,
      "i', (1": 493,
      "74)) \n": 494,
      "83)) \n": 495,
      "85)) \n": 496,
      "77)) \n": 497,
      "ci": 498,
      "('Por": 499,
      "75)) \n": 500,
      "m', (1": 501,
      "inh": 502,
      "(';', (": 503,
      "ist": 504,
      "79)) \n": 505,
      "eus": 506,
      "ss": 507,
      "ud": 508,
      "á', (1": 509,
      "98)) \n": 510,
      "at": 511,
      "58)) \n": 512,
      "62)) \n": 513,
      "e', (30": 514,
      "('mais": 515,
      "(',', (30": 516,
      "59)) \n": 517,
      "91)) \n": 518,
      "41)) \n": 519,
      "i', (2": 520,
      "57)) \n": 521,
      "69)) \n": 522,
      "64)) \n": 523,
      "('am": 524,
      "46)) \n": 525,
      "('su": 526,
      "art": 527,
      "63)) \n": 528,
      "97)) \n": 529,
      "ar', (1": 530,
      "('I": 531,
      "('di": 532,
      "ej": 533,
      "', (22": 534,
      "i', (": 535,
      "48)) \n": 536,
      "51)) \n": 537,
      "('mu": 538,
      "67)) \n": 539,
      "60)) \n": 540,
      "ass": 541,
      "', (21": 542,
      "eir": 543,
      "ab": 544,
      "54)) \n": 545,
      "52)) \n": 546,
      "47)) \n": 547,
      "40)) \n": 548,
      "65)) \n": 549,
      "st": 550,
      "45)) \n": 551,
      "az": 552,
      "49)) \n": 553,
      "66)) \n": 554,
      "emp": 555,
      "21)) \n": 556,
      "68)) \n": 557,
      "', (20": 558,
      "('tod": 559,
      "15)) \n": 560,
      "23)) \n": 561,
      "ez": 562,
      "07)) \n": 563,
      "00)) \n": 564,
      "13)) \n": 565,
      "50)) \n": 566,
      "61)) \n": 567,
      "(':": 568,
      "24)) \n": 569,
      "08)) \n": 570,
      "16)) \n": 571,
      "ont": 572,
      "42)) \n": 573,
      "', (12": 574,
      "('fo": 575,
      "44)) \n": 576,
      "('G": 577,
      "12)) \n": 578,
      "29)) \n": 579,
      "('se', (": 580,
      "09)) \n": 581,
      "02)) \n": 582,
      "oss": 583,
      "('ver": 584,
      "04)) \n": 585,
      "43)) \n": 586,
      "55)) \n": 587,
      "('Que', (": 588,
      "('grand": 589,
      "25)) \n": 590,
      "14)) \n": 591,
      "17)) \n": 592,
      "11)) \n": 593,
      "53)) \n": 594,
      "03)) \n": 595,
      "56)) \n": 596,
      "19)) \n": 597,
      "395": 598,
      "('os', (1": 599,
      "ar', (2": 600,
      "06)) \n": 601,
      "26)) \n": 602,
      "nt": 603,
      "ert": 604,
      "22)) \n": 605,
      "27)) \n": 606,
      "385": 607,
      "ando', (1": 608,
      "05)) \n": 609,
      "18)) \n": 610,
      "ia', (2": 611,
      "ia', (1": 612,
      "20)) \n": 613,
      "', (10": 614,
      "01)) \n": 615,
      "332": 616,
      "335": 617,
      "('os', (2": 618,
      "374": 619,
      "381": 620,
      "('esp": 621,
      "10)) \n": 622,
      "371": 623,
      "394": 624,
      "ot": 625,
      "rad": 626,
      "380": 627,
      "376": 628,
      "334": 629,
      "o', (21": 630,
      "('ser": 631,
      "anh": 632,
      "('«', (": 633,
      "28)) \n": 634,
      "386": 635,
      "372": 636,
      "391": 637,
      "384": 638,
      "eb": 639,
      "idad": 640,
      "382": 641,
      "enh": 642,
      "m', (": 643,
      "oc": 644,
      "('ac": 645,
      "ara": 646,
      "390": 647,
      "781": 648,
      "970": 649,
      "992": 650,
      "m', (2": 651,
      "o', (22": 652,
      "('do', (1": 653,
      "('tant": 654,
      "392": 655,
      "ul": 656,
      "336": 657,
      "('cor": 658,
      "370": 659,
      "('J": 660,
      "330": 661,
      "396": 662,
      "375": 663,
      "ag": 664,
      "('tra": 665,
      "('fer": 666,
      "775": 667,
      "832": 668,
      "ilh": 669,
      "885": 670,
      "o', (20": 671,
      "975": 672,
      "981": 673,
      "('um": 674,
      "795": 675,
      "932": 676,
      "786": 677,
      "872": 678,
      "880": 679,
      "ando', (": 680,
      "780": 681,
      ", 122": 682,
      "3, 30": 683,
      "791": 684,
      "930": 685,
      "ess": 686,
      "('não', (2": 687,
      "('E', (": 688,
      "732": 689,
      "835": 690,
      "990": 691,
      "984": 692,
      "661": 693,
      "874": 694,
      "834": 695,
      "('ap": 696,
      "('-', (1": 697,
      "('-', (2": 698,
      "474": 699,
      "980": 700,
      "991": 701,
      "('B": 702,
      "('per": 703,
      "772": 704,
      "891": 705,
      "996": 706,
      "976": 707,
      "ex": 708,
      ", 100": 709,
      "771": 710,
      "881": 711,
      "971": 712,
      "('à": 713,
      "a', (21": 714,
      ", 110": 715,
      "635": 716,
      "730": 717,
      "871": 718,
      "('em', (2": 719,
      "o', (10": 720,
      "770": 721,
      "785": 722,
      "792": 723,
      "895": 724,
      "995": 725,
      ", 220": 726,
      ", 221": 727,
      ", 222": 728,
      "782": 729,
      "830": 730,
      "896": 731,
      "875": 732,
      "884": 733,
      "('não', (1": 734,
      "645": 735,
      "796": 736,
      "876": 737,
      "934": 738,
      "ia', (": 739,
      "', (11": 740,
      "('seu": 741,
      "734": 742,
      "886": 743,
      "('ond": 744,
      "790": 745,
      "870": 746,
      "935": 747,
      ", 212": 748,
      ", 200": 749,
      "890": 750,
      "931": 751,
      "972": 752,
      "974": 753,
      "736": 754,
      "á', (": 755,
      "936": 756,
      "('as', (1": 757,
      ", 102": 758,
      ", 112": 759,
      ", 201": 760,
      "331": 761,
      "491": 762,
      "465": 763,
      "562": 764,
      "692": 765,
      "774": 766,
      "776": 767,
      "784": 768,
      "('ch": 769,
      ", 210": 770,
      "685": 771,
      "882": 772,
      "('«', (2": 773,
      "735": 774,
      "794": 775,
      "982": 776,
      "('ent": 777,
      "472": 778,
      "634": 779,
      "894": 780,
      "('á": 781,
      "o', (11": 782,
      "a', (20": 783,
      ", 111": 784,
      "('lhe', (2": 785,
      "684": 786,
      "731": 787,
      "836": 788,
      "ois": 789,
      "ando', (2": 790,
      "('cont": 791,
      "680": 792,
      "695": 793,
      "632": 794,
      "831": 795,
      "994": 796,
      "o', (12": 797,
      ", 121": 798,
      ", 101": 799,
      "am', (1": 800,
      "591": 801,
      "985": 802,
      ", 211": 803,
      "495": 804,
      "475": 805,
      "481": 806,
      "686": 807,
      "892": 808,
      "aç": 809,
      "iv": 810,
      ", 120": 811,
      "ado', (": 812,
      "496": 813,
      "435": 814,
      "484": 815,
      "440": 816,
      "441": 817,
      "696": 818,
      "('é": 819,
      "', (5": 820,
      ", 301": 821,
      "471": 822,
      "672": 823,
      "675": 824,
      "671": 825,
      "660": 826,
      ", 202": 827,
      "('Est": 828,
      "470": 829,
      "476": 830,
      "581": 831,
      "676": 832,
      "665": 833,
      "986": 834,
      "('da', (1": 835,
      ", 300": 836,
      "430": 837,
      "462": 838,
      "691": 839,
      "('ex": 840,
      ", 302": 841,
      "ado', (2": 842,
      "436": 843,
      "461": 844,
      "460": 845,
      "550": 846,
      "674": 847,
      "690": 848,
      "641": 849,
      "('esc": 850,
      "490": 851,
      "442": 852,
      "535": 853,
      "670": 854,
      "694": 855,
      "662": 856,
      "(',', (21": 857,
      "431": 858,
      "482": 859,
      "560": 860,
      "636": 861,
      "ente', (2": 862,
      "our": 863,
      "480": 864,
      "586": 865,
      "630": 866,
      "und": 867,
      "alh": 868,
      "obr": 869,
      "432": 870,
      "571": 871,
      "ado', (1": 872,
      "ente', (1": 873,
      "('E', (1": 874,
      "486": 875,
      "596": 876,
      "575": 877,
      "642": 878,
      "('os', (": 879,
      "('em', (1": 880,
      "orç": 881,
      "('faz": 882,
      "570": 883,
      "534": 884,
      "540": 885,
      "545": 886,
      "681": 887,
      "640": 888,
      "óri": 889,
      "ran": 890,
      "585": 891,
      "631": 892,
      "492": 893,
      "494": 894,
      "590": 895,
      "682": 896,
      "('as', (2": 897,
      "('pel": 898,
      "ar', (": 899,
      "ind": 900,
      "445": 901,
      ", 41": 902,
      ", 262": 903,
      "ast": 904,
      "(',', (10": 905,
      "era', (2": 906,
      ", 132": 907,
      ", 176": 908,
      "('part": 909,
      "anç": 910,
      "elh": 911,
      "('-', (": 912,
      "434": 913,
      "595": 914,
      "561": 915,
      "ut": 916,
      ", 60": 917,
      ", 290": 918,
      "541": 919,
      ", 180": 920,
      "(',', (11": 921,
      "('De', (1": 922,
      "594": 923,
      "565": 924,
      "('el": 925,
      "('em', (": 926,
      "('do', (2": 927,
      "('do', (": 928,
      "('só": 929,
      "(',', (12": 930,
      "('alt": 931,
      "('por', (1": 932,
      "580": 933,
      "532": 934,
      "of": 935,
      "('!": 936,
      ", 151": 937,
      ", 292": 938,
      "485": 939,
      "552": 940,
      ", 62": 941,
      ", 170": 942,
      ", 295": 943,
      ", 240": 944,
      "('ass": 945,
      "531": 946,
      ", 45": 947,
      ", 42": 948,
      ", 195": 949,
      ", 185": 950,
      ", 136": 951,
      ", 285": 952,
      "('Al": 953,
      "584": 954,
      "og": 955,
      ", 96": 956,
      ", 84": 957,
      ", 140": 958,
      ", 141": 959,
      "('da', (2": 960,
      "(',', (22": 961,
      "('fort": 962,
      "am', (2": 963,
      "530": 964,
      "572": 965,
      "574": 966,
      "551": 967,
      ", 95": 968,
      ", 70": 969,
      ", 40": 970,
      ", 172": 971,
      ", 171": 972,
      ", 291": 973,
      ", 245": 974,
      ", 252": 975,
      "ras', (1": 976,
      "('pod": 977,
      "al', (2": 978,
      "('gu": 979,
      "387": 980,
      "339": 981,
      "u', (1": 982,
      ", 71": 983,
      ", 94": 984,
      ", 52": 985,
      ", 174": 986,
      ", 175": 987,
      ", 230": 988,
      "er', (2": 989,
      "am', (": 990,
      "389": 991,
      ", 80": 992,
      ", 130": 993,
      ", 194": 994,
      ", 150": 995,
      ", 275": 996,
      ", 241": 997,
      ", 251": 998,
      "('pass": 999,
      "('Deus": 1000,
      "ac": 1001,
      "iz": 1002,
      ", 72": 1003,
      ", 74": 1004,
      ", 91": 1005,
      ", 181": 1006,
      ", 296": 1007,
      ", 271": 1008,
      "quel": 1009,
      "('não', (": 1010,
      "592": 1011,
      "536": 1012,
      "644": 1013,
      "nci": 1014,
      ", 86": 1015,
      ", 92": 1016,
      ", 76": 1017,
      ", 82": 1018,
      ", 65": 1019,
      ", 131": 1020,
      ", 280": 1021,
      ", 270": 1022,
      ", 272": 1023,
      ", 261": 1024,
      "('tr": 1025,
      "576": 1026,
      ", 135": 1027,
      ", 152": 1028,
      ", 232": 1029,
      ", 274": 1030,
      "ente', (": 1031,
      ", 35": 1032,
      ", 75": 1033,
      ", 61": 1034,
      ", 196": 1035,
      ", 190": 1036,
      "('De', (2": 1037,
      "rim": 1038,
      "('O', (2": 1039,
      "582": 1040,
      "542": 1041,
      ", 32": 1042,
      "('?": 1043,
      ", 186": 1044,
      ", 184": 1045,
      ", 234": 1046,
      ", 242": 1047,
      "('ant": 1048,
      "rav": 1049,
      "esp": 1050,
      "a', (11": 1051,
      "('A', (1": 1052,
      "eç": 1053,
      ", 34": 1054,
      ", 36": 1055,
      ", 134": 1056,
      ", 165": 1057,
      "ern": 1058,
      "(',', (20": 1059,
      "('E', (2": 1060,
      "3, 20": 1061,
      ", 85": 1062,
      ", 90": 1063,
      "('('": 1064,
      ", 235": 1065,
      ", 286": 1066,
      ", 294": 1067,
      "('(', (": 1068,
      "337": 1069,
      ", 81": 1070,
      "(')": 1071,
      "('ri": 1072,
      ", 145": 1073,
      ", 142": 1074,
      ", 284": 1075,
      ", 260": 1076,
      "('seus": 1077,
      "('cr": 1078,
      "or', (2": 1079,
      "('com', (2": 1080,
      "('por', (2": 1081,
      "('arm": 1082,
      ", 161": 1083,
      ", 160": 1084,
      ", 276": 1085,
      ", 236": 1086,
      "('lev": 1087,
      ", 51": 1088,
      ", 50": 1089,
      "('im": 1090,
      ", 192": 1091,
      ", 281": 1092,
      ", 265": 1093,
      "('águ": 1094,
      "3, 10": 1095,
      "('H": 1096,
      ", 231": 1097,
      ", 250": 1098,
      "a', (10": 1099,
      "('fam": 1100,
      "ada', (2": 1101,
      "('lhe', (1": 1102,
      ", 191": 1103,
      "('tom": 1104,
      "('A', (2": 1105,
      "unt": 1106,
      "3, 12": 1107,
      "537": 1108,
      "lh": 1109,
      "al', (1": 1110,
      "('outr": 1111,
      "olh": 1112,
      "464": 1113,
      "839": 1114,
      ", 162": 1115,
      "('del": 1116,
      "('mand": 1117,
      "987": 1118,
      "ap": 1119,
      ", 282": 1120,
      "ras', (2": 1121,
      "orn": 1122,
      "ust": 1123,
      "ep": 1124,
      ", 182": 1125,
      "raç": 1126,
      "('cam": 1127,
      "('peit": 1128,
      "('filh": 1129,
      "endo', (": 1130,
      "3, 11": 1131,
      "3, 22": 1132,
      "388": 1133,
      "('as', (": 1134,
      "amb": 1135,
      ", 312": 1136,
      "empr": 1137,
      "799": 1138,
      "or', (1": 1139,
      "ong": 1140,
      "('lhe', (": 1141,
      "889": 1142,
      "988": 1143,
      "('da', (": 1144,
      "ada', (": 1145,
      "('mund": 1146,
      "789": 1147,
      "787": 1148,
      "937": 1149,
      "977": 1150,
      "('»": 1151,
      "('fal": 1152,
      "('que', (30": 1153,
      "466": 1154,
      "637": 1155,
      "('ob": 1156,
      "('temp": 1157,
      "('ven": 1158,
      "ava', (": 1159,
      "dad": 1160,
      "ári": 1161,
      "a', (22": 1162,
      "('vê": 1163,
      "('De', (": 1164,
      "era', (": 1165,
      "ef": 1166,
      "ug": 1167,
      "('nom": 1168,
      "('Mour": 1169,
      "544": 1170,
      "739": 1171,
      "('seg": 1172,
      "('mort": 1173,
      "eix": 1174,
      "ido', (": 1175,
      "('Mas', (2": 1176,
      "3, 21": 1177,
      "687": 1178,
      "639": 1179,
      "677": 1180,
      "737": 1181,
      "837": 1182,
      "887": 1183,
      "ada', (1": 1184,
      "iss": 1185,
      "('desp": 1186,
      "689": 1187,
      "939": 1188,
      "e', (11": 1189,
      "('cu": 1190,
      "orr": 1191,
      "('vent": 1192,
      "('dest": 1193,
      "989": 1194,
      "e', (12": 1195,
      "('cl": 1196,
      "erc": 1197,
      "('O', (": 1198,
      "ava', (2": 1199,
      "477": 1200,
      "938": 1201,
      "('long": 1202,
      "ouc": 1203,
      "era', (1": 1204,
      "eu', (1": 1205,
      "564": 1206,
      "788": 1207,
      "('ab": 1208,
      "('A', (": 1209,
      ", 311": 1210,
      "('já', (1": 1211,
      "('terra', (1": 1212,
      "489": 1213,
      "589": 1214,
      "733": 1215,
      "833": 1216,
      "sp": 1217,
      "('fr": 1218,
      "ido', (2": 1219,
      "('Lus": 1220,
      "437": 1221,
      "838": 1222,
      "op": 1223,
      "('U": 1224,
      "('forç": 1225,
      "487": 1226,
      "ênci": 1227,
      "('mar', (1": 1228,
      ", 310": 1229,
      "('muit": 1230,
      "738": 1231,
      "933": 1232,
      "979": 1233,
      "93, ": 1234,
      "u', (": 1235,
      "as', (30": 1236,
      "er', (": 1237,
      "('tem": 1238,
      "arec": 1239,
      "os', (22": 1240,
      "('En": 1241,
      "('desc": 1242,
      "('hum": 1243,
      "('eng": 1244,
      "566": 1245,
      "679": 1246,
      "9, 21": 1247,
      "e', (20": 1248,
      "a', (12": 1249,
      "('Cé": 1250,
      "('mais', (1": 1251,
      "7, 30": 1252,
      "8, 21": 1253,
      "ras', (": 1254,
      "('no', (2": 1255,
      "ou', (1": 1256,
      "ambé": 1257,
      "488": 1258,
      "699": 1259,
      "8, 30": 1260,
      "910": 1261,
      "('vi": 1262,
      "577": 1263,
      "599": 1264,
      "978": 1265,
      "aus": 1266,
      "ura', (1": 1267,
      "('ra": 1268,
      "('pouc": 1269,
      "('nov": 1270,
      "('comp": 1271,
      "endo', (2": 1272,
      "8, 10": 1273,
      "9, 12": 1274,
      "ér": 1275,
      "('sempr": 1276,
      "or', (": 1277,
      "('Não', (1": 1278,
      "ava', (1": 1279,
      "('já', (2": 1280,
      "unc": 1281,
      "7, 11": 1282,
      "8, 20": 1283,
      "83, 1": 1284,
      "9, 30": 1285,
      "uz": 1286,
      "('quem', (1": 1287,
      "('ind": 1288,
      "\"'": 1289,
      "\", (": 1290,
      "(\"'": 1291,
      "479": 1292,
      "u', (2": 1293,
      "íci": 1294,
      "742": 1295,
      "710": 1296,
      "e', (10": 1297,
      "ano', (": 1298,
      "ustr": 1299,
      "('com', (1": 1300,
      "('desej": 1301,
      "(\"'\", (": 1302,
      "587": 1303,
      "9, 11": 1304,
      "9, 20": 1305,
      "('ag": 1306,
      "('cost": 1307,
      "endo', (1": 1308,
      "('gente', (": 1309,
      "439": 1310,
      "697": 1311,
      "806)) \n": 1312,
      "700": 1313,
      "350": 1314,
      "os', (30": 1315,
      "820": 1316,
      "('sob": 1317,
      "('Mas', (1": 1318,
      "('Rein": 1319,
      "(':', (1": 1320,
      "('guer": 1321,
      "533": 1322,
      "688": 1323,
      "io', (2": 1324,
      "750": 1325,
      "e', (22": 1326,
      "('dos', (2": 1327,
      "er', (1": 1328,
      "('mar": 1329,
      "('O', (1": 1330,
      "('Ond": 1331,
      "('diz": 1332,
      "('venc": 1333,
      "7, 12": 1334,
      "8, 22": 1335,
      ", 255": 1336,
      "760": 1337,
      "841": 1338,
      "al', (": 1339,
      "('rec": 1340,
      "um', (1": 1341,
      "('cons": 1342,
      "433": 1343,
      "478": 1344,
      "546": 1345,
      "59, ": 1346,
      "678": 1347,
      "7, 20": 1348,
      "73, ": 1349,
      "s', (30": 1350,
      "800": 1351,
      "812)) \n": 1352,
      "761": 1353,
      "342": 1354,
      "('deix": 1355,
      "('tud": 1356,
      "ados', (1": 1357,
      "iment": 1358,
      "('enf": 1359,
      "('sub": 1360,
      "539": 1361,
      "578": 1362,
      "597": 1363,
      "900": 1364,
      "('antig": 1365,
      "499": 1366,
      "438": 1367,
      "638": 1368,
      "962": 1369,
      "720)) \n": 1370,
      "850": 1371,
      "908)) \n": 1372,
      "912": 1373,
      "941": 1374,
      "362": 1375,
      "('sab": 1376,
      "('vid": 1377,
      "('por', (": 1378,
      "('Lusit": 1379,
      "498": 1380,
      "83, 2": 1381,
      "950": 1382,
      "321)) \n": 1383,
      "961": 1384,
      "852": 1385,
      "751": 1386,
      "711": 1387,
      "943)) \n": 1388,
      "e', (21": 1389,
      "376)) \n": 1390,
      "('tão', (1": 1391,
      "('most": 1392,
      "('nunc": 1393,
      "arg": 1394,
      "('.', (30": 1395,
      "ous": 1396,
      "4, 11": 1397,
      "7, 21": 1398,
      "7, 22": 1399,
      ", 55": 1400,
      "960": 1401,
      "901": 1402,
      "811": 1403,
      "822": 1404,
      "('an": 1405,
      "('av": 1406,
      "400": 1407,
      "('cert": 1408,
      "873)) \n": 1409,
      "('tão', (": 1410,
      "('també": 1411,
      "orm": 1412,
      "('val": 1413,
      "('Port": 1414,
      "73, 2": 1415,
      "73, 1": 1416,
      "iç": 1417,
      "804)) \n": 1418,
      "951": 1419,
      "962)) \n": 1420,
      "352": 1421,
      "351)) \n": 1422,
      "858)) \n": 1423,
      "821": 1424,
      "ard": 1425,
      "ing": 1426,
      "apit": 1427,
      "579": 1428,
      "598": 1429,
      "633": 1430,
      "9, 10": 1431,
      "9, 22": 1432,
      "('olh": 1433,
      "300": 1434,
      "802": 1435,
      "351": 1436,
      "741": 1437,
      "920": 1438,
      "922": 1439,
      "760)) \n": 1440,
      "845)) \n": 1441,
      "('aqu": 1442,
      "('pov": 1443,
      "372)) \n": 1444,
      "872)) \n": 1445,
      "('tinh": 1446,
      "('log": 1447,
      "('mais', (2": 1448,
      "6, 30": 1449,
      "8, 12": 1450,
      "8, 11": 1451,
      "83, ": 1452,
      "balh": 1453,
      "313)) \n": 1454,
      "801)) \n": 1455,
      "352)) \n": 1456,
      "750)) \n": 1457,
      "860": 1458,
      "862": 1459,
      "762": 1460,
      "840": 1461,
      "945)) \n": 1462,
      "341": 1463,
      "894)) \n": 1464,
      "883)) \n": 1465,
      "('no', (1": 1466,
      "('voss": 1467,
      "('Os', (1": 1468,
      "('com', (": 1469,
      "('In": 1470,
      "59, 2": 1471,
      "6, 21": 1472,
      "698": 1473,
      "('il": 1474,
      "953)) \n": 1475,
      "322)) \n": 1476,
      "721": 1477,
      "748)) \n": 1478,
      "752": 1479,
      "911": 1480,
      "812": 1481,
      "861": 1482,
      "364)) \n": 1483,
      "612": 1484,
      "410": 1485,
      "450": 1486,
      "eros": 1487,
      "('torn": 1488,
      "('quem', (2": 1489,
      "('feit": 1490,
      "(',', (31": 1491,
      "int": 1492,
      "('Ou": 1493,
      "('Mas', (": 1494,
      "('out": 1495,
      "('Rei', (": 1496,
      "4, 10": 1497,
      "497": 1498,
      "48, 2": 1499,
      "58, 2": 1500,
      "93, 1": 1501,
      "át": 1502,
      "801": 1503,
      "951)) \n": 1504,
      "702": 1505,
      "320": 1506,
      "322": 1507,
      "357)) \n": 1508,
      "722": 1509,
      "740": 1510,
      "742)) \n": 1511,
      "810)) \n": 1512,
      "865)) \n": 1513,
      "921": 1514,
      "920)) \n": 1515,
      "942": 1516,
      "940)) \n": 1517,
      "('aj": 1518,
      "402": 1519,
      "451": 1520,
      "420": 1521,
      "393)) \n": 1522,
      "('man": 1523,
      "('Cr": 1524,
      "il', (2": 1525,
      "('inc": 1526,
      "(':', (2": 1527,
      "588": 1528,
      "6, 10": 1529,
      "íss": 1530,
      "701": 1531,
      "749)) \n": 1532,
      "929)) \n": 1533,
      "360": 1534,
      "651": 1535,
      "411": 1536,
      "622": 1537,
      "896)) \n": 1538,
      "375)) \n": 1539,
      "370)) \n": 1540,
      "('no', (": 1541,
      "('Ar": 1542,
      "usc": 1543,
      "('bel": 1544,
      "538": 1545,
      "ai": 1546,
      "éri": 1547,
      "952": 1548,
      "956)) \n": 1549,
      "701)) \n": 1550,
      "726)) \n": 1551,
      "919)) \n": 1552,
      "810": 1553,
      "815)) \n": 1554,
      "710)) \n": 1555,
      "864)) \n": 1556,
      "921)) \n": 1557,
      "842": 1558,
      "367)) \n": 1559,
      "823)) \n": 1560,
      "('ao', (": 1561,
      "401": 1562,
      "620": 1563,
      "ens": 1564,
      "520": 1565,
      "892)) \n": 1566,
      "877)) \n": 1567,
      "egr": 1568,
      "('terra', (2": 1569,
      "('Por', (2": 1570,
      "('human": 1571,
      "331)) \n": 1572,
      "4, 21": 1573,
      "49, ": 1574,
      "63, 2": 1575,
      "63, ": 1576,
      "7, 10": 1577,
      "oz": 1578,
      "ura', (2": 1579,
      ", 155": 1580,
      "311)) \n": 1581,
      "808)) \n": 1582,
      "800)) \n": 1583,
      "955)) \n": 1584,
      "745)) \n": 1585,
      "909)) \n": 1586,
      "717)) \n": 1587,
      "840)) \n": 1588,
      "363)) \n": 1589,
      "821)) \n": 1590,
      "621": 1591,
      "ores', (2": 1592,
      "('fic": 1593,
      "os', (12": 1594,
      "('Pr": 1595,
      "('o', (30": 1596,
      "ais', (1": 1597,
      "('Vê": 1598,
      "('ard": 1599,
      "('Por', (1": 1600,
      "('traz": 1601,
      "ranh": 1602,
      "5, 30": 1603,
      "6, 12": 1604,
      "mos": 1605,
      ", 144": 1606,
      "958)) \n": 1607,
      "702)) \n": 1608,
      "708)) \n": 1609,
      "327)) \n": 1610,
      "963)) \n": 1611,
      "968)) \n": 1612,
      "721)) \n": 1613,
      "851": 1614,
      "852)) \n": 1615,
      "851)) \n": 1616,
      "757)) \n": 1617,
      "900)) \n": 1618,
      "712": 1619,
      "340)) \n": 1620,
      "341)) \n": 1621,
      "es', (30": 1622,
      "611": 1623,
      "600": 1624,
      "602": 1625,
      "('som": 1626,
      "('cas": 1627,
      "521": 1628,
      "511": 1629,
      "396)) \n": 1630,
      "776)) \n": 1631,
      "884)) \n": 1632,
      "991)) \n": 1633,
      "('vist": 1634,
      "('Ass": 1635,
      "('Os', (2": 1636,
      "('Rei', (2": 1637,
      "('div": 1638,
      "('trabalh": 1639,
      "('entr": 1640,
      "('enfim": 1641,
      ", 44": 1642,
      "('ü": 1643,
      "959)) \n": 1644,
      "709)) \n": 1645,
      "321": 1646,
      "320)) \n": 1647,
      "720": 1648,
      "727)) \n": 1649,
      "753)) \n": 1650,
      "816)) \n": 1651,
      "817)) \n": 1652,
      "922)) \n": 1653,
      "927)) \n": 1654,
      "768)) \n": 1655,
      "940": 1656,
      "346)) \n": 1657,
      "349)) \n": 1658,
      "342)) \n": 1659,
      "345)) \n": 1660,
      "361)) \n": 1661,
      "o', (210": 1662,
      "610": 1663,
      "422": 1664,
      "('prim": 1665,
      "895)) \n": 1666,
      "394)) \n": 1667,
      "398)) \n": 1668,
      "('tão', (2": 1669,
      "('quant": 1670,
      "333)) \n": 1671,
      "('na', (2": 1672,
      "386)) \n": 1673,
      "832)) \n": 1674,
      "('gente', (2": 1675,
      "('Com', (2": 1676,
      "('verdad": 1677,
      "('corr": 1678,
      "4, 22": 1679,
      "5, 12": 1680,
      "58, ": 1681,
      ", 66": 1682,
      "802)) \n": 1683,
      "706)) \n": 1684,
      "903)) \n": 1685,
      "869)) \n": 1686,
      "765)) \n": 1687,
      "368)) \n": 1688,
      "820)) \n": 1689,
      "('ad": 1690,
      "rar": 1691,
      "650": 1692,
      "890)) \n": 1693,
      "379)) \n": 1694,
      "371)) \n": 1695,
      "879)) \n": 1696,
      "('nobr": 1697,
      "rit": 1698,
      "('gl": 1699,
      "839)) \n": 1700,
      "('alg": 1701,
      "ais', (2": 1702,
      "('gente', (1": 1703,
      "idade', (2": 1704,
      "5, 22": 1705,
      "53, 1": 1706,
      "6, 20": 1707,
      "('ir": 1708,
      ", 164": 1709,
      ", 266": 1710,
      ", 264": 1711,
      "304)) \n": 1712,
      "305)) \n": 1713,
      "316)) \n": 1714,
      "317)) \n": 1715,
      "323)) \n": 1716,
      "325)) \n": 1717,
      "966)) \n": 1718,
      "743)) \n": 1719,
      "741)) \n": 1720,
      "854)) \n": 1721,
      "759)) \n": 1722,
      "902": 1723,
      "913)) \n": 1724,
      "915)) \n": 1725,
      "863)) \n": 1726,
      "766)) \n": 1727,
      "769)) \n": 1728,
      "849)) \n": 1729,
      "361": 1730,
      "824)) \n": 1731,
      "('a', (30": 1732,
      "421": 1733,
      "('pal": 1734,
      "510": 1735,
      "500": 1736,
      "875)) \n": 1737,
      "889)) \n": 1738,
      "388)) \n": 1739,
      "ria', (2": 1740,
      "as', (12": 1741,
      "('Pel": 1742,
      "('Porqu": 1743,
      "eiro', (1": 1744,
      "('camp": 1745,
      "4, 30": 1746,
      "4, 20": 1747,
      "43, 1": 1748,
      "43, ": 1749,
      "5, 11": 1750,
      "53, 2": 1751,
      "69, ": 1752,
      "68, ": 1753,
      "ugu": 1754,
      "('ó": 1755,
      ", 166": 1756,
      "306)) \n": 1757,
      "303)) \n": 1758,
      "312)) \n": 1759,
      "318)) \n": 1760,
      "704)) \n": 1761,
      "328)) \n": 1762,
      "965)) \n": 1763,
      "729)) \n": 1764,
      "855)) \n": 1765,
      "754)) \n": 1766,
      "904)) \n": 1767,
      "916)) \n": 1768,
      "715)) \n": 1769,
      "860)) \n": 1770,
      "764)) \n": 1771,
      "762)) \n": 1772,
      "846)) \n": 1773,
      "841)) \n": 1774,
      "340": 1775,
      "412": 1776,
      "373)) \n": 1777,
      "('quer": 1778,
      "('na', (": 1779,
      "('va": 1780,
      "('Do', (1": 1781,
      "935)) \n": 1782,
      "833)) \n": 1783,
      "eu', (2": 1784,
      "('Com', (": 1785,
      "('Portugu": 1786,
      "('ilustr": 1787,
      "íssim": 1788,
      "5, 20": 1789,
      "53, ": 1790,
      "6, 22": 1791,
      "áb": 1792,
      ", 244": 1793,
      "301": 1794,
      "326)) \n": 1795,
      "324)) \n": 1796,
      "969)) \n": 1797,
      "961)) \n": 1798,
      "744)) \n": 1799,
      "859)) \n": 1800,
      "907)) \n": 1801,
      "914)) \n": 1802,
      "912)) \n": 1803,
      "819)) \n": 1804,
      "866)) \n": 1805,
      "923)) \n": 1806,
      "941)) \n": 1807,
      "343)) \n": 1808,
      "366)) \n": 1809,
      "826)) \n": 1810,
      "601": 1811,
      "512": 1812,
      "501": 1813,
      "899)) \n": 1814,
      "897)) \n": 1815,
      "871)) \n": 1816,
      "392)) \n": 1817,
      "391)) \n": 1818,
      "999)) \n": 1819,
      "335)) \n": 1820,
      "794)) \n": 1821,
      "385)) \n": 1822,
      "('vó": 1823,
      "975)) \n": 1824,
      "os', (10": 1825,
      "('Af": 1826,
      "('As', (1": 1827,
      "eu', (": 1828,
      "('mais', (": 1829,
      "('fermos": 1830,
      "('companh": 1831,
      "08, 2": 1832,
      "57, 1": 1833,
      "69, 2": 1834,
      "ân": 1835,
      "('us": 1836,
      "302)) \n": 1837,
      "300)) \n": 1838,
      "803)) \n": 1839,
      "957)) \n": 1840,
      "724)) \n": 1841,
      "725)) \n": 1842,
      "752)) \n": 1843,
      "917)) \n": 1844,
      "911)) \n": 1845,
      "713)) \n": 1846,
      "924)) \n": 1847,
      "944)) \n": 1848,
      "949)) \n": 1849,
      "942)) \n": 1850,
      "344)) \n": 1851,
      "652": 1852,
      "886)) \n": 1853,
      "336)) \n": 1854,
      "334)) \n": 1855,
      "337)) \n": 1856,
      "790)) \n": 1857,
      "384)) \n": 1858,
      "380)) \n": 1859,
      "ados', (": 1860,
      "987)) \n": 1861,
      "('Capit": 1862,
      "934)) \n": 1863,
      "939)) \n": 1864,
      "('Ma": 1865,
      "('que', (22": 1866,
      "('e', (30": 1867,
      "('fog": 1868,
      "('um', (1": 1869,
      "('!', (1": 1870,
      "59, 1": 1871,
      "63, 1": 1872,
      "307)) \n": 1873,
      "301)) \n": 1874,
      "310)) \n": 1875,
      "707)) \n": 1876,
      "705)) \n": 1877,
      "964)) \n": 1878,
      "359)) \n": 1879,
      "857)) \n": 1880,
      "818)) \n": 1881,
      "711)) \n": 1882,
      "868)) \n": 1883,
      "928)) \n": 1884,
      "763)) \n": 1885,
      "947)) \n": 1886,
      "948)) \n": 1887,
      "360)) \n": 1888,
      "829)) \n": 1889,
      "('ao', (1": 1890,
      "('ao', (2": 1891,
      "o', (31": 1892,
      "650)) \n": 1893,
      "452": 1894,
      "522": 1895,
      "898)) \n": 1896,
      "377)) \n": 1897,
      "878)) \n": 1898,
      "a', (31": 1899,
      "('mar', (2": 1900,
      "880)) \n": 1901,
      "976)) \n": 1902,
      "os', (21": 1903,
      "('larg": 1904,
      "932)) \n": 1905,
      "as', (10": 1906,
      "('busc": 1907,
      "('terra', (": 1908,
      "('um', (2": 1909,
      "('perd": 1910,
      "('cham": 1911,
      "('clar": 1912,
      "08, ": 1913,
      "18, ": 1914,
      "43, 2": 1915,
      "93, 2": 1916,
      ", 64": 1917,
      "950)) \n": 1918,
      "354)) \n": 1919,
      "853)) \n": 1920,
      "758)) \n": 1921,
      "811)) \n": 1922,
      "843)) \n": 1923,
      "822)) \n": 1924,
      "('dou": 1925,
      "('senh": 1926,
      "('car": 1927,
      "870)) \n": 1928,
      "397)) \n": 1929,
      "('quem', (": 1930,
      "888)) \n": 1931,
      "338)) \n": 1932,
      "('na', (1": 1933,
      "('nav": 1934,
      "389)) \n": 1935,
      "387)) \n": 1936,
      "('vári": 1937,
      "ei', (1": 1938,
      "780)) \n": 1939,
      "980)) \n": 1940,
      "ons": 1941,
      "('Olh": 1942,
      "('Gam": 1943,
      "aram', (1": 1944,
      "4, 12": 1945,
      "48, ": 1946,
      "6, 11": 1947,
      "930)) \n": 1948,
      "ín": 1949,
      "703)) \n": 1950,
      "700)) \n": 1951,
      "355)) \n": 1952,
      "723)) \n": 1953,
      "747)) \n": 1954,
      "856)) \n": 1955,
      "901)) \n": 1956,
      "813)) \n": 1957,
      "714)) \n": 1958,
      "719)) \n": 1959,
      "844)) \n": 1960,
      "369)) \n": 1961,
      "365)) \n": 1962,
      "('der": 1963,
      "('dur": 1964,
      "618)) \n": 1965,
      "891)) \n": 1966,
      "378)) \n": 1967,
      "erb": 1968,
      "395)) \n": 1969,
      "ores', (1": 1970,
      "332)) \n": 1971,
      "('nos', (1": 1972,
      "786)) \n": 1973,
      "781)) \n": 1974,
      "('gr": 1975,
      "anto', (1": 1976,
      "('Rei', (1": 1977,
      "('grande', (1": 1978,
      "('ric": 1979,
      "('despois": 1980,
      "('engan": 1981,
      "('Lusitan": 1982,
      "ch": 1983,
      "lim": 1984,
      "314)) \n": 1985,
      "315)) \n": 1986,
      "356)) \n": 1987,
      "728)) \n": 1988,
      "756)) \n": 1989,
      "716)) \n": 1990,
      "925)) \n": 1991,
      "842)) \n": 1992,
      "('and": 1993,
      "('pra": 1994,
      "('ped": 1995,
      "390)) \n": 1996,
      "887)) \n": 1997,
      "990)) \n": 1998,
      "('fri": 1999,
      "796)) \n": 2000,
      "797)) \n": 2001,
      "('vir": 2002,
      "os', (20": 2003,
      "is', (2": 2004,
      "838)) \n": 2005,
      "('esf": 2006,
      "as', (11": 2007,
      "734)) \n": 2008,
      "imig": 2009,
      "('Se', (2": 2010,
      "('seu', (": 2011,
      "('?', (1": 2012,
      "('naveg": 2013,
      "19, ": 2014,
      "23, 1": 2015,
      "49, 2": 2016,
      "ro', (2": 2017,
      "('i": 2018,
      "('er": 2019,
      "3110": 2020,
      "809)) \n": 2021,
      "954)) \n": 2022,
      "329)) \n": 2023,
      "967)) \n": 2024,
      "358)) \n": 2025,
      "905)) \n": 2026,
      "918)) \n": 2027,
      "712)) \n": 2028,
      "867)) \n": 2029,
      "861)) \n": 2030,
      "('af": 2031,
      "('aquel": 2032,
      "408)) \n": 2033,
      "603)) \n": 2034,
      "('co": 2035,
      "('cab": 2036,
      "('parec": 2037,
      "774)) \n": 2038,
      "771)) \n": 2039,
      "('mat": 2040,
      "885)) \n": 2041,
      "782)) \n": 2042,
      "982)) \n": 2043,
      "('Do', (": 2044,
      "ament": 2045,
      "ante', (": 2046,
      "aval": 2047,
      "eram', (1": 2048,
      "('estranh": 2049,
      "('já', (": 2050,
      "('junt": 2051,
      "('perig": 2052,
      "09, ": 2053,
      "48, 1": 2054,
      "57, ": 2055,
      "68, 2": 2056,
      "302": 2057,
      "350)) \n": 2058,
      "751)) \n": 2059,
      "902)) \n": 2060,
      "862)) \n": 2061,
      "347)) \n": 2062,
      "827)) \n": 2063,
      "828)) \n": 2064,
      "651)) \n": 2065,
      "602)) \n": 2066,
      "874)) \n": 2067,
      "399)) \n": 2068,
      "('tem', (2": 2069,
      "ord": 2070,
      "775)) \n": 2071,
      "('men": 2072,
      "881)) \n": 2073,
      "383)) \n": 2074,
      "101": 2075,
      "102": 2076,
      "ina', (2": 2077,
      "omp": 2078,
      "('Dest": 2079,
      "is', (1": 2080,
      "('Aqu": 2081,
      "ouv": 2082,
      "(';', (30": 2083,
      "('Pera', (2": 2084,
      "696)) \n": 2085,
      "738)) \n": 2086,
      "('inf": 2087,
      "('Lh": 2088,
      "('ach": 2089,
      "('Crist": 2090,
      "13, ": 2091,
      "19, 2": 2092,
      "2, 30": 2093,
      "49, 1": 2094,
      "5, 21": 2095,
      "ara', (2": 2096,
      "if": 2097,
      "m', (30": 2098,
      "('of": 2099,
      "309)) \n": 2100,
      "353)) \n": 2101,
      "850)) \n": 2102,
      "oso', (1": 2103,
      "419)) \n": 2104,
      "418)) \n": 2105,
      "('cort": 2106,
      "502": 2107,
      "374)) \n": 2108,
      "779)) \n": 2109,
      "('mã": 2110,
      "('mont": 2111,
      "994)) \n": 2112,
      "emb": 2113,
      "('naus": 2114,
      "799)) \n": 2115,
      "798)) \n": 2116,
      "('vit": 2117,
      "783)) \n": 2118,
      "788)) \n": 2119,
      "is', (": 2120,
      "('Am": 2121,
      "ric": 2122,
      "936)) \n": 2123,
      "837)) \n": 2124,
      "idos', (1": 2125,
      "732)) \n": 2126,
      "as', (20": 2127,
      "('reg": 2128,
      "('resp": 2129,
      "('Sol": 2130,
      "('inimig": 2131,
      "('pres": 2132,
      "('Por', (": 2133,
      "(':', (": 2134,
      "('espera": 2135,
      "('cheg": 2136,
      "('é', (2": 2137,
      "('esforç": 2138,
      "68, 1": 2139,
      "mos', (1": 2140,
      ", 54": 2141,
      "805)) \n": 2142,
      "960)) \n": 2143,
      "906)) \n": 2144,
      "910)) \n": 2145,
      "718)) \n": 2146,
      "926)) \n": 2147,
      "847)) \n": 2148,
      "848)) \n": 2149,
      "825)) \n": 2150,
      "511)) \n": 2151,
      "443)) \n": 2152,
      "777)) \n": 2153,
      "882)) \n": 2154,
      "996)) \n": 2155,
      "993)) \n": 2156,
      "995)) \n": 2157,
      "467)) \n": 2158,
      "ina', (": 2159,
      "979)) \n": 2160,
      "973)) \n": 2161,
      "989)) \n": 2162,
      "onh": 2163,
      "('que', (21": 2164,
      "('Não', (2": 2165,
      "('rem": 2166,
      "('tanto', (1": 2167,
      "('cuj": 2168,
      "('soberb": 2169,
      "07, ": 2170,
      "06, 1": 2171,
      "1, 30": 2172,
      "13, 1": 2173,
      "uí": 2174,
      ", 146": 2175,
      ", 287": 2176,
      "746)) \n": 2177,
      "767)) \n": 2178,
      "761)) \n": 2179,
      "348)) \n": 2180,
      "('def": 2181,
      "409)) \n": 2182,
      "400)) \n": 2183,
      "616)) \n": 2184,
      "414)) \n": 2185,
      "('caval": 2186,
      "('poss": 2187,
      "('tê": 2188,
      "381)) \n": 2189,
      "121": 2190,
      "('Es": 2191,
      "ou', (2": 2192,
      "938)) \n": 2193,
      "736)) \n": 2194,
      "733)) \n": 2195,
      "684)) \n": 2196,
      "('rep": 2197,
      "('br": 2198,
      "um', (2": 2199,
      "('int": 2200,
      "idade', (": 2201,
      "('apr": 2202,
      "('seu', (2": 2203,
      "('caminh": 2204,
      "03, 2": 2205,
      "18, 2": 2206,
      "23, ": 2207,
      "5, 10": 2208,
      "8, 15": 2209,
      "831)) \n": 2210,
      "ora', (2": 2211,
      "('Í": 2212,
      ", 246": 2213,
      "308)) \n": 2214,
      "755)) \n": 2215,
      "('at": 2216,
      "('dos', (1": 2217,
      "('dos', (": 2218,
      "('doc": 2219,
      "412)) \n": 2220,
      "453)) \n": 2221,
      "600)) \n": 2222,
      "626)) \n": 2223,
      "425)) \n": 2224,
      "enç": 2225,
      "('sal": 2226,
      "('sant": 2227,
      "503)) \n": 2228,
      "erm": 2229,
      "447)) \n": 2230,
      "772)) \n": 2231,
      "770)) \n": 2232,
      "('med": 2233,
      "('vez": 2234,
      "789)) \n": 2235,
      "787)) \n": 2236,
      "986)) \n": 2237,
      "('lanç": 2238,
      "473)) \n": 2239,
      "933)) \n": 2240,
      "937)) \n": 2241,
      "834)) \n": 2242,
      "('Os', (": 2243,
      "as', (21": 2244,
      "('.', (11": 2245,
      "('porqu": 2246,
      "('conh": 2247,
      "('Ilh": 2248,
      "(')', (1": 2249,
      "('Outr": 2250,
      "23, 2": 2251,
      "29, 2": 2252,
      "equ": 2253,
      "oç": 2254,
      "ora', (1": 2255,
      "ro', (1": 2256,
      "ões', (1": 2257,
      ", 46": 2258,
      "('Á": 2259,
      ", 254": 2260,
      "3122": 2261,
      "952)) \n": 2262,
      "722)) \n": 2263,
      "740)) \n": 2264,
      "oso', (": 2265,
      "946)) \n": 2266,
      "362)) \n": 2267,
      "('det": 2268,
      "('diss": 2269,
      "rac": 2270,
      "406)) \n": 2271,
      "610)) \n": 2272,
      "456)) \n": 2273,
      "625)) \n": 2274,
      "426)) \n": 2275,
      "429)) \n": 2276,
      "('se', (30": 2277,
      "('pát": 2278,
      "516)) \n": 2279,
      "519)) \n": 2280,
      "erec": 2281,
      "876)) \n": 2282,
      "646)) \n": 2283,
      "('fl": 2284,
      "('viv": 2285,
      "eira', (1": 2286,
      "784)) \n": 2287,
      "('led": 2288,
      "676)) \n": 2289,
      "('Cont": 2290,
      "('Cast": 2291,
      "ida', (2": 2292,
      "634)) \n": 2293,
      "antes', (1": 2294,
      "('como', (1": 2295,
      "536)) \n": 2296,
      "('port": 2297,
      "ais', (": 2298,
      "03, ": 2299,
      "16, ": 2300,
      "28, 1": 2301,
      "69, 1": 2302,
      "731)) \n": 2303,
      "9, 15": 2304,
      "aquel": 2305,
      "io', (1": 2306,
      "ro', (": 2307,
      "up": 2308,
      "ões', (2": 2309,
      ", 156": 2310,
      ", 299": 2311,
      "401)) \n": 2312,
      "611)) \n": 2313,
      "455)) \n": 2314,
      "451)) \n": 2315,
      "609)) \n": 2316,
      "624)) \n": 2317,
      "627)) \n": 2318,
      "620)) \n": 2319,
      "423)) \n": 2320,
      "('san": 2321,
      "('sin": 2322,
      "893)) \n": 2323,
      "773)) \n": 2324,
      "('me', (2": 2325,
      "992)) \n": 2326,
      "550)) \n": 2327,
      "('nest": 2328,
      "641)) \n": 2329,
      "('fez": 2330,
      "792)) \n": 2331,
      "566)) \n": 2332,
      "ados', (2": 2333,
      "974)) \n": 2334,
      "474)) \n": 2335,
      "('Ch": 2336,
      "idos', (": 2337,
      "482)) \n": 2338,
      "737)) \n": 2339,
      "686)) \n": 2340,
      "636)) \n": 2341,
      "('que', (20": 2342,
      "('Não', (": 2343,
      "avam', (1": 2344,
      "('bat": 2345,
      "('ins": 2346,
      "('hon": 2347,
      "('foi', (1": 2348,
      "('é', (1": 2349,
      "('exc": 2350,
      "('obed": 2351,
      "('sangu": 2352,
      "09, 2": 2353,
      "06, ": 2354,
      "28, 2": 2355,
      "830)) \n": 2356,
      "931)) \n": 2357,
      "ora', (": 2358,
      "á', (30": 2359,
      ", 56": 2360,
      ", 189": 2361,
      ", 177": 2362,
      ", 237": 2363,
      "ra', (30": 2364,
      "404)) \n": 2365,
      "403)) \n": 2366,
      "612)) \n": 2367,
      "656)) \n": 2368,
      "652)) \n": 2369,
      "658)) \n": 2370,
      "413)) \n": 2371,
      "('sa": 2372,
      "('cous": 2373,
      "527)) \n": 2374,
      "446)) \n": 2375,
      "667)) \n": 2376,
      "660)) \n": 2377,
      "('noss": 2378,
      "('nenh": 2379,
      "643)) \n": 2380,
      "795)) \n": 2381,
      "('vel": 2382,
      "103)) \n": 2383,
      "221": 2384,
      "008)) \n": 2385,
      "eira', (2": 2386,
      "201": 2387,
      "671)) \n": 2388,
      "499)) \n": 2389,
      "695)) \n": 2390,
      "739)) \n": 2391,
      "('Nin": 2392,
      "('.', (21": 2393,
      "('como', (": 2394,
      "('Se', (": 2395,
      "('um', (": 2396,
      "('à', (2": 2397,
      "('só', (2": 2398,
      "('»', (1": 2399,
      "03, 1": 2400,
      "13, 2": 2401,
      "26, ": 2402,
      "730)) \n": 2403,
      "ax": 2404,
      "ág": 2405,
      "ón": 2406,
      "óp": 2407,
      ", 77": 2408,
      "('À": 2409,
      "3112": 2410,
      "('dan": 2411,
      "617)) \n": 2412,
      "605)) \n": 2413,
      "ans": 2414,
      "440)) \n": 2415,
      "663)) \n": 2416,
      "661)) \n": 2417,
      "('mov": 2418,
      "997)) \n": 2419,
      "644)) \n": 2420,
      "793)) \n": 2421,
      "791)) \n": 2422,
      "227)) \n": 2423,
      "785)) \n": 2424,
      "562)) \n": 2425,
      "546)) \n": 2426,
      "omb": 2427,
      "202": 2428,
      "('Des": 2429,
      "('Da', (": 2430,
      "470)) \n": 2431,
      "('Em', (2": 2432,
      "ou', (": 2433,
      "480)) \n": 2434,
      "689)) \n": 2435,
      "685)) \n": 2436,
      "ante', (1": 2437,
      "avam', (2": 2438,
      "('bem', (1": 2439,
      "('braç": 2440,
      "('conc": 2441,
      "('conv": 2442,
      "('prov": 2443,
      "('Com', (1": 2444,
      "('foi', (": 2445,
      "('Já', (1": 2446,
      "('à', (1": 2447,
      "('seu', (1": 2448,
      "ória', (": 2449,
      "('mundo', (1": 2450,
      "('receb": 2451,
      "16, 1": 2452,
      "58, 1": 2453,
      "5, 5": 2454,
      "lic": 2455,
      "ét": 2456,
      ", 139": 2457,
      ", 199": 2458,
      "814)) \n": 2459,
      "('du": 2460,
      "654)) \n": 2461,
      "657)) \n": 2462,
      "604)) \n": 2463,
      "628)) \n": 2464,
      "427)) \n": 2465,
      "('co', (": 2466,
      "('pes": 2467,
      "('pera', (2": 2468,
      "504)) \n": 2469,
      "448)) \n": 2470,
      "665)) \n": 2471,
      "('mur": 2472,
      "551)) \n": 2473,
      "382)) \n": 2474,
      "106)) \n": 2475,
      "222": 2476,
      "464)) \n": 2477,
      "009)) \n": 2478,
      "120": 2479,
      "123)) \n": 2480,
      "560)) \n": 2481,
      "542)) \n": 2482,
      "ina', (1": 2483,
      "983)) \n": 2484,
      "981)) \n": 2485,
      "('Da', (1": 2486,
      "('luz": 2487,
      "021": 2488,
      "675)) \n": 2489,
      "477)) \n": 2490,
      "471)) \n": 2491,
      "835)) \n": 2492,
      "ido', (1": 2493,
      "492)) \n": 2494,
      "487)) \n": 2495,
      "694)) \n": 2496,
      "680)) \n": 2497,
      "('«', (30": 2498,
      "('que', (12": 2499,
      "ende', (2": 2500,
      "eiros', (1": 2501,
      "('grande', (": 2502,
      "('exp": 2503,
      "undo', (1": 2504,
      "('seus', (2": 2505,
      "('cru": 2506,
      "('Portugues": 2507,
      "('coraç": 2508,
      "('Ninf": 2509,
      "28, ": 2510,
      "330)) \n": 2511,
      "ár": 2512,
      ", 89": 2513,
      ", 137": 2514,
      ", 187": 2515,
      ", 154": 2516,
      "807)) \n": 2517,
      "655)) \n": 2518,
      "415)) \n": 2519,
      "('cant": 2520,
      "('pô": 2521,
      "529)) \n": 2522,
      "506)) \n": 2523,
      "502)) \n": 2524,
      "508)) \n": 2525,
      "ers": 2526,
      "668)) \n": 2527,
      "('mil": 2528,
      "998)) \n": 2529,
      "559)) \n": 2530,
      "('nel": 2531,
      "100)) \n": 2532,
      "461)) \n": 2533,
      "563)) \n": 2534,
      "543)) \n": 2535,
      "111)) \n": 2536,
      "('Desp": 2537,
      "('Ant": 2538,
      "rig": 2539,
      "('gest": 2540,
      "836)) \n": 2541,
      "495)) \n": 2542,
      "735)) \n": 2543,
      "638)) \n": 2544,
      "635)) \n": 2545,
      "047)) \n": 2546,
      "('e', (12": 2547,
      "('como', (2": 2548,
      "('estr": 2549,
      "277)) \n": 2550,
      "197)) \n": 2551,
      "('arr": 2552,
      "('art": 2553,
      "('Fo": 2554,
      "atu": 2555,
      "ult": 2556,
      "ois', (1": 2557,
      "indo', (2": 2558,
      "('fals": 2559,
      "('segu": 2560,
      "('palav": 2561,
      "27, ": 2562,
      "27, 1": 2563,
      "430)) \n": 2564,
      "fi": 2565,
      "ip": 2566,
      "('Ó": 2567,
      "('et": 2568,
      ", 256": 2569,
      "o', (270": 2570,
      "ram": 2571,
      "659)) \n": 2572,
      "459)) \n": 2573,
      "621)) \n": 2574,
      "('co', (2": 2575,
      "('pa": 2576,
      "('te', (2": 2577,
      "449)) \n": 2578,
      "666)) \n": 2579,
      "100": 2580,
      "101)) \n": 2581,
      "228)) \n": 2582,
      "220)) \n": 2583,
      "ará', (2": 2584,
      "469)) \n": 2585,
      "465)) \n": 2586,
      "001": 2587,
      "eis', (2": 2588,
      "565)) \n": 2589,
      "549)) \n": 2590,
      "541)) \n": 2591,
      "977)) \n": 2592,
      "984)) \n": 2593,
      "673)) \n": 2594,
      "677)) \n": 2595,
      "670)) \n": 2596,
      "('Que', (30": 2597,
      "os', (31": 2598,
      "486)) \n": 2599,
      "483)) \n": 2600,
      "699)) \n": 2601,
      "633)) \n": 2602,
      "637)) \n": 2603,
      "('e', (11": 2604,
      "avam', (": 2605,
      "('Se', (1": 2606,
      "('o', (11": 2607,
      "('o', (20": 2608,
      "081)) \n": 2609,
      "('todos', (1": 2610,
      "('grande', (2": 2611,
      "('Entr": 2612,
      "('Índ": 2613,
      "('conhec": 2614,
      "0, 30": 2615,
      "17, 1": 2616,
      "29, 1": 2617,
      "27, 2": 2618,
      "530)) \n": 2619,
      ", 37": 2620,
      ", 87": 2621,
      ", 289": 2622,
      ", 277": 2623,
      "o', (82": 2624,
      "ram', (1": 2625,
      "615)) \n": 2626,
      "420)) \n": 2627,
      "('cerc": 2628,
      "('pen": 2629,
      "('pera', (1": 2630,
      "512)) \n": 2631,
      "444)) \n": 2632,
      "441)) \n": 2633,
      "555)) \n": 2634,
      "('neg": 2635,
      "648)) \n": 2636,
      "102)) \n": 2637,
      "108)) \n": 2638,
      "eia', (": 2639,
      "124)) \n": 2640,
      "125)) \n": 2641,
      "561)) \n": 2642,
      "adas', (1": 2643,
      "113)) \n": 2644,
      "207)) \n": 2645,
      "('Do', (2": 2646,
      "('Diz": 2647,
      "('At": 2648,
      "('As', (2": 2649,
      "('Em', (": 2650,
      "ida', (": 2651,
      "idos', (2": 2652,
      "497)) \n": 2653,
      "690)) \n": 2654,
      "688)) \n": 2655,
      "632)) \n": 2656,
      "es', (12": 2657,
      "434)) \n": 2658,
      "('a', (11": 2659,
      "177)) \n": 2660,
      "igu": 2661,
      "('ou', (1": 2662,
      "('Faz": 2663,
      "eza', (2": 2664,
      "('Já', (2": 2665,
      "('onde', (1": 2666,
      "('imp": 2667,
      "07, 1": 2668,
      "18, 1": 2669,
      "5, 25": 2670,
      "57, 2": 2671,
      "6, 15": 2672,
      "630)) \n": 2673,
      "ít": 2674,
      ", 239": 2675,
      "319)) \n": 2676,
      "3100": 2677,
      "osa', (2": 2678,
      "402)) \n": 2679,
      "619)) \n": 2680,
      "613)) \n": 2681,
      "452)) \n": 2682,
      "457)) \n": 2683,
      "422)) \n": 2684,
      "('so": 2685,
      "('cé": 2686,
      "523)) \n": 2687,
      "520)) \n": 2688,
      "asc": 2689,
      "a', (220": 2690,
      "507)) \n": 2691,
      "erá', (2": 2692,
      "(',', (290": 2693,
      "105)) \n": 2694,
      "463)) \n": 2695,
      "468)) \n": 2696,
      "460)) \n": 2697,
      "ein": 2698,
      "120)) \n": 2699,
      "544)) \n": 2700,
      "enta', (2": 2701,
      "978)) \n": 2702,
      "970)) \n": 2703,
      "111": 2704,
      "206)) \n": 2705,
      "208)) \n": 2706,
      "672)) \n": 2707,
      "476)) \n": 2708,
      "479)) \n": 2709,
      "rid": 2710,
      "('Em', (1": 2711,
      "697)) \n": 2712,
      "('Oc": 2713,
      "('rein": 2714,
      "162)) \n": 2715,
      "599)) \n": 2716,
      "574)) \n": 2717,
      "('.', (10": 2718,
      "evant": 2719,
      "eiro', (2": 2720,
      "('tanto', (": 2721,
      "('corp": 2722,
      "('forte', (": 2723,
      "('peito', (": 2724,
      "08, 1": 2725,
      "07, 2": 2726,
      "4, 25": 2727,
      "4, 5": 2728,
      "úri": 2729,
      ", 39": 2730,
      ", 99": 2731,
      ", 279": 2732,
      "3111": 2733,
      "96, 12": 2734,
      "84, 21": 2735,
      "614)) \n": 2736,
      "417)) \n": 2737,
      "454)) \n": 2738,
      "('sent": 2739,
      "('pera', (": 2740,
      "528)) \n": 2741,
      "662)) \n": 2742,
      "('mem": 2743,
      "554)) \n": 2744,
      "339)) \n": 2745,
      "('nos', (2": 2746,
      "640)) \n": 2747,
      "220": 2748,
      "221)) \n": 2749,
      "462)) \n": 2750,
      "005)) \n": 2751,
      "eio', (1": 2752,
      "126)) \n": 2753,
      "127)) \n": 2754,
      "569)) \n": 2755,
      "adr": 2756,
      "3, 230": 2757,
      "547)) \n": 2758,
      "540)) \n": 2759,
      "ino', (": 2760,
      "972)) \n": 2761,
      "971)) \n": 2762,
      "os', (11": 2763,
      "119)) \n": 2764,
      "('Ag": 2765,
      "679)) \n": 2766,
      "678)) \n": 2767,
      "472)) \n": 2768,
      "', (301": 2769,
      "259)) \n": 2770,
      "258)) \n": 2771,
      "ida', (1": 2772,
      "494)) \n": 2773,
      "491)) \n": 2774,
      "('Ori": 2775,
      "('que', (10": 2776,
      "('e', (22": 2777,
      "265)) \n": 2778,
      "066)) \n": 2779,
      "588)) \n": 2780,
      "('.', (20": 2781,
      "435)) \n": 2782,
      "es', (22": 2783,
      "296)) \n": 2784,
      "('ous": 2785,
      "('enc": 2786,
      "('onde', (2": 2787,
      "('!', (2": 2788,
      "ência', (2": 2789,
      "('costum": 2790,
      "('sublim": 2791,
      "('ajud": 2792,
      "('ajunt": 2793,
      "17, 2": 2794,
      "5, 15": 2795,
      "7, 15": 2796,
      "7, 25": 2797,
      "canç": 2798,
      "orad": 2799,
      "ás', (2": 2800,
      ", 179": 2801,
      "oso', (2": 2802,
      "('das', (1": 2803,
      "('das', (2": 2804,
      "('dev": 2805,
      "407)) \n": 2806,
      "653)) \n": 2807,
      "450)) \n": 2808,
      "629)) \n": 2809,
      "424)) \n": 2810,
      "('sej": 2811,
      "('post": 2812,
      "('pint": 2813,
      "514)) \n": 2814,
      "515)) \n": 2815,
      "erd": 2816,
      "ori": 2817,
      "('me', (1": 2818,
      "('mes": 2819,
      "('mal": 2820,
      "552)) \n": 2821,
      "557)) \n": 2822,
      "558)) \n": 2823,
      "649)) \n": 2824,
      "('vão', (2": 2825,
      "('voz": 2826,
      "225)) \n": 2827,
      "002": 2828,
      "000)) \n": 2829,
      "eia', (2": 2830,
      "eia', (1": 2831,
      "eis', (": 2832,
      "128)) \n": 2833,
      "568)) \n": 2834,
      "545)) \n": 2835,
      "3, 195": 2836,
      "entes', (": 2837,
      "118)) \n": 2838,
      "028)) \n": 2839,
      "025)) \n": 2840,
      "amente', (2": 2841,
      "('As', (": 2842,
      "rib": 2843,
      "('Esp": 2844,
      "496)) \n": 2845,
      "490)) \n": 2846,
      "489)) \n": 2847,
      "488)) \n": 2848,
      "481)) \n": 2849,
      "154)) \n": 2850,
      "144)) \n": 2851,
      "148)) \n": 2852,
      "('No', (1": 2853,
      "065)) \n": 2854,
      "163)) \n": 2855,
      "584)) \n": 2856,
      "590)) \n": 2857,
      "es', (10": 2858,
      "438)) \n": 2859,
      "('a', (12": 2860,
      "179)) \n": 2861,
      "('alm": 2862,
      "('alegr": 2863,
      "094)) \n": 2864,
      "188)) \n": 2865,
      "282)) \n": 2866,
      "285)) \n": 2867,
      "('prof": 2868,
      "o', (301": 2869,
      "('ens": 2870,
      "eiro', (": 2871,
      "aram', (": 2872,
      "('(', (1": 2873,
      "('seus', (1": 2874,
      "('frot": 2875,
      "('Afons": 2876,
      "09, 1": 2877,
      "4, 15": 2878,
      "6, 5": 2879,
      "ret": 2880,
      "ámos', (1": 2881,
      "ós', (1": 2882,
      "70, 21": 2883,
      "411)) \n": 2884,
      "623)) \n": 2885,
      "428)) \n": 2886,
      "('são', (1": 2887,
      "('sem', (2": 2888,
      "('ca": 2889,
      "('pi": 2890,
      "('pequ": 2891,
      "526)) \n": 2892,
      "524)) \n": 2893,
      "517)) \n": 2894,
      "518)) \n": 2895,
      "510)) \n": 2896,
      "505)) \n": 2897,
      "500)) \n": 2898,
      "(',', (272": 2899,
      "(',', (285": 2900,
      ", 1141": 2901,
      "664)) \n": 2902,
      "('minh": 2903,
      "('mar', (": 2904,
      "('nu": 2905,
      "('not": 2906,
      "642)) \n": 2907,
      "('vinh": 2908,
      "000": 2909,
      "3, 130": 2910,
      "entes', (2": 2911,
      "988)) \n": 2912,
      "omet": 2913,
      "024)) \n": 2914,
      "018)) \n": 2915,
      "', (300": 2916,
      "057)) \n": 2917,
      "051)) \n": 2918,
      "255)) \n": 2919,
      "('Pera', (1": 2920,
      "493)) \n": 2921,
      "692)) \n": 2922,
      "683)) \n": 2923,
      "682)) \n": 2924,
      "681)) \n": 2925,
      "('Mart": 2926,
      "246)) \n": 2927,
      "244)) \n": 2928,
      "('e', (10": 2929,
      "269)) \n": 2930,
      "263)) \n": 2931,
      "('res": 2932,
      "062)) \n": 2933,
      "060)) \n": 2934,
      "('bem', (2": 2935,
      "580)) \n": 2936,
      "598)) \n": 2937,
      "432)) \n": 2938,
      "('ali', (2": 2939,
      "('Tod": 2940,
      "092)) \n": 2941,
      "098)) \n": 2942,
      "186)) \n": 2943,
      "281)) \n": 2944,
      "194)) \n": 2945,
      "085)) \n": 2946,
      "079)) \n": 2947,
      "('ou', (2": 2948,
      "('tanto', (2": 2949,
      "('onde', (": 2950,
      "ranc": 2951,
      "(')', (2": 2952,
      "('etern": 2953,
      "('pequen": 2954,
      "19, 1": 2955,
      "483": 2956,
      "6, 25": 2957,
      "fer": 2958,
      "ib": 2959,
      "úb": 2960,
      ", 67": 2961,
      "3120": 2962,
      "('atr": 2963,
      "o', (286": 2964,
      "('dec": 2965,
      "ram', (": 2966,
      "607)) \n": 2967,
      "608)) \n": 2968,
      "('sort": 2969,
      "522)) \n": 2970,
      "501)) \n": 2971,
      "(',', (291": 2972,
      "(',', (284": 2973,
      ", 2270": 2974,
      ", 2235": 2975,
      "445)) \n": 2976,
      "778)) \n": 2977,
      "('fav": 2978,
      "(',', (74": 2979,
      "104)) \n": 2980,
      "eio', (": 2981,
      "3, 280": 2982,
      "3, 162": 2983,
      "3, 74": 2984,
      "200)) \n": 2985,
      "amanh": 2986,
      "('Ab": 2987,
      "('Ap": 2988,
      "478)) \n": 2989,
      "017)) \n": 2990,
      "054)) \n": 2991,
      "050)) \n": 2992,
      "251)) \n": 2993,
      "157)) \n": 2994,
      "243)) \n": 2995,
      "247)) \n": 2996,
      "ante', (2": 2997,
      "044)) \n": 2998,
      "262)) \n": 2999,
      "267)) \n": 3000,
      "160)) \n": 3001,
      "589)) \n": 3002,
      "595)) \n": 3003,
      "('.', (12": 3004,
      "('está', (2": 3005,
      "('a', (21": 3006,
      "('o', (21": 3007,
      "294)) \n": 3008,
      "290)) \n": 3009,
      "279)) \n": 3010,
      "275)) \n": 3011,
      "('aleg": 3012,
      "('alcanç": 3013,
      "('Tom": 3014,
      "igo', (1": 3015,
      "('ouv": 3016,
      "('«', (12": 3017,
      "('Que', (12": 3018,
      "arat": 3019,
      "('Já', (": 3020,
      "('apar": 3021,
      "('parte', (1": 3022,
      "('trist": 3023,
      "('Céu', (1": 3024,
      "('Reino', (": 3025,
      "('nunca', (1": 3026,
      "('anim": 3027,
      "29, ": 3028,
      "531)) \n": 3029,
      "mp": 3030,
      "ém": 3031,
      "709, ": 3032,
      "91, 30": 3033,
      "o', (274": 3034,
      "('das', (": 3035,
      "416)) \n": 3036,
      "606)) \n": 3037,
      "('sust": 3038,
      "('cel": 3039,
      "89, 30": 3040,
      "('te', (": 3041,
      "(',', (261": 3042,
      ", 2172": 3043,
      ", 1285": 3044,
      "(',', (40": 3045,
      "(',', (52": 3046,
      "122)) \n": 3047,
      "567)) \n": 3048,
      "3, 232": 3049,
      "3, 272": 3050,
      "3, 276": 3051,
      "3, 141": 3052,
      "3, 51": 3053,
      "115)) \n": 3054,
      "021)) \n": 3055,
      ", 1562": 3056,
      "ria', (1": 3057,
      "('El": 3058,
      "('Quem', (1": 3059,
      "('Quando', (": 3060,
      "('Pera', (": 3061,
      "240)) \n": 3062,
      "('e', (21": 3063,
      "('rost": 3064,
      "('ref": 3065,
      "164)) \n": 3066,
      "('brav": 3067,
      "582)) \n": 3068,
      "585)) \n": 3069,
      "('comet": 3070,
      "ito', (2": 3071,
      "('a', (10": 3072,
      "537)) \n": 3073,
      "292)) \n": 3074,
      "270)) \n": 3075,
      "189)) \n": 3076,
      "181)) \n": 3077,
      "084)) \n": 3078,
      "('de', (12": 3079,
      "('just": 3080,
      "irm": 3081,
      "('serv": 3082,
      "ois', (": 3083,
      "('!', (": 3084,
      "('descob": 3085,
      "('raz": 3086,
      "('sempre', (1": 3087,
      "('glóri": 3088,
      "('excel": 3089,
      "038)) \n": 3090,
      "26, 1": 3091,
      "583": 3092,
      "ian": 3093,
      "ás": 3094,
      "én": 3095,
      "ém', (1": 3096,
      "ês', (1": 3097,
      "ínci": 3098,
      ", 79": 3099,
      "('É": 3100,
      "('ord": 3101,
      "3131": 3102,
      "31, 20": 3103,
      "80, 21": 3104,
      "721, 2": 3105,
      "71, 12": 3106,
      "946, 2": 3107,
      "82, 30": 3108,
      "o', (140": 3109,
      "o', (40": 3110,
      "405)) \n": 3111,
      "601)) \n": 3112,
      "('set": 3113,
      "('cob": 3114,
      "525)) \n": 3115,
      "521)) \n": 3116,
      "373, ": 3117,
      "('ti": 3118,
      "(',', (270": 3119,
      ", 1245": 3120,
      ", 1242": 3121,
      "(',', (135": 3122,
      "(',', (140": 3123,
      ", 1071": 3124,
      ", 1061": 3125,
      "669)) \n": 3126,
      "('manh": 3127,
      "('mal', (2": 3128,
      "(',', (95": 3129,
      "(',', (92": 3130,
      "('vej": 3131,
      "('velh": 3132,
      "107)) \n": 3133,
      "224)) \n": 3134,
      "arc": 3135,
      "466)) \n": 3136,
      "006)) \n": 3137,
      "004)) \n": 3138,
      "3, 235": 3139,
      "3, 282": 3140,
      "3, 186": 3141,
      "inc": 3142,
      "117)) \n": 3143,
      "204)) \n": 3144,
      "205)) \n": 3145,
      "026)) \n": 3146,
      "amente', (": 3147,
      "475)) \n": 3148,
      ", 1545": 3149,
      "016)) \n": 3150,
      "014)) \n": 3151,
      "('gera": 3152,
      "155)) \n": 3153,
      "687)) \n": 3154,
      "639)) \n": 3155,
      "145)) \n": 3156,
      "242)) \n": 3157,
      "248)) \n": 3158,
      "046)) \n": 3159,
      "043)) \n": 3160,
      "048)) \n": 3161,
      "('No', (2": 3162,
      "266)) \n": 3163,
      "261)) \n": 3164,
      "('brand": 3165,
      "('.', (22": 3166,
      "592)) \n": 3167,
      "571)) \n": 3168,
      "437)) \n": 3169,
      "('-', (30": 3170,
      "174)) \n": 3171,
      "175)) \n": 3172,
      "534)) \n": 3173,
      "538)) \n": 3174,
      "299)) \n": 3175,
      "295)) \n": 3176,
      "('alevant": 3177,
      "('Ter": 3178,
      "('Tej": 3179,
      ", 2780": 3180,
      "283)) \n": 3181,
      "287)) \n": 3182,
      "288)) \n": 3183,
      "196)) \n": 3184,
      "191)) \n": 3185,
      "074)) \n": 3186,
      "('de', (10": 3187,
      "('horr": 3188,
      "('de', (30": 3189,
      "eza', (1": 3190,
      "('escond": 3191,
      "('faz', (2": 3192,
      "('só', (": 3193,
      "ept": 3194,
      "('tempo', (1": 3195,
      "('naus', (2": 3196,
      "17, ": 3197,
      "7, 5": 3198,
      "re": 3199,
      "ál": 3200,
      "éd": 3201,
      "3132": 3202,
      "31, 12": 3203,
      "3121": 3204,
      "350, 1": 3205,
      "92, 21": 3206,
      "76, 14": 3207,
      "94, 21": 3208,
      "o', (275": 3209,
      "e', (174": 3210,
      "('dir": 3211,
      "o', (61": 3212,
      "o', (41": 3213,
      "622)) \n": 3214,
      "421)) \n": 3215,
      "('são', (2": 3216,
      "('sem', (1": 3217,
      "('cast": 3218,
      "('pot": 3219,
      "a', (295": 3220,
      "a', (296": 3221,
      "a', (282": 3222,
      "a', (255": 3223,
      "('tamanh": 3224,
      ", 3042": 3225,
      "ano', (1": 3226,
      "(',', (286": 3227,
      "(',', (294": 3228,
      ", 1240": 3229,
      "(',', (170": 3230,
      "(',', (134": 3231,
      "(',', (136": 3232,
      "(',', (145": 3233,
      "a', (180": 3234,
      ", 1132": 3235,
      ", 2096": 3236,
      "('frac": 3237,
      "(',', (80": 3238,
      "(',', (81": 3239,
      "003)) \n": 3240,
      "002)) \n": 3241,
      "001)) \n": 3242,
      "121)) \n": 3243,
      "adas', (2": 3244,
      "3, 240": 3245,
      "3, 135": 3246,
      "3, 65": 3247,
      "985)) \n": 3248,
      "116)) \n": 3249,
      "209)) \n": 3250,
      "('Dos', (1": 3251,
      "029)) \n": 3252,
      "8, 275": 3253,
      ", 1536": 3254,
      "011)) \n": 3255,
      "210)) \n": 3256,
      "058)) \n": 3257,
      "256)) \n": 3258,
      "693)) \n": 3259,
      "142)) \n": 3260,
      "147)) \n": 3261,
      "241)) \n": 3262,
      "('Nept": 3263,
      "('que', (11": 3264,
      "067)) \n": 3265,
      "169)) \n": 3266,
      "eran": 3267,
      "('band": 3268,
      "587)) \n": 3269,
      "596)) \n": 3270,
      "594)) \n": 3271,
      "597)) \n": 3272,
      "436)) \n": 3273,
      "('o', (10": 3274,
      "('o', (22": 3275,
      "172)) \n": 3276,
      "170)) \n": 3277,
      "533)) \n": 3278,
      "('ali', (1": 3279,
      "('Tant": 3280,
      "093)) \n": 3281,
      "091)) \n": 3282,
      "190)) \n": 3283,
      "086)) \n": 3284,
      "080)) \n": 3285,
      "075)) \n": 3286,
      "eito', (2": 3287,
      "('hav": 3288,
      "ir', (2": 3289,
      "('Fort": 3290,
      "('todo', (1": 3291,
      "('todo', (2": 3292,
      "('toda', (": 3293,
      "('Gent": 3294,
      "('ver', (1": 3295,
      "('espant": 3296,
      "ulg": 3297,
      "ulp": 3298,
      "('ondas', (1": 3299,
      "('imig": 3300,
      "('obedec": 3301,
      "('aparelh": 3302,
      "('Neptun": 3303,
      "234": 3304,
      "barat": 3305,
      "ias', (2": 3306,
      "ura', (": 3307,
      "é', (2": 3308,
      "élic": 3309,
      "('emb": 3310,
      "30, 22": 3311,
      "3102": 3312,
      "809, ": 3313,
      "807, ": 3314,
      "802, 1": 3315,
      "95, 21": 3316,
      "35, 10": 3317,
      "72, 11": 3318,
      "859, ": 3319,
      "91, 11": 3320,
      "917, ": 3321,
      "923, 2": 3322,
      "('dam": 3323,
      "('dond": 3324,
      "ral": 3325,
      "410)) \n": 3326,
      "458)) \n": 3327,
      "('co', (1": 3328,
      "('cidad": 3329,
      "('caus": 3330,
      "('pud": 3331,
      "a', (235": 3332,
      "509)) \n": 3333,
      "89, 12": 3334,
      ", 3072": 3335,
      ", 3060": 3336,
      "(',', (234": 3337,
      "(',', (245": 3338,
      "(',', (260": 3339,
      "(',', (210": 3340,
      ", 2195": 3341,
      ", 2165": 3342,
      ", 2122": 3343,
      ", 1252": 3344,
      "(',', (175": 3345,
      "(',', (194": 3346,
      "(',', (152": 3347,
      "(',', (151": 3348,
      ", 1096": 3349,
      ", 1122": 3350,
      ", 2230": 3351,
      ", 2232": 3352,
      ", 2274": 3353,
      ", 2245": 3354,
      ", 2251": 3355,
      "556)) \n": 3356,
      "647)) \n": 3357,
      "645)) \n": 3358,
      "('fu": 3359,
      "('firm": 3360,
      "(',', (41": 3361,
      "(',', (51": 3362,
      "109)) \n": 3363,
      "229)) \n": 3364,
      "ei', (": 3365,
      "eiras', (2": 3366,
      "3, 236": 3367,
      "3, 145": 3368,
      "3, 95": 3369,
      "3, 90": 3370,
      "3, 81": 3371,
      "('Dos', (": 3372,
      "('louv": 3373,
      "023)) \n": 3374,
      "('Aquel": 3375,
      "674)) \n": 3376,
      "8, 285": 3377,
      "8, 271": 3378,
      ", 1596": 3379,
      ", 1535": 3380,
      ", 1574": 3381,
      "013)) \n": 3382,
      "015)) \n": 3383,
      "216)) \n": 3384,
      "213)) \n": 3385,
      "215)) \n": 3386,
      ", 2540": 3387,
      "('esqu": 3388,
      "055)) \n": 3389,
      "('Pera": 3390,
      "484)) \n": 3391,
      "485)) \n": 3392,
      "698)) \n": 3393,
      "691)) \n": 3394,
      "150)) \n": 3395,
      "149)) \n": 3396,
      "140)) \n": 3397,
      "antes', (2": 3398,
      "049)) \n": 3399,
      "040)) \n": 3400,
      "041)) \n": 3401,
      ", 2636": 3402,
      "064)) \n": 3403,
      "069)) \n": 3404,
      "061)) \n": 3405,
      "im', (2": 3406,
      "('Su": 3407,
      "579)) \n": 3408,
      "573)) \n": 3409,
      "577)) \n": 3410,
      "578)) \n": 3411,
      "570)) \n": 3412,
      "439)) \n": 3413,
      "('está', (": 3414,
      "('a', (22": 3415,
      "176)) \n": 3416,
      "532)) \n": 3417,
      "278)) \n": 3418,
      "271)) \n": 3419,
      "('alh": 3420,
      "('Tr": 3421,
      "('Tra": 3422,
      "097)) \n": 3423,
      "('destr": 3424,
      "183)) \n": 3425,
      "182)) \n": 3426,
      "198)) \n": 3427,
      "087)) \n": 3428,
      "088)) \n": 3429,
      "073)) \n": 3430,
      "('próp": 3431,
      "('«', (10": 3432,
      "('amig": 3433,
      "('Ind": 3434,
      "('toda', (1": 3435,
      "('foi', (2": 3436,
      "('ser', (": 3437,
      "('à', (": 3438,
      "('entend": 3439,
      "('ele', (1": 3440,
      "('assent": 3441,
      "('»', (2": 3442,
      "('falt": 3443,
      "('obrig": 3444,
      "('nome', (1": 3445,
      "sper": 3446,
      "('Onde', (": 3447,
      "('tudo', (": 3448,
      "('logo', (1": 3449,
      "('Capitão', (2": 3450,
      "('Afonso', (": 3451,
      "431)) \n": 3452,
      "593": 3453,
      "693": 3454,
      ", 47": 3455,
      "('ân": 3456,
      "308, ": 3457,
      "319, ": 3458,
      "70, 30": 3459,
      "321, 2": 3460,
      "963, 1": 3461,
      "859, 1": 3462,
      "75, 30": 3463,
      "909, 2": 3464,
      "osos', (1": 3465,
      "81, 10": 3466,
      "816, 1": 3467,
      "94, 20": 3468,
      "944, ": 3469,
      "82, 11": 3470,
      "824, 2": 3471,
      "('d', (1": 3472,
      "esc": 3473,
      "('son": 3474,
      "('sem', (": 3475,
      "('sol": 3476,
      "87, 25": 3477,
      "('tu": 3478,
      "('tem', (1": 3479,
      ", 3080": 3480,
      ", 3032": 3481,
      ", 3071": 3482,
      ", 3084": 3483,
      ", 3040": 3484,
      "(',', (274": 3485,
      "(',', (271": 3486,
      "(',', (282": 3487,
      "(',', (265": 3488,
      "(',', (262": 3489,
      ", 2132": 3490,
      ", 2174": 3491,
      ", 2151": 3492,
      ", 1251": 3493,
      "(',', (190": 3494,
      "(',', (122": 3495,
      "ores', (": 3496,
      "a', (122": 3497,
      ", 1090": 3498,
      ", 1092": 3499,
      ", 1062": 3500,
      ", 1135": 3501,
      ", 1136": 3502,
      ", 1150": 3503,
      ", 2092": 3504,
      ", 2051": 3505,
      ", 2292": 3506,
      ", 2200": 3507,
      "a', (35": 3508,
      "('mas', (1": 3509,
      "('merec": 3510,
      "553)) \n": 3511,
      "(',', (86": 3512,
      "(',', (84": 3513,
      "(',', (45": 3514,
      "('vão', (1": 3515,
      "('vão', (": 3516,
      "129)) \n": 3517,
      "3, 286": 3518,
      "3, 294": 3519,
      "548)) \n": 3520,
      "entes', (1": 3521,
      "3, 70": 3522,
      "3, 61": 3523,
      "('Da', (2": 3524,
      "amente', (1": 3525,
      ", 1581": 3526,
      ", 1540": 3527,
      "010)) \n": 3528,
      "212)) \n": 3529,
      "217)) \n": 3530,
      "alt": 3531,
      "', (302": 3532,
      "oub": 3533,
      ", 2580": 3534,
      "059)) \n": 3535,
      "053)) \n": 3536,
      "254)) \n": 3537,
      "252)) \n": 3538,
      "498)) \n": 3539,
      "156)) \n": 3540,
      "153)) \n": 3541,
      "usp": 3542,
      "as', (22": 3543,
      "141)) \n": 3544,
      ", 2645": 3545,
      "('rod": 3546,
      "068)) \n": 3547,
      "('bar": 3548,
      "583)) \n": 3549,
      "576)) \n": 3550,
      "297)) \n": 3551,
      "276)) \n": 3552,
      "185)) \n": 3553,
      "289)) \n": 3554,
      "089)) \n": 3555,
      "070)) \n": 3556,
      "('Rom": 3557,
      ", 1774": 3558,
      ", 1785": 3559,
      ", 1385": 3560,
      "ign": 3561,
      "ão', (30": 3562,
      "eito', (": 3563,
      "('terr": 3564,
      "ir', (": 3565,
      "eza', (": 3566,
      "('Gu": 3567,
      "('trat": 3568,
      "obre', (2": 3569,
      "indo', (1": 3570,
      "('só', (1": 3571,
      "('assi', (1": 3572,
      "('Alg": 3573,
      "('?', (2": 3574,
      "(')', (": 3575,
      "('seus', (": 3576,
      "('segur": 3577,
      "('cuid": 3578,
      "('também', (1": 3579,
      "ensament": 3580,
      "('irad": 3581,
      "('cabeç": 3582,
      "('vitóri": 3583,
      "('brut": 3584,
      "('determ": 3585,
      "('resist": 3586,
      "('orden": 3587,
      "('própri": 3588,
      "039)) \n": 3589,
      "136)) \n": 3590,
      "139)) \n": 3591,
      "3, 220": 3592,
      "aqu": 3593,
      "ara', (": 3594,
      "io', (": 3595,
      "i', (30": 3596,
      "lt": 3597,
      "vent": 3598,
      "ões', (": 3599,
      ", 167": 3600,
      ", 288": 3601,
      ", 267": 3602,
      "80, 20": 3603,
      "809, 1": 3604,
      "70, 22": 3605,
      "32, 11": 3606,
      "323, 2": 3607,
      "329, 2": 3608,
      "855, 2": 3609,
      "75, 20": 3610,
      "90, 10": 3611,
      "86, 21": 3612,
      "924, 1": 3613,
      "761, 2": 3614,
      "941, 2": 3615,
      "344, 1": 3616,
      "362, 2": 3617,
      "82, 20": 3618,
      "o', (290": 3619,
      "o', (80": 3620,
      "o', (92": 3621,
      "o', (76": 3622,
      "o', (45": 3623,
      "rant": 3624,
      "ram', (2": 3625,
      "e', (40": 3626,
      "('pol": 3627,
      "('pensament": 3628,
      "513)) \n": 3629,
      "a', (280": 3630,
      "37, 12": 3631,
      "erv": 3632,
      "('tenh": 3633,
      "('qual": 3634,
      ", 3086": 3635,
      ", 3076": 3636,
      ", 3022": 3637,
      "(',', (211": 3638,
      "(',', (221": 3639,
      ", 2135": 3640,
      ", 2145": 3641,
      ", 2152": 3642,
      ", 1286": 3643,
      ", 1276": 3644,
      ", 1294": 3645,
      ", 1250": 3646,
      "(',', (172": 3647,
      "(',', (165": 3648,
      "(',', (141": 3649,
      "(',', (160": 3650,
      "(',', (150": 3651,
      "(',', (120": 3652,
      ", 1080": 3653,
      ", 1034": 3654,
      ", 1082": 3655,
      ", 1045": 3656,
      ", 1172": 3657,
      ", 1175": 3658,
      ", 2074": 3659,
      ", 2094": 3660,
      ", 2062": 3661,
      ", 2296": 3662,
      ", 2272": 3663,
      "442)) \n": 3664,
      "('mod": 3665,
      "('met": 3666,
      "88, 11": 3667,
      "emos', (1": 3668,
      "('nasc": 3669,
      "('fug": 3670,
      "(',', (70": 3671,
      "(',', (32": 3672,
      "(',', (96": 3673,
      "(',', (82": 3674,
      "226)) \n": 3675,
      "eis', (1": 3676,
      "3, 234": 3677,
      "3, 262": 3678,
      "3, 190": 3679,
      "3, 136": 3680,
      "3, 160": 3681,
      "3, 150": 3682,
      "3, 75": 3683,
      "114)) \n": 3684,
      "201)) \n": 3685,
      "onc": 3686,
      "022)) \n": 3687,
      "amos', (1": 3688,
      "9, 40": 3689,
      "8, 296": 3690,
      ", 1585": 3691,
      ", 1590": 3692,
      ", 1571": 3693,
      ", 1584": 3694,
      ", 1594": 3695,
      "214)) \n": 3696,
      "219)) \n": 3697,
      "211)) \n": 3698,
      "('Cu": 3699,
      "('Cal": 3700,
      "9, 135": 3701,
      "8, 190": 3702,
      ", 580": 3703,
      "('Nest": 3704,
      ", 2635": 3705,
      "('e', (20": 3706,
      "268)) \n": 3707,
      "167)) \n": 3708,
      "168)) \n": 3709,
      "eram', (2": 3710,
      "593)) \n": 3711,
      "433)) \n": 3712,
      "ilot": 3713,
      "('estim": 3714,
      "('o', (12": 3715,
      "173)) \n": 3716,
      "272)) \n": 3717,
      "('Torn": 3718,
      "096)) \n": 3719,
      "095)) \n": 3720,
      ", 2774": 3721,
      ", 2975": 3722,
      ", 2936": 3723,
      "199)) \n": 3724,
      "078)) \n": 3725,
      "071)) \n": 3726,
      ", 1782": 3727,
      ", 1395": 3728,
      "('de', (11": 3729,
      "ir', (1": 3730,
      "overn": 3731,
      "('Como', (1": 3732,
      "('ser', (1": 3733,
      "('seren": 3734,
      "('acab": 3735,
      "ois', (2": 3736,
      "undo', (": 3737,
      "('pelej": 3738,
      "('assi', (2": 3739,
      "('assi', (": 3740,
      "('guard": 3741,
      "('tempo', (2": 3742,
      "('Céu', (": 3743,
      "('sempre', (": 3744,
      "('Gama', (2": 3745,
      "('Oce": 3746,
      "092": 3747,
      "138)) \n": 3748,
      "237)) \n": 3749,
      "631)) \n": 3750,
      "ara', (1": 3751,
      "iet": 3752,
      "iam', (": 3753,
      "íb": 3754,
      "íg": 3755,
      ", 88": 3756,
      ", 33": 3757,
      ", 69": 3758,
      "('’": 3759,
      "('eu', (1": 3760,
      "3130": 3761,
      "311, 1": 3762,
      "80, 11": 3763,
      "807, 2": 3764,
      "951, 1": 3765,
      "952, ": 3766,
      "704, 1": 3767,
      "32, 21": 3768,
      "322, 1": 3769,
      "967, ": 3770,
      "72, 30": 3771,
      "729, 2": 3772,
      "74, 21": 3773,
      "740, 1": 3774,
      "742, 1": 3775,
      "85, 22": 3776,
      "859, 2": 3777,
      "852, ": 3778,
      "755, 1": 3779,
      "901, 2": 3780,
      "osas', (2": 3781,
      "818, 1": 3782,
      "710, 2": 3783,
      "869, ": 3784,
      "864, ": 3785,
      "862, ": 3786,
      "769, 2": 3787,
      "766, 1": 3788,
      "84, 12": 3789,
      "948, ": 3790,
      "944, 1": 3791,
      "342, 1": 3792,
      "82, 12": 3793,
      "o', (131": 3794,
      "o', (175": 3795,
      "o', (190": 3796,
      "o', (151": 3797,
      "o', (100": 3798,
      "o', (212": 3799,
      "('dis": 3800,
      "('dil": 3801,
      "('do', (30": 3802,
      "o', (75": 3803,
      "o', (90": 3804,
      "o', (44": 3805,
      "('sum": 3806,
      "('susp": 3807,
      "a', (245": 3808,
      "a', (262": 3809,
      "('ten": 3810,
      ", 3085": 3811,
      "(',', (281": 3812,
      "(',', (252": 3813,
      "(',', (220": 3814,
      ", 2191": 3815,
      ", 1234": 3816,
      ", 1236": 3817,
      ", 1282": 3818,
      ", 1200": 3819,
      "(',', (155": 3820,
      "(',', (102": 3821,
      "a', (196": 3822,
      "a', (152": 3823,
      ", 1032": 3824,
      ", 1091": 3825,
      ", 1076": 3826,
      ", 1036": 3827,
      ", 1041": 3828,
      ", 1171": 3829,
      ", 1184": 3830,
      ", 1142": 3831,
      ", 2090": 3832,
      ", 2034": 3833,
      ", 2065": 3834,
      ", 2022": 3835,
      ", 2295": 3836,
      ", 2271": 3837,
      ", 2234": 3838,
      "a', (94": 3839,
      "a', (36": 3840,
      "a', (45": 3841,
      "('mil', (2": 3842,
      "('nem', (1": 3843,
      "('fi": 3844,
      "(',', (76": 3845,
      "(',', (34": 3846,
      "(',', (61": 3847,
      "(',', (56": 3848,
      "('vã": 3849,
      "222)) \n": 3850,
      "ei', (2": 3851,
      "564)) \n": 3852,
      "adas', (": 3853,
      "3, 295": 3854,
      "3, 274": 3855,
      "3, 290": 3856,
      "3, 261": 3857,
      "3, 185": 3858,
      "3, 176": 3859,
      "3, 184": 3860,
      "3, 161": 3861,
      "3, 152": 3862,
      "3, 36": 3863,
      "3, 45": 3864,
      "3, 50": 3865,
      "8, 286": 3866,
      ", 1570": 3867,
      ", 1586": 3868,
      ", 1592": 3869,
      ", 1561": 3870,
      ", 1560": 3871,
      "218)) \n": 3872,
      "9, 130": 3873,
      "9, 174": 3874,
      "9, 165": 3875,
      "out": 3876,
      ", 2586": 3877,
      ", 2552": 3878,
      ", 590": 3879,
      ", 565": 3880,
      "as', (162": 3881,
      "253)) \n": 3882,
      "7, 140": 3883,
      "152)) \n": 3884,
      "158)) \n": 3885,
      "('Mand": 3886,
      "146)) \n": 3887,
      ", 1470": 3888,
      "eram', (": 3889,
      "586)) \n": 3890,
      "('Só": 3891,
      "il', (1": 3892,
      "('esta', (1": 3893,
      "293)) \n": 3894,
      "298)) \n": 3895,
      ", 2732": 3896,
      ", 2785": 3897,
      ", 2786": 3898,
      ", 2734": 3899,
      ", 2930": 3900,
      "180)) \n": 3901,
      ", 974": 3902,
      ", 1984": 3903,
      "('terras', (1": 3904,
      "('hom": 3905,
      "a', (302": 3906,
      "rando', (2": 3907,
      "('grandes', (1": 3908,
      "('ser', (2": 3909,
      "undo', (2": 3910,
      "('forte', (1": 3911,
      "('Deuses', (1": 3912,
      "('crist": 3913,
      "('mundo', (2": 3914,
      "(\"'\", (1": 3915,
      "('soberan": 3916,
      "('Onde', (2": 3917,
      "('avent": 3918,
      "('aqui', (1": 3919,
      "('vós', (1": 3920,
      "('respond": 3921,
      "('remot": 3922,
      "('pátri": 3923,
      "('Castelh": 3924,
      "065": 3925,
      "573": 3926,
      "683": 3927,
      "iênci": 3928,
      "ox": 3929,
      ", 98": 3930,
      "('igu": 3931,
      ", 169": 3932,
      ", 297": 3933,
      "304, 1": 3934,
      "305, 2": 3935,
      "3101": 3936,
      "800, 2": 3937,
      "959, 1": 3938,
      "70, 11": 3939,
      "324, ": 3940,
      "728, ": 3941,
      "856, ": 3942,
      "751, 2": 3943,
      "750, 1": 3944,
      "906, 1": 3945,
      "919, ": 3946,
      "918, 1": 3947,
      "916, 1": 3948,
      "916, 2": 3949,
      "819, ": 3950,
      "816, ": 3951,
      "866, ": 3952,
      "865, 2": 3953,
      "865, 1": 3954,
      "928, ": 3955,
      "925, 2": 3956,
      "922, 1": 3957,
      "765, 2": 3958,
      "846, ": 3959,
      "347, 2": 3960,
      "360, 1": 3961,
      "361, ": 3962,
      "365, 1": 3963,
      "827, 1": 3964,
      "825, 1": 3965,
      "o', (155": 3966,
      "o', (102": 3967,
      "('sof": 3968,
      "('sáb": 3969,
      "('cos', (2": 3970,
      "('pera": 3971,
      "('paz": 3972,
      "a', (294": 3973,
      "893, 2": 3974,
      "897, ": 3975,
      "878, ": 3976,
      "399, ": 3977,
      "('tev": 3978,
      "('tiv": 3979,
      ", 3030": 3980,
      ", 3096": 3981,
      ", 3090": 3982,
      ", 3081": 3983,
      ", 3082": 3984,
      ", 3052": 3985,
      ", 3000": 3986,
      "ang": 3987,
      "(',', (230": 3988,
      "(',', (231": 3989,
      "(',', (292": 3990,
      "(',', (255": 3991,
      "(',', (200": 3992,
      ", 2130": 3993,
      ", 2196": 3994,
      ", 2175": 3995,
      ", 2186": 3996,
      ", 2141": 3997,
      ", 2142": 3998,
      ", 2110": 3999,
      ", 1235": 4000,
      ", 1274": 4001,
      ", 1275": 4002,
      ", 1290": 4003,
      ", 1292": 4004,
      ", 1241": 4005,
      ", 1262": 4006,
      "(',', (195": 4007,
      "(',', (132": 4008,
      "(',', (185": 4009,
      "(',', (184": 4010,
      "(',', (144": 4011,
      "(',', (101": 4012,
      "a', (172": 4013,
      "a', (142": 4014,
      ", 1030": 4015,
      ", 1095": 4016,
      ", 1070": 4017,
      ", 1074": 4018,
      ", 1075": 4019,
      ", 1086": 4020,
      ", 1042": 4021,
      ", 1051": 4022,
      ", 1050": 4023,
      ", 1010": 4024,
      ", 1022": 4025,
      ", 1170": 4026,
      ", 2032": 4027,
      ", 2091": 4028,
      ", 2086": 4029,
      ", 2082": 4030,
      ", 2061": 4031,
      ", 2042": 4032,
      ", 2052": 4033,
      ", 2291": 4034,
      ", 2276": 4035,
      ", 2284": 4036,
      ", 2240": 4037,
      ", 2261": 4038,
      ", 2265": 4039,
      ", 2241": 4040,
      ", 2242": 4041,
      ", 2210": 4042,
      ", 2212": 4043,
      "a', (41": 4044,
      "('me', (": 4045,
      "('milh": 4046,
      "('na": 4047,
      "('natu": 4048,
      "('foss": 4049,
      "('fiz": 4050,
      "(',', (62": 4051,
      "(',', (42": 4052,
      "(',', (312": 4053,
      "('ving": 4054,
      "223)) \n": 4055,
      "ade', (": 4056,
      "3, 231": 4057,
      "3, 285": 4058,
      "3, 291": 4059,
      "3, 265": 4060,
      "3, 196": 4061,
      "3, 172": 4062,
      "3, 192": 4063,
      "3, 96": 4064,
      "3, 76": 4065,
      "3, 34": 4066,
      "3, 60": 4067,
      "3, 62": 4068,
      "3, 52": 4069,
      "os', (192": 4070,
      "112)) \n": 4071,
      "110)) \n": 4072,
      "os', (202": 4073,
      "('lim": 4074,
      "020)) \n": 4075,
      "8, 270": 4076,
      "8, 290": 4077,
      "8, 281": 4078,
      "8, 234": 4079,
      ", 1595": 4080,
      ", 1576": 4081,
      ", 1582": 4082,
      ", 1565": 4083,
      ", 1550": 4084,
      "019)) \n": 4085,
      "9, 235": 4086,
      "('Quant": 4087,
      ", 2570": 4088,
      ", 2551": 4089,
      ", 570": 4090,
      ", 571": 4091,
      ", 592": 4092,
      "('grit": 4093,
      "7, 76": 4094,
      "052)) \n": 4095,
      "257)) \n": 4096,
      "('Per": 4097,
      "7, 260": 4098,
      "7, 196": 4099,
      "('Mu": 4100,
      "('Mal": 4101,
      "143)) \n": 4102,
      "042)) \n": 4103,
      ", 2491": 4104,
      ", 2484": 4105,
      ", 2676": 4106,
      ", 2634": 4107,
      ", 2640": 4108,
      ", 2660": 4109,
      ", 472": 4110,
      ", 490": 4111,
      "264)) \n": 4112,
      "('rel": 4113,
      ", 1696": 4114,
      ", 1685": 4115,
      ", 1691": 4116,
      ", 1694": 4117,
      ", 1660": 4118,
      "161)) \n": 4119,
      ", 681": 4120,
      ", 686": 4121,
      "581)) \n": 4122,
      "572)) \n": 4123,
      "ece', (1": 4124,
      "('estão', (2": 4125,
      "178)) \n": 4126,
      "099)) \n": 4127,
      ", 2770": 4128,
      ", 2796": 4129,
      ", 2995": 4130,
      ", 2991": 4131,
      ", 2986": 4132,
      "184)) \n": 4133,
      "192)) \n": 4134,
      "tro', (1": 4135,
      ", 930": 4136,
      ", 990": 4137,
      ", 1986": 4138,
      ", 1396": 4139,
      ", 1372": 4140,
      ", 2390": 4141,
      ", 2394": 4142,
      ", 882": 4143,
      ", 2871": 4144,
      ", 1890": 4145,
      "('de', (21": 4146,
      "('Ver": 4147,
      "(';', (22": 4148,
      "('suc": 4149,
      "3, 302": 4150,
      "esse', (2": 4151,
      "('parte', (2": 4152,
      "('Deus', (2": 4153,
      "('armas', (1": 4154,
      "('fama', (": 4155,
      "('Mouros', (": 4156,
      "('engenh": 4157,
      "('sempre', (2": 4158,
      "('venced": 4159,
      "('enfim', (1": 4160,
      "('vós', (": 4161,
      "('virt": 4162,
      "ific": 4163,
      "('Estr": 4164,
      "ágrim": 4165,
      "('cobiç": 4166,
      "076": 4167,
      "094": 4168,
      "190": 4169,
      "137)) \n": 4170,
      "234)) \n": 4171,
      "239)) \n": 4172,
      "5, 24": 4173,
      "nç": 4174,
      "oa', (": 4175,
      "pit": 4176,
      "ês', (2": 4177,
      "úm": 4178,
      ", 97": 4179,
      "('[": 4180,
      "(']": 4181,
      ", 178": 4182,
      ", 149": 4183,
      "306, ": 4184,
      "318, ": 4185,
      "314, 1": 4186,
      "312, 2": 4187,
      "312, ": 4188,
      "801, ": 4189,
      "802, 2": 4190,
      "954, 2": 4191,
      "952, 2": 4192,
      "707, 2": 4193,
      "702, 2": 4194,
      "328, ": 4195,
      "326, ": 4196,
      "322, ": 4197,
      "969, 1": 4198,
      "964, ": 4199,
      "359, ": 4200,
      "358, ": 4201,
      "359, 2": 4202,
      "355, 2": 4203,
      "352, 2": 4204,
      "352, ": 4205,
      "728, 1": 4206,
      "727, 2": 4207,
      "722, ": 4208,
      "749, ": 4209,
      "749, 1": 4210,
      "850, 2": 4211,
      "758, ": 4212,
      "759, 2": 4213,
      "905, 2": 4214,
      "914, 2": 4215,
      "910, ": 4216,
      "osa', (1": 4217,
      "818, ": 4218,
      "811, ": 4219,
      "810, 2": 4220,
      "714, 2": 4221,
      "92, 11": 4222,
      "929, ": 4223,
      "929, 2": 4224,
      "925, ": 4225,
      "769, ": 4226,
      "844, ": 4227,
      "842, ": 4228,
      "944, 2": 4229,
      "346, ": 4230,
      "369, 1": 4231,
      "365, ": 4232,
      "364, 2": 4233,
      "824, 1": 4234,
      "('aos', (2": 4235,
      "o', (135": 4236,
      "('dit": 4237,
      "o', (94": 4238,
      "o', (51": 4239,
      "enc": 4240,
      "('cri": 4241,
      "a', (265": 4242,
      "a', (260": 4243,
      "378, ": 4244,
      "('toc": 4245,
      "('tu', (2": 4246,
      ", 3070": 4247,
      ", 3075": 4248,
      ", 3094": 4249,
      ", 3034": 4250,
      ", 3061": 4251,
      ", 3012": 4252,
      ", 3020": 4253,
      "(',', (296": 4254,
      "(',', (275": 4255,
      "(',', (240": 4256,
      "(',', (241": 4257,
      ", 2181": 4258,
      ", 2171": 4259,
      ", 2192": 4260,
      ", 2182": 4261,
      ", 2161": 4262,
      ", 2160": 4263,
      ", 1296": 4264,
      ", 1260": 4265,
      "(',', (130": 4266,
      "(',', (196": 4267,
      "(',', (174": 4268,
      "(',', (171": 4269,
      "(',', (100": 4270,
      "(',', (112": 4271,
      ", 1035": 4272,
      ", 1040": 4273,
      ", 1065": 4274,
      ", 1060": 4275,
      ", 1052": 4276,
      ", 1196": 4277,
      ", 1174": 4278,
      ", 1185": 4279,
      ", 1181": 4280,
      ", 1186": 4281,
      ", 1176": 4282,
      ", 1194": 4283,
      ", 1165": 4284,
      ", 2080": 4285,
      ", 2095": 4286,
      ", 2072": 4287,
      ", 2075": 4288,
      ", 2081": 4289,
      ", 2060": 4290,
      ", 2275": 4291,
      ", 2286": 4292,
      ", 2260": 4293,
      ", 2252": 4294,
      "a', (92": 4295,
      "('moç": 4296,
      "em', (30": 4297,
      "('no": 4298,
      "('nos', (": 4299,
      "('nós', (1": 4300,
      "('far": 4301,
      "(',', (91": 4302,
      "(',', (71": 4303,
      "(',', (94": 4304,
      "(',', (60": 4305,
      "('vont": 4306,
      "468, ": 4307,
      "ade', (1": 4308,
      "3, 284": 4309,
      "3, 180": 4310,
      "3, 191": 4311,
      "3, 165": 4312,
      "3, 142": 4313,
      "3, 35": 4314,
      "3, 72": 4315,
      "3, 86": 4316,
      "3, 92": 4317,
      "3, 40": 4318,
      "202)) \n": 4319,
      "('lá', (2": 4320,
      "('lá', (1": 4321,
      "('An": 4322,
      "8, 295": 4323,
      "8, 265": 4324,
      "8, 260": 4325,
      ", 1532": 4326,
      ", 1575": 4327,
      ", 1591": 4328,
      ", 1534": 4329,
      ", 1551": 4330,
      "('Quando', (1": 4331,
      "8, 175": 4332,
      "8, 142": 4333,
      ", 2595": 4334,
      ", 2592": 4335,
      ", 2584": 4336,
      ", 2561": 4337,
      ", 2541": 4338,
      ", 595": 4339,
      ", 532": 4340,
      ", 585": 4341,
      ", 591": 4342,
      ", 536": 4343,
      ", 582": 4344,
      ", 540": 4345,
      ", 551": 4346,
      "056)) \n": 4347,
      "250)) \n": 4348,
      "idas', (2": 4349,
      "os', (42": 4350,
      "7, 180": 4351,
      "7, 141": 4352,
      "us', (2": 4353,
      "('Most": 4354,
      "249)) \n": 4355,
      ", 1486": 4356,
      ", 2480": 4357,
      ", 2470": 4358,
      ", 2432": 4359,
      ", 2496": 4360,
      ", 2490": 4361,
      ", 2482": 4362,
      "('Nem', (2": 4363,
      ", 2672": 4364,
      ", 2674": 4365,
      ", 2692": 4366,
      ", 2641": 4367,
      ", 2642": 4368,
      "('rud": 4369,
      ", 1695": 4370,
      ", 1675": 4371,
      ", 1681": 4372,
      ", 1692": 4373,
      ", 695": 4374,
      ", 696": 4375,
      ", 635": 4376,
      "um', (": 4377,
      "('estend": 4378,
      "274)) \n": 4379,
      "('alv": 4380,
      ", 2735": 4381,
      ", 2772": 4382,
      ", 2794": 4383,
      ", 2985": 4384,
      ", 2981": 4385,
      ", 2992": 4386,
      "286)) \n": 4387,
      "284)) \n": 4388,
      "193)) \n": 4389,
      "195)) \n": 4390,
      "082)) \n": 4391,
      "072)) \n": 4392,
      ", 932": 4393,
      ", 971": 4394,
      ", 986": 4395,
      ", 992": 4396,
      ", 976": 4397,
      ", 1730": 4398,
      ", 1795": 4399,
      ", 1776": 4400,
      ", 1784": 4401,
      ", 1981": 4402,
      ", 1391": 4403,
      ", 1336": 4404,
      ", 2330": 4405,
      ", 2391": 4406,
      ", 2381": 4407,
      ", 2386": 4408,
      ", 2336": 4409,
      ", 872": 4410,
      ", 891": 4411,
      ", 836": 4412,
      ", 2885": 4413,
      ", 2884": 4414,
      ", 2836": 4415,
      "('inj": 4416,
      ", 1832": 4417,
      ", 375": 4418,
      ", 390": 4419,
      ", 334": 4420,
      "('terras', (": 4421,
      "('Vi": 4422,
      "('se', (10": 4423,
      "('gentes', (1": 4424,
      "('Ist": 4425,
      "('acend": 4426,
      "3, 300": 4427,
      "('apart": 4428,
      "('aparec": 4429,
      "('Bac": 4430,
      "('contra', (1": 4431,
      "('parte', (": 4432,
      "('poder', (": 4433,
      "riment": 4434,
      "('(', (2": 4435,
      "('águas', (": 4436,
      "('outros', (1": 4437,
      "('deleit": 4438,
      "('vêm', (1": 4439,
      "('nome', (": 4440,
      "('guerra', (1": 4441,
      "('conselh": 4442,
      "('quanto', (2": 4443,
      "('vai', (": 4444,
      "('Afric": 4445,
      "('Lhe', (2": 4446,
      "uíd": 4447,
      "('defend": 4448,
      "('Castel": 4449,
      "('ousad": 4450,
      "040": 4451,
      "037)) \n": 4452,
      "134": 4453,
      "152": 4454,
      "135)) \n": 4455,
      "493": 4456,
      "ias', (1": 4457,
      "reg": 4458,
      "red": 4459,
      "('ist": 4460,
      "('ilh": 4461,
      "('op": 4462,
      ", 138": 4463,
      ", 197": 4464,
      ", 198": 4465,
      ", 147": 4466,
      ", 193": 4467,
      ", 233": 4468,
      ", 298": 4469,
      ", 247": 4470,
      "307, 2": 4471,
      "301, 1": 4472,
      "316, 1": 4473,
      "316, ": 4474,
      "31, 4": 4475,
      "959, 2": 4476,
      "708, ": 4477,
      "327, ": 4478,
      "320, 1": 4479,
      "969, 2": 4480,
      "964, 1": 4481,
      "960, 2": 4482,
      "350, 2": 4483,
      "729, ": 4484,
      "726, 1": 4485,
      "721, 1": 4486,
      "748, ": 4487,
      "746, 2": 4488,
      "745, 1": 4489,
      "857, 1": 4490,
      "751, ": 4491,
      "751, 1": 4492,
      "750, ": 4493,
      "919, 2": 4494,
      "912, 2": 4495,
      "912, ": 4496,
      "osas', (1": 4497,
      "osos', (": 4498,
      "719, ": 4499,
      "717, 1": 4500,
      "715, 2": 4501,
      "711, ": 4502,
      "711, 1": 4503,
      "864, 2": 4504,
      "921, ": 4505,
      "762, ": 4506,
      "760, ": 4507,
      "846, 2": 4508,
      "840, 1": 4509,
      "841, 1": 4510,
      "94, 12": 4511,
      "949, ": 4512,
      "940, 1": 4513,
      "942, 1": 4514,
      "36, 21": 4515,
      "369, ": 4516,
      "368, ": 4517,
      "367, ": 4518,
      "365, 2": 4519,
      "829, ": 4520,
      "822, ": 4521,
      "o', (130": 4522,
      "o', (180": 4523,
      "o', (170": 4524,
      "o', (196": 4525,
      "e', (241": 4526,
      "o', (232": 4527,
      "o', (200": 4528,
      "('dar', (2": 4529,
      "o', (32": 4530,
      "o', (36": 4531,
      "o', (42": 4532,
      "quant": 4533,
      "('sonh": 4534,
      "('pur": 4535,
      "('pert": 4536,
      "('pilot": 4537,
      "a', (290": 4538,
      "a', (281": 4539,
      "a', (240": 4540,
      "899, ": 4541,
      "899, 2": 4542,
      "89, 4": 4543,
      "397, 2": 4544,
      "('te', (1": 4545,
      "('tor": 4546,
      "('tem', (": 4547,
      "('quis": 4548,
      "('quando', (1": 4549,
      "('qual', (1": 4550,
      "('quás": 4551,
      ", 3092": 4552,
      ", 3036": 4553,
      ", 3041": 4554,
      ", 3045": 4555,
      ", 3051": 4556,
      ", 3050": 4557,
      ", 3010": 4558,
      ", 3021": 4559,
      "(',', (232": 4560,
      "(',', (235": 4561,
      "(',', (251": 4562,
      "(',', (266": 4563,
      "(',', (212": 4564,
      ", 2180": 4565,
      ", 2176": 4566,
      ", 2184": 4567,
      ", 1230": 4568,
      ", 1295": 4569,
      ", 1291": 4570,
      ", 1281": 4571,
      ", 1271": 4572,
      "(',', (131": 4573,
      "(',', (191": 4574,
      "(',', (181": 4575,
      "(',', (186": 4576,
      "(',', (192": 4577,
      "(',', (121": 4578,
      "a', (130": 4579,
      "a', (186": 4580,
      "a', (192": 4581,
      "a', (194": 4582,
      "a', (165": 4583,
      ", 1072": 4584,
      ", 1081": 4585,
      ", 1180": 4586,
      ", 1191": 4587,
      ", 1192": 4588,
      ", 1182": 4589,
      ", 1140": 4590,
      ", 1161": 4591,
      ", 1145": 4592,
      ", 1160": 4593,
      ", 1155": 4594,
      ", 2085": 4595,
      ", 2040": 4596,
      ", 2045": 4597,
      ", 2050": 4598,
      ", 2010": 4599,
      ", 2012": 4600,
      ", 2280": 4601,
      ", 2285": 4602,
      ", 2290": 4603,
      ", 2282": 4604,
      "446, 2": 4605,
      "a', (80": 4606,
      "a', (70": 4607,
      "a', (90": 4608,
      "a', (62": 4609,
      "('mant": 4610,
      "('meus": 4611,
      "('mud": 4612,
      "('mai": 4613,
      "999, ": 4614,
      "('nas', (2": 4615,
      "('naç": 4616,
      "('fin": 4617,
      "(',', (75": 4618,
      "(',', (310": 4619,
      "('vest": 4620,
      "ares', (2": 4621,
      "eio', (2": 4622,
      "eias', (1": 4623,
      "ada', (30": 4624,
      "ado', (21": 4625,
      "3, 270": 4626,
      "3, 281": 4627,
      "3, 271": 4628,
      "3, 292": 4629,
      "3, 260": 4630,
      "3, 132": 4631,
      "3, 174": 4632,
      "3, 175": 4633,
      "3, 182": 4634,
      "ente', (30": 4635,
      "3, 42": 4636,
      "3, 310": 4637,
      "203)) \n": 4638,
      "os', (284": 4639,
      "('Das', (2": 4640,
      "('Deix": 4641,
      "('liv": 4642,
      "8, 230": 4643,
      "8, 245": 4644,
      "8, 250": 4645,
      ", 1580": 4646,
      ", 1572": 4647,
      ", 1541": 4648,
      ", 1542": 4649,
      "('Et": 4650,
      "('Ent": 4651,
      "9, 175": 4652,
      "9, 186": 4653,
      "9, 161": 4654,
      "9, 160": 4655,
      "9, 155": 4656,
      "8, 130": 4657,
      "8, 131": 4658,
      "8, 172": 4659,
      "8, 191": 4660,
      ", 2530": 4661,
      ", 2535": 4662,
      ", 2575": 4663,
      ", 2591": 4664,
      ", 2536": 4665,
      ", 2582": 4666,
      ", 2560": 4667,
      ", 574": 4668,
      ", 584": 4669,
      ", 542": 4670,
      ", 552": 4671,
      "('govern": 4672,
      "7, 291": 4673,
      "151)) \n": 4674,
      "us', (1": 4675,
      "('Mel": 4676,
      "('«', (21": 4677,
      ", 1431": 4678,
      ", 1495": 4679,
      ", 1484": 4680,
      ", 1440": 4681,
      ", 1462": 4682,
      ", 2474": 4683,
      ", 2465": 4684,
      ", 2665": 4685,
      "063)) \n": 4686,
      ", 1686": 4687,
      ", 1645": 4688,
      "165)) \n": 4689,
      "erad": 4690,
      "('branc": 4691,
      ", 3130": 4692,
      ", 3120": 4693,
      "('começ": 4694,
      "('Sem', (2": 4695,
      "575)) \n": 4696,
      "ão', (11": 4697,
      "ece', (": 4698,
      "539)) \n": 4699,
      "090)) \n": 4700,
      ", 2730": 4701,
      ", 2795": 4702,
      ", 2776": 4703,
      ", 2784": 4704,
      "('desbarat": 4705,
      ", 2980": 4706,
      ", 2934": 4707,
      "076)) \n": 4708,
      "077)) \n": 4709,
      ", 995": 4710,
      ", 970": 4711,
      ", 996": 4712,
      ", 1780": 4713,
      ", 1995": 4714,
      ", 1972": 4715,
      ", 1971": 4716,
      ", 1332": 4717,
      ", 1374": 4718,
      ", 1375": 4719,
      ", 1390": 4720,
      ", 1334": 4721,
      ", 2395": 4722,
      ", 2376": 4723,
      ", 835": 4724,
      ", 871": 4725,
      ", 876": 4726,
      ", 2896": 4727,
      ", 2874": 4728,
      ", 2875": 4729,
      ", 2894": 4730,
      ", 790": 4731,
      ", 791": 4732,
      ", 736": 4733,
      ", 1881": 4734,
      ", 1886": 4735,
      ", 1884": 4736,
      ", 395": 4737,
      ", 370": 4738,
      "('pret": 4739,
      "('promet": 4740,
      "('se', (11": 4741,
      "('enx": 4742,
      "eiros', (2": 4743,
      "abit": 4744,
      "('grandes', (2": 4745,
      "idade', (1": 4746,
      "aram": 4747,
      "('contra', (": 4748,
      "('é', (": 4749,
      "('extr": 4750,
      "('escur": 4751,
      "('fazend": 4752,
      "rava', (": 4753,
      "('levant": 4754,
      "('águas', (1": 4755,
      "('nome', (2": 4756,
      "érc": 4757,
      "('também', (2": 4758,
      "('Ing": 4759,
      "('Vês', (2": 4760,
      "('Assi', (2": 4761,
      "('algum', (1": 4762,
      "('palm": 4763,
      "('despois', (": 4764,
      "('ergu": 4765,
      "('Destart": 4766,
      "('oferec": 4767,
      "('esperanç": 4768,
      "('atrev": 4769,
      "('castig": 4770,
      "('Fortun": 4771,
      "('virtud": 4772,
      "084": 4773,
      "035)) \n": 4774,
      "182": 4775,
      "242": 4776,
      "3, 221": 4777,
      "3, 112": 4778,
      "5, 14": 4779,
      "7, 201": 4780,
      "ai', (1": 4781,
      "ai', (": 4782,
      "bar": 4783,
      "ios', (2": 4784,
      "pe', (": 4785,
      "ront": 4786,
      "ás', (1": 4787,
      "ém', (2": 4788,
      "ês', (": 4789,
      ", 49": 4790,
      ", 278": 4791,
      ", 283": 4792,
      ", 248": 4793,
      "307, ": 4794,
      "305, 1": 4795,
      "319, 2": 4796,
      "3125": 4797,
      "3115": 4798,
      "804, 1": 4799,
      "800, 1": 4800,
      "958, ": 4801,
      "700, 1": 4802,
      "701, ": 4803,
      "329, 1": 4804,
      "324, 1": 4805,
      "321, 1": 4806,
      "965, ": 4807,
      "960, ": 4808,
      "357, ": 4809,
      "721, ": 4810,
      "722, 2": 4811,
      "747, ": 4812,
      "747, 2": 4813,
      "744, ": 4814,
      "757, ": 4815,
      "754, ": 4816,
      "907, 2": 4817,
      "904, ": 4818,
      "905, 1": 4819,
      "910, 1": 4820,
      "osos', (2": 4821,
      "osas', (": 4822,
      "814, ": 4823,
      "812, 2": 4824,
      "711, 2": 4825,
      "715, ": 4826,
      "868, ": 4827,
      "926, ": 4828,
      "922, 2": 4829,
      "920, 2": 4830,
      "767, ": 4831,
      "766, ": 4832,
      "765, 1": 4833,
      "847, 1": 4834,
      "846, 1": 4835,
      "348, ": 4836,
      "345, 2": 4837,
      "829, 2": 4838,
      "821, 2": 4839,
      "820, 1": 4840,
      "822, 2": 4841,
      "o', (134": 4842,
      "o', (280": 4843,
      "o', (295": 4844,
      "o', (235": 4845,
      "o', (281": 4846,
      "o', (271": 4847,
      "e', (112": 4848,
      "('dom": 4849,
      "o', (70": 4850,
      "o', (71": 4851,
      "o', (64": 4852,
      "rat": 4853,
      "604, 1": 4854,
      "628, ": 4855,
      "('ceg": 4856,
      "('cidade', (": 4857,
      "('pé": 4858,
      "('par": 4859,
      "a', (234": 4860,
      "a', (266": 4861,
      "a', (200": 4862,
      "399, 2": 4863,
      "397, ": 4864,
      "('quei": 4865,
      ", 3095": 4866,
      ", 3035": 4867,
      ", 3074": 4868,
      ", 3065": 4869,
      ", 3062": 4870,
      "(',', (280": 4871,
      "(',', (242": 4872,
      "(',', (202": 4873,
      ", 2170": 4874,
      ", 2185": 4875,
      ", 2190": 4876,
      ", 2136": 4877,
      ", 2150": 4878,
      ", 1280": 4879,
      ", 1270": 4880,
      ", 1272": 4881,
      ", 1261": 4882,
      "(',', (180": 4883,
      "(',', (176": 4884,
      "(',', (142": 4885,
      ", 1084": 4886,
      ", 1012": 4887,
      ", 1195": 4888,
      ", 1190": 4889,
      ", 1134": 4890,
      ", 1162": 4891,
      ", 1152": 4892,
      ", 1110": 4893,
      ", 1100": 4894,
      ", 1101": 4895,
      ", 2070": 4896,
      ", 2035": 4897,
      ", 2071": 4898,
      ", 2036": 4899,
      ", 2041": 4900,
      ", 2281": 4901,
      ", 2294": 4902,
      ", 2236": 4903,
      ", 2250": 4904,
      "('mal', (1": 4905,
      "33, 12": 4906,
      "('negr": 4907,
      "('fim": 4908,
      "('fur": 4909,
      "('fing": 4910,
      "(',', (72": 4911,
      "(',', (65": 4912,
      "(',', (55": 4913,
      "(',', (64": 4914,
      "(',', (311": 4915,
      "('vo": 4916,
      "007)) \n": 4917,
      "ade', (2": 4918,
      "3, 296": 4919,
      "3, 275": 4920,
      "3, 242": 4921,
      "3, 256": 4922,
      "3, 131": 4923,
      "3, 194": 4924,
      "ento', (1": 4925,
      "3, 71": 4926,
      "3, 94": 4927,
      "('Das', (1": 4928,
      "('lágrim": 4929,
      "027)) \n": 4930,
      "am', (12": 4931,
      "('Ac": 4932,
      "('And": 4933,
      "9, 50": 4934,
      "8, 280": 4935,
      ", 1552": 4936,
      "('Cab": 4937,
      "('Eg": 4938,
      "9, 176": 4939,
      "8, 184": 4940,
      "8, 136": 4941,
      "8, 145": 4942,
      ", 2585": 4943,
      ", 2545": 4944,
      ", 530": 4945,
      ", 596": 4946,
      ", 572": 4947,
      ", 586": 4948,
      ", 594": 4949,
      ", 545": 4950,
      ", 560": 4951,
      "('gen": 4952,
      "('gost": 4953,
      "('Pó": 4954,
      "('Pol": 4955,
      "7, 265": 4956,
      "7, 190": 4957,
      "as', (250": 4958,
      "245)) \n": 4959,
      ", 1480": 4960,
      ", 1490": 4961,
      ", 1481": 4962,
      ", 1461": 4963,
      ", 1465": 4964,
      ", 1445": 4965,
      ", 1460": 4966,
      ", 2492": 4967,
      ", 2434": 4968,
      ", 2632": 4969,
      ", 2696": 4970,
      ", 2685": 4971,
      ", 2691": 4972,
      ", 2681": 4973,
      ", 2671": 4974,
      ", 2661": 4975,
      ", 2662": 4976,
      ", 475": 4977,
      ", 491": 4978,
      ", 492": 4979,
      ", 1630": 4980,
      ", 1670": 4981,
      ", 1661": 4982,
      ", 1641": 4983,
      ", 680": 4984,
      ", 670": 4985,
      ", 632": 4986,
      ", 672": 4987,
      ", 692": 4988,
      ", 676": 4989,
      ", 634": 4990,
      ", 640": 4991,
      ", 661": 4992,
      ", 641": 4993,
      ", 660": 4994,
      "('Sant": 4995,
      "('este', (1": 4996,
      "171)) \n": 4997,
      "291)) \n": 4998,
      ", 2790": 4999
    },
    "merges": [
      [
        ",",
        " "
      ],
      [
        "(",
        "'"
      ],
      [
        " ",
        "\n"
      ],
      [
        ")",
        ")"
      ],
      [
        ", ",
        "("
      ],
      [
        "))",
        " \n"
      ],
      [
        "'",
        ", ("
      ],
      [
        ", ",
        "1"
      ],
      [
        ", ",
        "2"
      ],
      [
        "', (",
        "1"
      ],
      [
        "', (",
        "2"
      ],
      [
        "3",
        "0"
      ],
      [
        "3",
        "1"
      ],
      [
        "6",
        ")) \n"
      ],
      [
        "('",
        ","
      ],
      [
        "4",
        ")) \n"
      ],
      [
        "9",
        ")) \n"
      ],
      [
        "3",
        ")) \n"
      ],
      [
        "2",
        ")) \n"
      ],
      [
        "7",
        ")) \n"
      ],
      [
        "8",
        ")) \n"
      ],
      [
        "5",
        ")) \n"
      ],
      [
        "0",
        ")) \n"
      ],
      [
        "1",
        ")) \n"
      ],
      [
        "8",
        "0"
      ],
      [
        "9",
        "5"
      ],
      [
        "7",
        "0"
      ],
      [
        "3",
        "2"
      ],
      [
        "9",
        "6"
      ],
      [
        "3",
        "5"
      ],
      [
        "7",
        "2"
      ],
      [
        "7",
        "4"
      ],
      [
        "8",
        "5"
      ],
      [
        "7",
        "5"
      ],
      [
        "9",
        "0"
      ],
      [
        "9",
        "1"
      ],
      [
        "o",
        "s"
      ],
      [
        "8",
        "1"
      ],
      [
        "7",
        "1"
      ],
      [
        "8",
        "6"
      ],
      [
        "9",
        "2"
      ],
      [
        "7",
        "6"
      ],
      [
        "8",
        "4"
      ],
      [
        "9",
        "4"
      ],
      [
        "3",
        "4"
      ],
      [
        "3",
        "6"
      ],
      [
        "8",
        "2"
      ],
      [
        "('",
        "a"
      ],
      [
        "o",
        "', (1"
      ],
      [
        "e",
        "', (2"
      ],
      [
        "o",
        "', (2"
      ],
      [
        "e",
        "', (1"
      ],
      [
        "('",
        "d"
      ],
      [
        "o",
        "', ("
      ],
      [
        "r",
        "a"
      ],
      [
        "e",
        "s"
      ],
      [
        "4",
        "0"
      ],
      [
        "6",
        "1"
      ],
      [
        "e",
        "', ("
      ],
      [
        "6",
        "5"
      ],
      [
        "4",
        "1"
      ],
      [
        "4",
        "5"
      ],
      [
        "6",
        "0"
      ],
      [
        "6",
        "2"
      ],
      [
        "4",
        "2"
      ],
      [
        "e",
        "n"
      ],
      [
        "q",
        "u"
      ],
      [
        "('",
        "s"
      ],
      [
        "('",
        "c"
      ],
      [
        "('",
        "p"
      ],
      [
        "5",
        "2"
      ],
      [
        "a",
        "s"
      ],
      [
        "5",
        "1"
      ],
      [
        "a",
        "', (2"
      ],
      [
        "5",
        "0"
      ],
      [
        "8",
        "9"
      ],
      [
        "3",
        "7"
      ],
      [
        "e",
        "r"
      ],
      [
        "8",
        "7"
      ],
      [
        "3",
        "9"
      ],
      [
        "('",
        "t"
      ],
      [
        "('",
        "qu"
      ],
      [
        ", ",
        "30"
      ],
      [
        "a",
        "n"
      ],
      [
        "(',",
        "', (2"
      ],
      [
        ", 2",
        "1"
      ],
      [
        ", 1",
        "2"
      ],
      [
        "(',",
        "', (1"
      ],
      [
        "o",
        "r"
      ],
      [
        "a",
        "', (1"
      ],
      [
        ", 1",
        "0"
      ],
      [
        ", 1",
        "1"
      ],
      [
        ", 2",
        "0"
      ],
      [
        ", 2",
        "2"
      ],
      [
        "4",
        "4"
      ],
      [
        "6",
        "6"
      ],
      [
        "a",
        "', ("
      ],
      [
        "7",
        "7"
      ],
      [
        "('",
        "m"
      ],
      [
        "8",
        "8"
      ],
      [
        "9",
        "9"
      ],
      [
        "5",
        "5"
      ],
      [
        "e",
        "m"
      ],
      [
        "3",
        "3"
      ],
      [
        "('",
        "n"
      ],
      [
        "6",
        "4"
      ],
      [
        "('",
        "f"
      ],
      [
        "(',",
        "', ("
      ],
      [
        "7",
        "9"
      ],
      [
        "3",
        "8"
      ],
      [
        "('",
        "v"
      ],
      [
        "1",
        "0"
      ],
      [
        "2",
        "2"
      ],
      [
        "a",
        "r"
      ],
      [
        "4",
        "6"
      ],
      [
        "0",
        "0"
      ],
      [
        "e",
        "i"
      ],
      [
        "7",
        "8"
      ],
      [
        "1",
        "2"
      ],
      [
        "('",
        "."
      ],
      [
        "5",
        "6"
      ],
      [
        "a",
        "d"
      ],
      [
        "3",
        ", 2"
      ],
      [
        "5",
        "4"
      ],
      [
        "3",
        ", 1"
      ],
      [
        "en",
        "t"
      ],
      [
        "3",
        ", "
      ],
      [
        "i",
        "n"
      ],
      [
        "9",
        "7"
      ],
      [
        "9",
        "8"
      ],
      [
        "o",
        "m"
      ],
      [
        "os",
        "', (1"
      ],
      [
        "1",
        "1"
      ],
      [
        "2",
        "0"
      ],
      [
        "o",
        "n"
      ],
      [
        "os",
        "', (2"
      ],
      [
        "('",
        "D"
      ],
      [
        "('",
        "l"
      ],
      [
        "i",
        "s"
      ],
      [
        "0",
        "2"
      ],
      [
        "a",
        "m"
      ],
      [
        "('",
        "A"
      ],
      [
        "6",
        "7"
      ],
      [
        "4",
        "7"
      ],
      [
        "9",
        ", "
      ],
      [
        "8",
        ", "
      ],
      [
        "8",
        ", 2"
      ],
      [
        ", 1",
        "5"
      ],
      [
        "0",
        "1"
      ],
      [
        "e",
        "l"
      ],
      [
        "9",
        ", 2"
      ],
      [
        "2",
        "1"
      ],
      [
        "('",
        "C"
      ],
      [
        "r",
        "i"
      ],
      [
        "('",
        "E"
      ],
      [
        "a",
        "l"
      ],
      [
        "9",
        ", 1"
      ],
      [
        "Q",
        "u"
      ],
      [
        "('",
        "Qu"
      ],
      [
        "8",
        ", 1"
      ],
      [
        "', (",
        "30"
      ],
      [
        "o",
        "u"
      ],
      [
        ", 2",
        "5"
      ],
      [
        ", ",
        "5"
      ],
      [
        "9",
        "3"
      ],
      [
        "('",
        "g"
      ],
      [
        "8",
        "3"
      ],
      [
        "('",
        "es"
      ],
      [
        "('",
        ";"
      ],
      [
        "7",
        ", "
      ],
      [
        "0",
        "5"
      ],
      [
        "as",
        "', (1"
      ],
      [
        "2",
        "5"
      ],
      [
        "i",
        "d"
      ],
      [
        "('",
        "P"
      ],
      [
        "os",
        "', ("
      ],
      [
        "4",
        "9"
      ],
      [
        "7",
        ", 2"
      ],
      [
        "7",
        ", 1"
      ],
      [
        "4",
        "8"
      ],
      [
        "6",
        "9"
      ],
      [
        "1",
        "5"
      ],
      [
        "7",
        "3"
      ],
      [
        "6",
        "8"
      ],
      [
        "('",
        "O"
      ],
      [
        "u",
        "s"
      ],
      [
        "6",
        "3"
      ],
      [
        "as",
        "', (2"
      ],
      [
        "('",
        "M"
      ],
      [
        "1",
        "4"
      ],
      [
        "2",
        "4"
      ],
      [
        "('qu",
        "e', (2"
      ],
      [
        "an",
        "t"
      ],
      [
        "6",
        ", 1"
      ],
      [
        "n",
        "d"
      ],
      [
        "0",
        "4"
      ],
      [
        "6",
        ", "
      ],
      [
        "30",
        ")) \n"
      ],
      [
        "an",
        "d"
      ],
      [
        "31",
        ")) \n"
      ],
      [
        "('",
        "«"
      ],
      [
        ", 1",
        "4"
      ],
      [
        ", 2",
        "4"
      ],
      [
        "('",
        "N"
      ],
      [
        ", 2",
        "6"
      ],
      [
        ", ",
        "4"
      ],
      [
        "('",
        "e', (1"
      ],
      [
        "a",
        "v"
      ],
      [
        "('qu",
        "e', (1"
      ],
      [
        "('",
        "e', (2"
      ],
      [
        "2",
        "6"
      ],
      [
        "('",
        "r"
      ],
      [
        "0",
        "6"
      ],
      [
        ", 1",
        "6"
      ],
      [
        "1",
        "6"
      ],
      [
        "e",
        "ra"
      ],
      [
        "s",
        "', (1"
      ],
      [
        "('",
        "b"
      ],
      [
        ", ",
        "31"
      ],
      [
        "i",
        "m"
      ],
      [
        ", ",
        "6"
      ],
      [
        "5",
        "8"
      ],
      [
        "('.",
        "', (2"
      ],
      [
        "5",
        "9"
      ],
      [
        "('c",
        "om"
      ],
      [
        "('",
        "S"
      ],
      [
        "5",
        "7"
      ],
      [
        "4",
        ", 1"
      ],
      [
        "ã",
        "o', (2"
      ],
      [
        "ã",
        "o', (1"
      ],
      [
        "('.",
        "', (1"
      ],
      [
        "es",
        "', (1"
      ],
      [
        "s",
        "', (2"
      ],
      [
        "e",
        "c"
      ],
      [
        "u",
        "m"
      ],
      [
        "1",
        ", 2"
      ],
      [
        "4",
        "3"
      ],
      [
        "i",
        "t"
      ],
      [
        "5",
        ", 2"
      ],
      [
        "i",
        "l"
      ],
      [
        "4",
        ", "
      ],
      [
        "em",
        "', (1"
      ],
      [
        "6",
        ", 2"
      ],
      [
        "('es",
        "t"
      ],
      [
        "em",
        "', (2"
      ],
      [
        "('qu",
        "e', ("
      ],
      [
        "0",
        ", 1"
      ],
      [
        "('",
        "o', (1"
      ],
      [
        "('",
        "o', ("
      ],
      [
        "('",
        "-"
      ],
      [
        "5",
        ", "
      ],
      [
        "4",
        ", 2"
      ],
      [
        "en",
        "d"
      ],
      [
        "as",
        "', ("
      ],
      [
        "1",
        ", "
      ],
      [
        "1",
        ", 1"
      ],
      [
        "2",
        ", 2"
      ],
      [
        "2",
        ", 1"
      ],
      [
        "0",
        ", 2"
      ],
      [
        "('a",
        "', (1"
      ],
      [
        "('a",
        "', (2"
      ],
      [
        "5",
        ", 1"
      ],
      [
        "('",
        "o', (2"
      ],
      [
        "es",
        "', (2"
      ],
      [
        "1",
        "7"
      ],
      [
        "5",
        "3"
      ],
      [
        "2",
        "9"
      ],
      [
        "2",
        "7"
      ],
      [
        "('a",
        "l"
      ],
      [
        "('",
        "e', ("
      ],
      [
        "2",
        ", "
      ],
      [
        "e",
        "g"
      ],
      [
        "('",
        "T"
      ],
      [
        "0",
        "9"
      ],
      [
        ", 2",
        "7"
      ],
      [
        "o",
        "d"
      ],
      [
        "('d",
        "es"
      ],
      [
        ", 2",
        "9"
      ],
      [
        "1",
        "8"
      ],
      [
        "2",
        "8"
      ],
      [
        "1",
        "9"
      ],
      [
        "0",
        "8"
      ],
      [
        "t",
        "r"
      ],
      [
        "0",
        "7"
      ],
      [
        "('p",
        "or"
      ],
      [
        "('",
        "R"
      ],
      [
        "ra",
        "', (1"
      ],
      [
        ", ",
        "9"
      ],
      [
        "a",
        "is"
      ],
      [
        "0",
        ", "
      ],
      [
        "e",
        "d"
      ],
      [
        ", 1",
        "7"
      ],
      [
        "3",
        "4)) \n"
      ],
      [
        ", 1",
        "9"
      ],
      [
        ", 1",
        "3"
      ],
      [
        "('d",
        "e', (1"
      ],
      [
        ", 2",
        "3"
      ],
      [
        ", ",
        "8"
      ],
      [
        "('c",
        "on"
      ],
      [
        ", 2",
        "8"
      ],
      [
        ", ",
        "7"
      ],
      [
        "('",
        "in"
      ],
      [
        "or",
        "t"
      ],
      [
        "i",
        "g"
      ],
      [
        "3",
        "6)) \n"
      ],
      [
        "3",
        "9)) \n"
      ],
      [
        ", 1",
        "8"
      ],
      [
        ", ",
        "3"
      ],
      [
        "('a",
        "', ("
      ],
      [
        "ra",
        "', (2"
      ],
      [
        "3",
        "3)) \n"
      ],
      [
        "3",
        "7)) \n"
      ],
      [
        "s",
        "', ("
      ],
      [
        "3",
        "2)) \n"
      ],
      [
        "o",
        "b"
      ],
      [
        "ã",
        "o', ("
      ],
      [
        "3",
        "8)) \n"
      ],
      [
        "('.",
        "', ("
      ],
      [
        "('l",
        "h"
      ],
      [
        "3",
        "5)) \n"
      ],
      [
        "e",
        "u"
      ],
      [
        "('",
        "j"
      ],
      [
        "('d",
        "e', (2"
      ],
      [
        "em",
        "', ("
      ],
      [
        "('p",
        "r"
      ],
      [
        "e",
        "t"
      ],
      [
        "ei",
        "t"
      ],
      [
        "('t",
        "er"
      ],
      [
        "('",
        "ou"
      ],
      [
        "('",
        "V"
      ],
      [
        "á",
        "', (2"
      ],
      [
        "31",
        "0"
      ],
      [
        "o",
        "l"
      ],
      [
        "('",
        "h"
      ],
      [
        "o', (",
        "30"
      ],
      [
        "u",
        "n"
      ],
      [
        "('a",
        "r"
      ],
      [
        "i",
        "r"
      ],
      [
        "8",
        "7)) \n"
      ],
      [
        "(';",
        "', (1"
      ],
      [
        "31",
        "2"
      ],
      [
        "8",
        "6)) \n"
      ],
      [
        "i",
        "c"
      ],
      [
        "7",
        "0)) \n"
      ],
      [
        "7",
        "1)) \n"
      ],
      [
        "31",
        "1"
      ],
      [
        "9",
        "6)) \n"
      ],
      [
        "a', (",
        "30"
      ],
      [
        "8",
        "8)) \n"
      ],
      [
        "8",
        "1)) \n"
      ],
      [
        "(';",
        "', (2"
      ],
      [
        "7",
        "8)) \n"
      ],
      [
        "('",
        "L"
      ],
      [
        "('s",
        "e', (1"
      ],
      [
        "9",
        "9)) \n"
      ],
      [
        "o",
        "v"
      ],
      [
        "('d",
        "e', ("
      ],
      [
        "('R",
        "ei"
      ],
      [
        "e",
        "v"
      ],
      [
        "('Qu",
        "e', (2"
      ],
      [
        "8",
        "2)) \n"
      ],
      [
        "ra",
        "nd"
      ],
      [
        "u",
        "r"
      ],
      [
        "('",
        "F"
      ],
      [
        "('s",
        "e', (2"
      ],
      [
        "9",
        "3)) \n"
      ],
      [
        "8",
        "4)) \n"
      ],
      [
        "('«",
        "', (1"
      ],
      [
        "on",
        "d"
      ],
      [
        "7",
        "6)) \n"
      ],
      [
        "8",
        "9)) \n"
      ],
      [
        "es",
        "', ("
      ],
      [
        "9",
        "0)) \n"
      ],
      [
        "os",
        "t"
      ],
      [
        "8",
        "0)) \n"
      ],
      [
        "9",
        "4)) \n"
      ],
      [
        "ra",
        "', ("
      ],
      [
        "7",
        "2)) \n"
      ],
      [
        "g",
        "u"
      ],
      [
        "('g",
        "ent"
      ],
      [
        "7",
        "3)) \n"
      ],
      [
        "('",
        "en"
      ],
      [
        "9",
        "5)) \n"
      ],
      [
        "('Qu",
        "e', (1"
      ],
      [
        "9",
        "2)) \n"
      ],
      [
        "es",
        "t"
      ],
      [
        "('C",
        "om"
      ],
      [
        "i",
        "', (1"
      ],
      [
        "7",
        "4)) \n"
      ],
      [
        "8",
        "3)) \n"
      ],
      [
        "8",
        "5)) \n"
      ],
      [
        "7",
        "7)) \n"
      ],
      [
        "c",
        "i"
      ],
      [
        "('P",
        "or"
      ],
      [
        "7",
        "5)) \n"
      ],
      [
        "m",
        "', (1"
      ],
      [
        "in",
        "h"
      ],
      [
        "(';",
        "', ("
      ],
      [
        "is",
        "t"
      ],
      [
        "7",
        "9)) \n"
      ],
      [
        "e",
        "us"
      ],
      [
        "s",
        "s"
      ],
      [
        "u",
        "d"
      ],
      [
        "á",
        "', (1"
      ],
      [
        "9",
        "8)) \n"
      ],
      [
        "a",
        "t"
      ],
      [
        "5",
        "8)) \n"
      ],
      [
        "6",
        "2)) \n"
      ],
      [
        "e', (",
        "30"
      ],
      [
        "('m",
        "ais"
      ],
      [
        "(',', (",
        "30"
      ],
      [
        "5",
        "9)) \n"
      ],
      [
        "9",
        "1)) \n"
      ],
      [
        "4",
        "1)) \n"
      ],
      [
        "i",
        "', (2"
      ],
      [
        "5",
        "7)) \n"
      ],
      [
        "6",
        "9)) \n"
      ],
      [
        "6",
        "4)) \n"
      ],
      [
        "('a",
        "m"
      ],
      [
        "4",
        "6)) \n"
      ],
      [
        "('s",
        "u"
      ],
      [
        "ar",
        "t"
      ],
      [
        "6",
        "3)) \n"
      ],
      [
        "9",
        "7)) \n"
      ],
      [
        "ar",
        "', (1"
      ],
      [
        "('",
        "I"
      ],
      [
        "('d",
        "i"
      ],
      [
        "e",
        "j"
      ],
      [
        "', (2",
        "2"
      ],
      [
        "i",
        "', ("
      ],
      [
        "4",
        "8)) \n"
      ],
      [
        "5",
        "1)) \n"
      ],
      [
        "('m",
        "u"
      ],
      [
        "6",
        "7)) \n"
      ],
      [
        "6",
        "0)) \n"
      ],
      [
        "as",
        "s"
      ],
      [
        "', (2",
        "1"
      ],
      [
        "ei",
        "r"
      ],
      [
        "a",
        "b"
      ],
      [
        "5",
        "4)) \n"
      ],
      [
        "5",
        "2)) \n"
      ],
      [
        "4",
        "7)) \n"
      ],
      [
        "4",
        "0)) \n"
      ],
      [
        "6",
        "5)) \n"
      ],
      [
        "s",
        "t"
      ],
      [
        "4",
        "5)) \n"
      ],
      [
        "a",
        "z"
      ],
      [
        "4",
        "9)) \n"
      ],
      [
        "6",
        "6)) \n"
      ],
      [
        "em",
        "p"
      ],
      [
        "2",
        "1)) \n"
      ],
      [
        "6",
        "8)) \n"
      ],
      [
        "', (2",
        "0"
      ],
      [
        "('t",
        "od"
      ],
      [
        "1",
        "5)) \n"
      ],
      [
        "2",
        "3)) \n"
      ],
      [
        "e",
        "z"
      ],
      [
        "0",
        "7)) \n"
      ],
      [
        "0",
        "0)) \n"
      ],
      [
        "1",
        "3)) \n"
      ],
      [
        "5",
        "0)) \n"
      ],
      [
        "6",
        "1)) \n"
      ],
      [
        "('",
        ":"
      ],
      [
        "2",
        "4)) \n"
      ],
      [
        "0",
        "8)) \n"
      ],
      [
        "1",
        "6)) \n"
      ],
      [
        "on",
        "t"
      ],
      [
        "4",
        "2)) \n"
      ],
      [
        "', (1",
        "2"
      ],
      [
        "('f",
        "o"
      ],
      [
        "4",
        "4)) \n"
      ],
      [
        "('",
        "G"
      ],
      [
        "1",
        "2)) \n"
      ],
      [
        "2",
        "9)) \n"
      ],
      [
        "('s",
        "e', ("
      ],
      [
        "0",
        "9)) \n"
      ],
      [
        "0",
        "2)) \n"
      ],
      [
        "os",
        "s"
      ],
      [
        "('v",
        "er"
      ],
      [
        "0",
        "4)) \n"
      ],
      [
        "4",
        "3)) \n"
      ],
      [
        "5",
        "5)) \n"
      ],
      [
        "('Qu",
        "e', ("
      ],
      [
        "('g",
        "rand"
      ],
      [
        "2",
        "5)) \n"
      ],
      [
        "1",
        "4)) \n"
      ],
      [
        "1",
        "7)) \n"
      ],
      [
        "1",
        "1)) \n"
      ],
      [
        "5",
        "3)) \n"
      ],
      [
        "0",
        "3)) \n"
      ],
      [
        "5",
        "6)) \n"
      ],
      [
        "1",
        "9)) \n"
      ],
      [
        "3",
        "95"
      ],
      [
        "('",
        "os', (1"
      ],
      [
        "ar",
        "', (2"
      ],
      [
        "0",
        "6)) \n"
      ],
      [
        "2",
        "6)) \n"
      ],
      [
        "n",
        "t"
      ],
      [
        "er",
        "t"
      ],
      [
        "2",
        "2)) \n"
      ],
      [
        "2",
        "7)) \n"
      ],
      [
        "3",
        "85"
      ],
      [
        "and",
        "o', (1"
      ],
      [
        "0",
        "5)) \n"
      ],
      [
        "1",
        "8)) \n"
      ],
      [
        "i",
        "a', (2"
      ],
      [
        "i",
        "a', (1"
      ],
      [
        "2",
        "0)) \n"
      ],
      [
        "', (1",
        "0"
      ],
      [
        "0",
        "1)) \n"
      ],
      [
        "3",
        "32"
      ],
      [
        "3",
        "35"
      ],
      [
        "('",
        "os', (2"
      ],
      [
        "3",
        "74"
      ],
      [
        "3",
        "81"
      ],
      [
        "('es",
        "p"
      ],
      [
        "1",
        "0)) \n"
      ],
      [
        "3",
        "71"
      ],
      [
        "3",
        "94"
      ],
      [
        "o",
        "t"
      ],
      [
        "ra",
        "d"
      ],
      [
        "3",
        "80"
      ],
      [
        "3",
        "76"
      ],
      [
        "3",
        "34"
      ],
      [
        "o', (2",
        "1"
      ],
      [
        "('s",
        "er"
      ],
      [
        "an",
        "h"
      ],
      [
        "('«",
        "', ("
      ],
      [
        "2",
        "8)) \n"
      ],
      [
        "3",
        "86"
      ],
      [
        "3",
        "72"
      ],
      [
        "3",
        "91"
      ],
      [
        "3",
        "84"
      ],
      [
        "e",
        "b"
      ],
      [
        "id",
        "ad"
      ],
      [
        "3",
        "82"
      ],
      [
        "en",
        "h"
      ],
      [
        "m",
        "', ("
      ],
      [
        "o",
        "c"
      ],
      [
        "('a",
        "c"
      ],
      [
        "a",
        "ra"
      ],
      [
        "3",
        "90"
      ],
      [
        "7",
        "81"
      ],
      [
        "9",
        "70"
      ],
      [
        "9",
        "92"
      ],
      [
        "m",
        "', (2"
      ],
      [
        "o', (2",
        "2"
      ],
      [
        "('d",
        "o', (1"
      ],
      [
        "('t",
        "ant"
      ],
      [
        "3",
        "92"
      ],
      [
        "u",
        "l"
      ],
      [
        "3",
        "36"
      ],
      [
        "('c",
        "or"
      ],
      [
        "3",
        "70"
      ],
      [
        "('",
        "J"
      ],
      [
        "3",
        "30"
      ],
      [
        "3",
        "96"
      ],
      [
        "3",
        "75"
      ],
      [
        "a",
        "g"
      ],
      [
        "('t",
        "ra"
      ],
      [
        "('f",
        "er"
      ],
      [
        "7",
        "75"
      ],
      [
        "8",
        "32"
      ],
      [
        "il",
        "h"
      ],
      [
        "8",
        "85"
      ],
      [
        "o', (2",
        "0"
      ],
      [
        "9",
        "75"
      ],
      [
        "9",
        "81"
      ],
      [
        "('",
        "um"
      ],
      [
        "7",
        "95"
      ],
      [
        "9",
        "32"
      ],
      [
        "7",
        "86"
      ],
      [
        "8",
        "72"
      ],
      [
        "8",
        "80"
      ],
      [
        "and",
        "o', ("
      ],
      [
        "7",
        "80"
      ],
      [
        ", 12",
        "2"
      ],
      [
        "3",
        ", 30"
      ],
      [
        "7",
        "91"
      ],
      [
        "9",
        "30"
      ],
      [
        "es",
        "s"
      ],
      [
        "('n",
        "ão', (2"
      ],
      [
        "('E",
        "', ("
      ],
      [
        "7",
        "32"
      ],
      [
        "8",
        "35"
      ],
      [
        "9",
        "90"
      ],
      [
        "9",
        "84"
      ],
      [
        "6",
        "61"
      ],
      [
        "8",
        "74"
      ],
      [
        "8",
        "34"
      ],
      [
        "('a",
        "p"
      ],
      [
        "('-",
        "', (1"
      ],
      [
        "('-",
        "', (2"
      ],
      [
        "4",
        "74"
      ],
      [
        "9",
        "80"
      ],
      [
        "9",
        "91"
      ],
      [
        "('",
        "B"
      ],
      [
        "('p",
        "er"
      ],
      [
        "7",
        "72"
      ],
      [
        "8",
        "91"
      ],
      [
        "9",
        "96"
      ],
      [
        "9",
        "76"
      ],
      [
        "e",
        "x"
      ],
      [
        ", 10",
        "0"
      ],
      [
        "7",
        "71"
      ],
      [
        "8",
        "81"
      ],
      [
        "9",
        "71"
      ],
      [
        "('",
        "à"
      ],
      [
        "a', (2",
        "1"
      ],
      [
        ", 11",
        "0"
      ],
      [
        "6",
        "35"
      ],
      [
        "7",
        "30"
      ],
      [
        "8",
        "71"
      ],
      [
        "('",
        "em', (2"
      ],
      [
        "o', (1",
        "0"
      ],
      [
        "7",
        "70"
      ],
      [
        "7",
        "85"
      ],
      [
        "7",
        "92"
      ],
      [
        "8",
        "95"
      ],
      [
        "9",
        "95"
      ],
      [
        ", 22",
        "0"
      ],
      [
        ", 22",
        "1"
      ],
      [
        ", 22",
        "2"
      ],
      [
        "7",
        "82"
      ],
      [
        "8",
        "30"
      ],
      [
        "8",
        "96"
      ],
      [
        "8",
        "75"
      ],
      [
        "8",
        "84"
      ],
      [
        "('n",
        "ão', (1"
      ],
      [
        "6",
        "45"
      ],
      [
        "7",
        "96"
      ],
      [
        "8",
        "76"
      ],
      [
        "9",
        "34"
      ],
      [
        "i",
        "a', ("
      ],
      [
        "', (1",
        "1"
      ],
      [
        "('s",
        "eu"
      ],
      [
        "7",
        "34"
      ],
      [
        "8",
        "86"
      ],
      [
        "('",
        "ond"
      ],
      [
        "7",
        "90"
      ],
      [
        "8",
        "70"
      ],
      [
        "9",
        "35"
      ],
      [
        ", 21",
        "2"
      ],
      [
        ", 20",
        "0"
      ],
      [
        "8",
        "90"
      ],
      [
        "9",
        "31"
      ],
      [
        "9",
        "72"
      ],
      [
        "9",
        "74"
      ],
      [
        "7",
        "36"
      ],
      [
        "á",
        "', ("
      ],
      [
        "9",
        "36"
      ],
      [
        "('a",
        "s', (1"
      ],
      [
        ", 10",
        "2"
      ],
      [
        ", 11",
        "2"
      ],
      [
        ", 20",
        "1"
      ],
      [
        "3",
        "31"
      ],
      [
        "4",
        "91"
      ],
      [
        "4",
        "65"
      ],
      [
        "5",
        "62"
      ],
      [
        "6",
        "92"
      ],
      [
        "7",
        "74"
      ],
      [
        "7",
        "76"
      ],
      [
        "7",
        "84"
      ],
      [
        "('c",
        "h"
      ],
      [
        ", 21",
        "0"
      ],
      [
        "6",
        "85"
      ],
      [
        "8",
        "82"
      ],
      [
        "('«",
        "', (2"
      ],
      [
        "7",
        "35"
      ],
      [
        "7",
        "94"
      ],
      [
        "9",
        "82"
      ],
      [
        "('",
        "ent"
      ],
      [
        "4",
        "72"
      ],
      [
        "6",
        "34"
      ],
      [
        "8",
        "94"
      ],
      [
        "('",
        "á"
      ],
      [
        "o', (1",
        "1"
      ],
      [
        "a', (2",
        "0"
      ],
      [
        ", 11",
        "1"
      ],
      [
        "('lh",
        "e', (2"
      ],
      [
        "6",
        "84"
      ],
      [
        "7",
        "31"
      ],
      [
        "8",
        "36"
      ],
      [
        "o",
        "is"
      ],
      [
        "and",
        "o', (2"
      ],
      [
        "('con",
        "t"
      ],
      [
        "6",
        "80"
      ],
      [
        "6",
        "95"
      ],
      [
        "6",
        "32"
      ],
      [
        "8",
        "31"
      ],
      [
        "9",
        "94"
      ],
      [
        "o', (1",
        "2"
      ],
      [
        ", 12",
        "1"
      ],
      [
        ", 10",
        "1"
      ],
      [
        "am",
        "', (1"
      ],
      [
        "5",
        "91"
      ],
      [
        "9",
        "85"
      ],
      [
        ", 21",
        "1"
      ],
      [
        "4",
        "95"
      ],
      [
        "4",
        "75"
      ],
      [
        "4",
        "81"
      ],
      [
        "6",
        "86"
      ],
      [
        "8",
        "92"
      ],
      [
        "a",
        "ç"
      ],
      [
        "i",
        "v"
      ],
      [
        ", 12",
        "0"
      ],
      [
        "ad",
        "o', ("
      ],
      [
        "4",
        "96"
      ],
      [
        "4",
        "35"
      ],
      [
        "4",
        "84"
      ],
      [
        "4",
        "40"
      ],
      [
        "4",
        "41"
      ],
      [
        "6",
        "96"
      ],
      [
        "('",
        "é"
      ],
      [
        "', (",
        "5"
      ],
      [
        ", 30",
        "1"
      ],
      [
        "4",
        "71"
      ],
      [
        "6",
        "72"
      ],
      [
        "6",
        "75"
      ],
      [
        "6",
        "71"
      ],
      [
        "6",
        "60"
      ],
      [
        ", 20",
        "2"
      ],
      [
        "('E",
        "st"
      ],
      [
        "4",
        "70"
      ],
      [
        "4",
        "76"
      ],
      [
        "5",
        "81"
      ],
      [
        "6",
        "76"
      ],
      [
        "6",
        "65"
      ],
      [
        "9",
        "86"
      ],
      [
        "('d",
        "a', (1"
      ],
      [
        ", 30",
        "0"
      ],
      [
        "4",
        "30"
      ],
      [
        "4",
        "62"
      ],
      [
        "6",
        "91"
      ],
      [
        "('",
        "ex"
      ],
      [
        ", 30",
        "2"
      ],
      [
        "ad",
        "o', (2"
      ],
      [
        "4",
        "36"
      ],
      [
        "4",
        "61"
      ],
      [
        "4",
        "60"
      ],
      [
        "5",
        "50"
      ],
      [
        "6",
        "74"
      ],
      [
        "6",
        "90"
      ],
      [
        "6",
        "41"
      ],
      [
        "('es",
        "c"
      ],
      [
        "4",
        "90"
      ],
      [
        "4",
        "42"
      ],
      [
        "5",
        "35"
      ],
      [
        "6",
        "70"
      ],
      [
        "6",
        "94"
      ],
      [
        "6",
        "62"
      ],
      [
        "(',', (2",
        "1"
      ],
      [
        "4",
        "31"
      ],
      [
        "4",
        "82"
      ],
      [
        "5",
        "60"
      ],
      [
        "6",
        "36"
      ],
      [
        "ent",
        "e', (2"
      ],
      [
        "ou",
        "r"
      ],
      [
        "4",
        "80"
      ],
      [
        "5",
        "86"
      ],
      [
        "6",
        "30"
      ],
      [
        "u",
        "nd"
      ],
      [
        "al",
        "h"
      ],
      [
        "ob",
        "r"
      ],
      [
        "4",
        "32"
      ],
      [
        "5",
        "71"
      ],
      [
        "ad",
        "o', (1"
      ],
      [
        "ent",
        "e', (1"
      ],
      [
        "('E",
        "', (1"
      ],
      [
        "4",
        "86"
      ],
      [
        "5",
        "96"
      ],
      [
        "5",
        "75"
      ],
      [
        "6",
        "42"
      ],
      [
        "('",
        "os', ("
      ],
      [
        "('",
        "em', (1"
      ],
      [
        "or",
        "ç"
      ],
      [
        "('f",
        "az"
      ],
      [
        "5",
        "70"
      ],
      [
        "5",
        "34"
      ],
      [
        "5",
        "40"
      ],
      [
        "5",
        "45"
      ],
      [
        "6",
        "81"
      ],
      [
        "6",
        "40"
      ],
      [
        "ó",
        "ri"
      ],
      [
        "ra",
        "n"
      ],
      [
        "5",
        "85"
      ],
      [
        "6",
        "31"
      ],
      [
        "4",
        "92"
      ],
      [
        "4",
        "94"
      ],
      [
        "5",
        "90"
      ],
      [
        "6",
        "82"
      ],
      [
        "('a",
        "s', (2"
      ],
      [
        "('p",
        "el"
      ],
      [
        "ar",
        "', ("
      ],
      [
        "in",
        "d"
      ],
      [
        "4",
        "45"
      ],
      [
        ", ",
        "41"
      ],
      [
        ", 2",
        "62"
      ],
      [
        "as",
        "t"
      ],
      [
        "(',', (1",
        "0"
      ],
      [
        "era",
        "', (2"
      ],
      [
        ", 1",
        "32"
      ],
      [
        ", 1",
        "76"
      ],
      [
        "('p",
        "art"
      ],
      [
        "an",
        "ç"
      ],
      [
        "el",
        "h"
      ],
      [
        "('-",
        "', ("
      ],
      [
        "4",
        "34"
      ],
      [
        "5",
        "95"
      ],
      [
        "5",
        "61"
      ],
      [
        "u",
        "t"
      ],
      [
        ", ",
        "60"
      ],
      [
        ", 2",
        "90"
      ],
      [
        "5",
        "41"
      ],
      [
        ", 1",
        "80"
      ],
      [
        "(',', (1",
        "1"
      ],
      [
        "('D",
        "e', (1"
      ],
      [
        "5",
        "94"
      ],
      [
        "5",
        "65"
      ],
      [
        "('",
        "el"
      ],
      [
        "('",
        "em', ("
      ],
      [
        "('d",
        "o', (2"
      ],
      [
        "('d",
        "o', ("
      ],
      [
        "('s",
        "ó"
      ],
      [
        "(',', (1",
        "2"
      ],
      [
        "('al",
        "t"
      ],
      [
        "('por",
        "', (1"
      ],
      [
        "5",
        "80"
      ],
      [
        "5",
        "32"
      ],
      [
        "o",
        "f"
      ],
      [
        "('",
        "!"
      ],
      [
        ", 1",
        "51"
      ],
      [
        ", 2",
        "92"
      ],
      [
        "4",
        "85"
      ],
      [
        "5",
        "52"
      ],
      [
        ", ",
        "62"
      ],
      [
        ", 1",
        "70"
      ],
      [
        ", 2",
        "95"
      ],
      [
        ", 2",
        "40"
      ],
      [
        "('a",
        "ss"
      ],
      [
        "5",
        "31"
      ],
      [
        ", ",
        "45"
      ],
      [
        ", ",
        "42"
      ],
      [
        ", 1",
        "95"
      ],
      [
        ", 1",
        "85"
      ],
      [
        ", 1",
        "36"
      ],
      [
        ", 2",
        "85"
      ],
      [
        "('A",
        "l"
      ],
      [
        "5",
        "84"
      ],
      [
        "o",
        "g"
      ],
      [
        ", ",
        "96"
      ],
      [
        ", ",
        "84"
      ],
      [
        ", 1",
        "40"
      ],
      [
        ", 1",
        "41"
      ],
      [
        "('d",
        "a', (2"
      ],
      [
        "(',', (2",
        "2"
      ],
      [
        "('f",
        "ort"
      ],
      [
        "am",
        "', (2"
      ],
      [
        "5",
        "30"
      ],
      [
        "5",
        "72"
      ],
      [
        "5",
        "74"
      ],
      [
        "5",
        "51"
      ],
      [
        ", ",
        "95"
      ],
      [
        ", ",
        "70"
      ],
      [
        ", ",
        "40"
      ],
      [
        ", 1",
        "72"
      ],
      [
        ", 1",
        "71"
      ],
      [
        ", 2",
        "91"
      ],
      [
        ", 2",
        "45"
      ],
      [
        ", 2",
        "52"
      ],
      [
        "ra",
        "s', (1"
      ],
      [
        "('p",
        "od"
      ],
      [
        "al",
        "', (2"
      ],
      [
        "('g",
        "u"
      ],
      [
        "3",
        "87"
      ],
      [
        "3",
        "39"
      ],
      [
        "u",
        "', (1"
      ],
      [
        ", ",
        "71"
      ],
      [
        ", ",
        "94"
      ],
      [
        ", ",
        "52"
      ],
      [
        ", 1",
        "74"
      ],
      [
        ", 1",
        "75"
      ],
      [
        ", 2",
        "30"
      ],
      [
        "er",
        "', (2"
      ],
      [
        "am",
        "', ("
      ],
      [
        "3",
        "89"
      ],
      [
        ", ",
        "80"
      ],
      [
        ", 1",
        "30"
      ],
      [
        ", 1",
        "94"
      ],
      [
        ", 1",
        "50"
      ],
      [
        ", 2",
        "75"
      ],
      [
        ", 2",
        "41"
      ],
      [
        ", 2",
        "51"
      ],
      [
        "('p",
        "ass"
      ],
      [
        "('D",
        "eus"
      ],
      [
        "a",
        "c"
      ],
      [
        "i",
        "z"
      ],
      [
        ", ",
        "72"
      ],
      [
        ", ",
        "74"
      ],
      [
        ", ",
        "91"
      ],
      [
        ", 1",
        "81"
      ],
      [
        ", 2",
        "96"
      ],
      [
        ", 2",
        "71"
      ],
      [
        "qu",
        "el"
      ],
      [
        "('n",
        "ão', ("
      ],
      [
        "5",
        "92"
      ],
      [
        "5",
        "36"
      ],
      [
        "6",
        "44"
      ],
      [
        "n",
        "ci"
      ],
      [
        ", ",
        "86"
      ],
      [
        ", ",
        "92"
      ],
      [
        ", ",
        "76"
      ],
      [
        ", ",
        "82"
      ],
      [
        ", ",
        "65"
      ],
      [
        ", 1",
        "31"
      ],
      [
        ", 2",
        "80"
      ],
      [
        ", 2",
        "70"
      ],
      [
        ", 2",
        "72"
      ],
      [
        ", 2",
        "61"
      ],
      [
        "('t",
        "r"
      ],
      [
        "5",
        "76"
      ],
      [
        ", 1",
        "35"
      ],
      [
        ", 1",
        "52"
      ],
      [
        ", 2",
        "32"
      ],
      [
        ", 2",
        "74"
      ],
      [
        "ent",
        "e', ("
      ],
      [
        ", ",
        "35"
      ],
      [
        ", ",
        "75"
      ],
      [
        ", ",
        "61"
      ],
      [
        ", 1",
        "96"
      ],
      [
        ", 1",
        "90"
      ],
      [
        "('D",
        "e', (2"
      ],
      [
        "ri",
        "m"
      ],
      [
        "('O",
        "', (2"
      ],
      [
        "5",
        "82"
      ],
      [
        "5",
        "42"
      ],
      [
        ", ",
        "32"
      ],
      [
        "('",
        "?"
      ],
      [
        ", 1",
        "86"
      ],
      [
        ", 1",
        "84"
      ],
      [
        ", 2",
        "34"
      ],
      [
        ", 2",
        "42"
      ],
      [
        "('a",
        "nt"
      ],
      [
        "ra",
        "v"
      ],
      [
        "es",
        "p"
      ],
      [
        "a', (1",
        "1"
      ],
      [
        "('A",
        "', (1"
      ],
      [
        "e",
        "ç"
      ],
      [
        ", ",
        "34"
      ],
      [
        ", ",
        "36"
      ],
      [
        ", 1",
        "34"
      ],
      [
        ", 1",
        "65"
      ],
      [
        "er",
        "n"
      ],
      [
        "(',', (2",
        "0"
      ],
      [
        "('E",
        "', (2"
      ],
      [
        "3",
        ", 20"
      ],
      [
        ", ",
        "85"
      ],
      [
        ", ",
        "90"
      ],
      [
        "('",
        "('"
      ],
      [
        ", 2",
        "35"
      ],
      [
        ", 2",
        "86"
      ],
      [
        ", 2",
        "94"
      ],
      [
        "('('",
        ", ("
      ],
      [
        "3",
        "37"
      ],
      [
        ", ",
        "81"
      ],
      [
        "('",
        ")"
      ],
      [
        "('",
        "ri"
      ],
      [
        ", 1",
        "45"
      ],
      [
        ", 1",
        "42"
      ],
      [
        ", 2",
        "84"
      ],
      [
        ", 2",
        "60"
      ],
      [
        "('s",
        "eus"
      ],
      [
        "('c",
        "r"
      ],
      [
        "or",
        "', (2"
      ],
      [
        "('com",
        "', (2"
      ],
      [
        "('por",
        "', (2"
      ],
      [
        "('ar",
        "m"
      ],
      [
        ", 1",
        "61"
      ],
      [
        ", 1",
        "60"
      ],
      [
        ", 2",
        "76"
      ],
      [
        ", 2",
        "36"
      ],
      [
        "('l",
        "ev"
      ],
      [
        ", ",
        "51"
      ],
      [
        ", ",
        "50"
      ],
      [
        "('",
        "im"
      ],
      [
        ", 1",
        "92"
      ],
      [
        ", 2",
        "81"
      ],
      [
        ", 2",
        "65"
      ],
      [
        "('á",
        "gu"
      ],
      [
        "3",
        ", 10"
      ],
      [
        "('",
        "H"
      ],
      [
        ", 2",
        "31"
      ],
      [
        ", 2",
        "50"
      ],
      [
        "a', (1",
        "0"
      ],
      [
        "('f",
        "am"
      ],
      [
        "ad",
        "a', (2"
      ],
      [
        "('lh",
        "e', (1"
      ],
      [
        ", 1",
        "91"
      ],
      [
        "('t",
        "om"
      ],
      [
        "('A",
        "', (2"
      ],
      [
        "un",
        "t"
      ],
      [
        "3",
        ", 12"
      ],
      [
        "5",
        "37"
      ],
      [
        "l",
        "h"
      ],
      [
        "al",
        "', (1"
      ],
      [
        "('ou",
        "tr"
      ],
      [
        "ol",
        "h"
      ],
      [
        "4",
        "64"
      ],
      [
        "8",
        "39"
      ],
      [
        ", 1",
        "62"
      ],
      [
        "('d",
        "el"
      ],
      [
        "('m",
        "and"
      ],
      [
        "9",
        "87"
      ],
      [
        "a",
        "p"
      ],
      [
        ", 2",
        "82"
      ],
      [
        "ra",
        "s', (2"
      ],
      [
        "or",
        "n"
      ],
      [
        "us",
        "t"
      ],
      [
        "e",
        "p"
      ],
      [
        ", 1",
        "82"
      ],
      [
        "ra",
        "ç"
      ],
      [
        "('c",
        "am"
      ],
      [
        "('p",
        "eit"
      ],
      [
        "('f",
        "ilh"
      ],
      [
        "end",
        "o', ("
      ],
      [
        "3",
        ", 11"
      ],
      [
        "3",
        ", 22"
      ],
      [
        "3",
        "88"
      ],
      [
        "('a",
        "s', ("
      ],
      [
        "am",
        "b"
      ],
      [
        ", 31",
        "2"
      ],
      [
        "emp",
        "r"
      ],
      [
        "7",
        "99"
      ],
      [
        "or",
        "', (1"
      ],
      [
        "on",
        "g"
      ],
      [
        "('lh",
        "e', ("
      ],
      [
        "8",
        "89"
      ],
      [
        "9",
        "88"
      ],
      [
        "('d",
        "a', ("
      ],
      [
        "ad",
        "a', ("
      ],
      [
        "('mu",
        "nd"
      ],
      [
        "7",
        "89"
      ],
      [
        "7",
        "87"
      ],
      [
        "9",
        "37"
      ],
      [
        "9",
        "77"
      ],
      [
        "('",
        "»"
      ],
      [
        "('f",
        "al"
      ],
      [
        "('que', (",
        "30"
      ],
      [
        "4",
        "66"
      ],
      [
        "6",
        "37"
      ],
      [
        "('",
        "ob"
      ],
      [
        "('t",
        "emp"
      ],
      [
        "('v",
        "en"
      ],
      [
        "av",
        "a', ("
      ],
      [
        "d",
        "ad"
      ],
      [
        "á",
        "ri"
      ],
      [
        "a', (2",
        "2"
      ],
      [
        "('v",
        "ê"
      ],
      [
        "('D",
        "e', ("
      ],
      [
        "era",
        "', ("
      ],
      [
        "e",
        "f"
      ],
      [
        "u",
        "g"
      ],
      [
        "('n",
        "om"
      ],
      [
        "('M",
        "our"
      ],
      [
        "5",
        "44"
      ],
      [
        "7",
        "39"
      ],
      [
        "('s",
        "eg"
      ],
      [
        "('m",
        "ort"
      ],
      [
        "ei",
        "x"
      ],
      [
        "id",
        "o', ("
      ],
      [
        "('M",
        "as', (2"
      ],
      [
        "3",
        ", 21"
      ],
      [
        "6",
        "87"
      ],
      [
        "6",
        "39"
      ],
      [
        "6",
        "77"
      ],
      [
        "7",
        "37"
      ],
      [
        "8",
        "37"
      ],
      [
        "8",
        "87"
      ],
      [
        "ad",
        "a', (1"
      ],
      [
        "is",
        "s"
      ],
      [
        "('des",
        "p"
      ],
      [
        "6",
        "89"
      ],
      [
        "9",
        "39"
      ],
      [
        "e', (1",
        "1"
      ],
      [
        "('c",
        "u"
      ],
      [
        "or",
        "r"
      ],
      [
        "('v",
        "ent"
      ],
      [
        "('des",
        "t"
      ],
      [
        "9",
        "89"
      ],
      [
        "e', (1",
        "2"
      ],
      [
        "('c",
        "l"
      ],
      [
        "er",
        "c"
      ],
      [
        "('O",
        "', ("
      ],
      [
        "av",
        "a', (2"
      ],
      [
        "4",
        "77"
      ],
      [
        "9",
        "38"
      ],
      [
        "('l",
        "ong"
      ],
      [
        "ou",
        "c"
      ],
      [
        "era",
        "', (1"
      ],
      [
        "eu",
        "', (1"
      ],
      [
        "5",
        "64"
      ],
      [
        "7",
        "88"
      ],
      [
        "('a",
        "b"
      ],
      [
        "('A",
        "', ("
      ],
      [
        ", 31",
        "1"
      ],
      [
        "('j",
        "á', (1"
      ],
      [
        "('ter",
        "ra', (1"
      ],
      [
        "4",
        "89"
      ],
      [
        "5",
        "89"
      ],
      [
        "7",
        "33"
      ],
      [
        "8",
        "33"
      ],
      [
        "s",
        "p"
      ],
      [
        "('f",
        "r"
      ],
      [
        "id",
        "o', (2"
      ],
      [
        "('L",
        "us"
      ],
      [
        "4",
        "37"
      ],
      [
        "8",
        "38"
      ],
      [
        "o",
        "p"
      ],
      [
        "('",
        "U"
      ],
      [
        "('f",
        "orç"
      ],
      [
        "4",
        "87"
      ],
      [
        "ê",
        "nci"
      ],
      [
        "('m",
        "ar', (1"
      ],
      [
        ", 31",
        "0"
      ],
      [
        "('mu",
        "it"
      ],
      [
        "7",
        "38"
      ],
      [
        "9",
        "33"
      ],
      [
        "9",
        "79"
      ],
      [
        "9",
        "3, "
      ],
      [
        "u",
        "', ("
      ],
      [
        "as",
        "', (30"
      ],
      [
        "er",
        "', ("
      ],
      [
        "('t",
        "em"
      ],
      [
        "ar",
        "ec"
      ],
      [
        "os', (2",
        "2"
      ],
      [
        "('E",
        "n"
      ],
      [
        "('des",
        "c"
      ],
      [
        "('h",
        "um"
      ],
      [
        "('en",
        "g"
      ],
      [
        "5",
        "66"
      ],
      [
        "6",
        "79"
      ],
      [
        "9",
        ", 21"
      ],
      [
        "e', (2",
        "0"
      ],
      [
        "a', (1",
        "2"
      ],
      [
        "('C",
        "é"
      ],
      [
        "('mais",
        "', (1"
      ],
      [
        "7",
        ", 30"
      ],
      [
        "8",
        ", 21"
      ],
      [
        "ra",
        "s', ("
      ],
      [
        "('n",
        "o', (2"
      ],
      [
        "ou",
        "', (1"
      ],
      [
        "amb",
        "é"
      ],
      [
        "4",
        "88"
      ],
      [
        "6",
        "99"
      ],
      [
        "8",
        ", 30"
      ],
      [
        "91",
        "0"
      ],
      [
        "('v",
        "i"
      ],
      [
        "5",
        "77"
      ],
      [
        "5",
        "99"
      ],
      [
        "9",
        "78"
      ],
      [
        "a",
        "us"
      ],
      [
        "u",
        "ra', (1"
      ],
      [
        "('",
        "ra"
      ],
      [
        "('p",
        "ouc"
      ],
      [
        "('n",
        "ov"
      ],
      [
        "('com",
        "p"
      ],
      [
        "end",
        "o', (2"
      ],
      [
        "8",
        ", 10"
      ],
      [
        "9",
        ", 12"
      ],
      [
        "é",
        "r"
      ],
      [
        "('s",
        "empr"
      ],
      [
        "or",
        "', ("
      ],
      [
        "('N",
        "ão', (1"
      ],
      [
        "av",
        "a', (1"
      ],
      [
        "('j",
        "á', (2"
      ],
      [
        "un",
        "c"
      ],
      [
        "7",
        ", 11"
      ],
      [
        "8",
        ", 20"
      ],
      [
        "8",
        "3, 1"
      ],
      [
        "9",
        ", 30"
      ],
      [
        "u",
        "z"
      ],
      [
        "('qu",
        "em', (1"
      ],
      [
        "('in",
        "d"
      ],
      [
        "\"",
        "'"
      ],
      [
        "\"",
        ", ("
      ],
      [
        "(",
        "\"'"
      ],
      [
        "4",
        "79"
      ],
      [
        "u",
        "', (2"
      ],
      [
        "í",
        "ci"
      ],
      [
        "74",
        "2"
      ],
      [
        "71",
        "0"
      ],
      [
        "e', (1",
        "0"
      ],
      [
        "an",
        "o', ("
      ],
      [
        "us",
        "tr"
      ],
      [
        "('com",
        "', (1"
      ],
      [
        "('des",
        "ej"
      ],
      [
        "(\"'",
        "\", ("
      ],
      [
        "5",
        "87"
      ],
      [
        "9",
        ", 11"
      ],
      [
        "9",
        ", 20"
      ],
      [
        "('a",
        "g"
      ],
      [
        "('c",
        "ost"
      ],
      [
        "end",
        "o', (1"
      ],
      [
        "('gent",
        "e', ("
      ],
      [
        "4",
        "39"
      ],
      [
        "6",
        "97"
      ],
      [
        "80",
        "6)) \n"
      ],
      [
        "70",
        "0"
      ],
      [
        "35",
        "0"
      ],
      [
        "os",
        "', (30"
      ],
      [
        "82",
        "0"
      ],
      [
        "('s",
        "ob"
      ],
      [
        "('M",
        "as', (1"
      ],
      [
        "('Rei",
        "n"
      ],
      [
        "(':",
        "', (1"
      ],
      [
        "('gu",
        "er"
      ],
      [
        "5",
        "33"
      ],
      [
        "6",
        "88"
      ],
      [
        "i",
        "o', (2"
      ],
      [
        "75",
        "0"
      ],
      [
        "e', (2",
        "2"
      ],
      [
        "('d",
        "os', (2"
      ],
      [
        "er",
        "', (1"
      ],
      [
        "('m",
        "ar"
      ],
      [
        "('O",
        "', (1"
      ],
      [
        "('O",
        "nd"
      ],
      [
        "('di",
        "z"
      ],
      [
        "('ven",
        "c"
      ],
      [
        "7",
        ", 12"
      ],
      [
        "8",
        ", 22"
      ],
      [
        ", 2",
        "55"
      ],
      [
        "76",
        "0"
      ],
      [
        "84",
        "1"
      ],
      [
        "al",
        "', ("
      ],
      [
        "('r",
        "ec"
      ],
      [
        "um",
        "', (1"
      ],
      [
        "('con",
        "s"
      ],
      [
        "4",
        "33"
      ],
      [
        "4",
        "78"
      ],
      [
        "5",
        "46"
      ],
      [
        "5",
        "9, "
      ],
      [
        "6",
        "78"
      ],
      [
        "7",
        ", 20"
      ],
      [
        "7",
        "3, "
      ],
      [
        "s",
        "', (30"
      ],
      [
        "80",
        "0"
      ],
      [
        "81",
        "2)) \n"
      ],
      [
        "76",
        "1"
      ],
      [
        "34",
        "2"
      ],
      [
        "('d",
        "eix"
      ],
      [
        "('t",
        "ud"
      ],
      [
        "ad",
        "os', (1"
      ],
      [
        "im",
        "ent"
      ],
      [
        "('en",
        "f"
      ],
      [
        "('su",
        "b"
      ],
      [
        "5",
        "39"
      ],
      [
        "5",
        "78"
      ],
      [
        "5",
        "97"
      ],
      [
        "90",
        "0"
      ],
      [
        "('ant",
        "ig"
      ],
      [
        "4",
        "99"
      ],
      [
        "4",
        "38"
      ],
      [
        "6",
        "38"
      ],
      [
        "96",
        "2"
      ],
      [
        "72",
        "0)) \n"
      ],
      [
        "85",
        "0"
      ],
      [
        "90",
        "8)) \n"
      ],
      [
        "91",
        "2"
      ],
      [
        "94",
        "1"
      ],
      [
        "36",
        "2"
      ],
      [
        "('s",
        "ab"
      ],
      [
        "('v",
        "id"
      ],
      [
        "('por",
        "', ("
      ],
      [
        "('Lus",
        "it"
      ],
      [
        "4",
        "98"
      ],
      [
        "8",
        "3, 2"
      ],
      [
        "95",
        "0"
      ],
      [
        "32",
        "1)) \n"
      ],
      [
        "96",
        "1"
      ],
      [
        "85",
        "2"
      ],
      [
        "75",
        "1"
      ],
      [
        "71",
        "1"
      ],
      [
        "94",
        "3)) \n"
      ],
      [
        "e', (2",
        "1"
      ],
      [
        "37",
        "6)) \n"
      ],
      [
        "('t",
        "ão', (1"
      ],
      [
        "('m",
        "ost"
      ],
      [
        "('n",
        "unc"
      ],
      [
        "ar",
        "g"
      ],
      [
        "('.",
        "', (30"
      ],
      [
        "ou",
        "s"
      ],
      [
        "4",
        ", 11"
      ],
      [
        "7",
        ", 21"
      ],
      [
        "7",
        ", 22"
      ],
      [
        ", ",
        "55"
      ],
      [
        "96",
        "0"
      ],
      [
        "90",
        "1"
      ],
      [
        "81",
        "1"
      ],
      [
        "82",
        "2"
      ],
      [
        "('a",
        "n"
      ],
      [
        "('a",
        "v"
      ],
      [
        "40",
        "0"
      ],
      [
        "('c",
        "ert"
      ],
      [
        "87",
        "3)) \n"
      ],
      [
        "('t",
        "ão', ("
      ],
      [
        "('t",
        "ambé"
      ],
      [
        "or",
        "m"
      ],
      [
        "('v",
        "al"
      ],
      [
        "('P",
        "ort"
      ],
      [
        "7",
        "3, 2"
      ],
      [
        "7",
        "3, 1"
      ],
      [
        "i",
        "ç"
      ],
      [
        "80",
        "4)) \n"
      ],
      [
        "95",
        "1"
      ],
      [
        "96",
        "2)) \n"
      ],
      [
        "35",
        "2"
      ],
      [
        "35",
        "1)) \n"
      ],
      [
        "85",
        "8)) \n"
      ],
      [
        "82",
        "1"
      ],
      [
        "ar",
        "d"
      ],
      [
        "in",
        "g"
      ],
      [
        "ap",
        "it"
      ],
      [
        "5",
        "79"
      ],
      [
        "5",
        "98"
      ],
      [
        "6",
        "33"
      ],
      [
        "9",
        ", 10"
      ],
      [
        "9",
        ", 22"
      ],
      [
        "('",
        "olh"
      ],
      [
        "30",
        "0"
      ],
      [
        "80",
        "2"
      ],
      [
        "35",
        "1"
      ],
      [
        "74",
        "1"
      ],
      [
        "92",
        "0"
      ],
      [
        "92",
        "2"
      ],
      [
        "76",
        "0)) \n"
      ],
      [
        "84",
        "5)) \n"
      ],
      [
        "('a",
        "qu"
      ],
      [
        "('p",
        "ov"
      ],
      [
        "37",
        "2)) \n"
      ],
      [
        "87",
        "2)) \n"
      ],
      [
        "('t",
        "inh"
      ],
      [
        "('l",
        "og"
      ],
      [
        "('mais",
        "', (2"
      ],
      [
        "6",
        ", 30"
      ],
      [
        "8",
        ", 12"
      ],
      [
        "8",
        ", 11"
      ],
      [
        "8",
        "3, "
      ],
      [
        "b",
        "alh"
      ],
      [
        "31",
        "3)) \n"
      ],
      [
        "80",
        "1)) \n"
      ],
      [
        "35",
        "2)) \n"
      ],
      [
        "75",
        "0)) \n"
      ],
      [
        "86",
        "0"
      ],
      [
        "86",
        "2"
      ],
      [
        "76",
        "2"
      ],
      [
        "84",
        "0"
      ],
      [
        "94",
        "5)) \n"
      ],
      [
        "34",
        "1"
      ],
      [
        "89",
        "4)) \n"
      ],
      [
        "88",
        "3)) \n"
      ],
      [
        "('n",
        "o', (1"
      ],
      [
        "('v",
        "oss"
      ],
      [
        "('O",
        "s', (1"
      ],
      [
        "('com",
        "', ("
      ],
      [
        "('I",
        "n"
      ],
      [
        "5",
        "9, 2"
      ],
      [
        "6",
        ", 21"
      ],
      [
        "6",
        "98"
      ],
      [
        "('",
        "il"
      ],
      [
        "95",
        "3)) \n"
      ],
      [
        "32",
        "2)) \n"
      ],
      [
        "72",
        "1"
      ],
      [
        "74",
        "8)) \n"
      ],
      [
        "75",
        "2"
      ],
      [
        "91",
        "1"
      ],
      [
        "81",
        "2"
      ],
      [
        "86",
        "1"
      ],
      [
        "36",
        "4)) \n"
      ],
      [
        "61",
        "2"
      ],
      [
        "41",
        "0"
      ],
      [
        "45",
        "0"
      ],
      [
        "er",
        "os"
      ],
      [
        "('t",
        "orn"
      ],
      [
        "('qu",
        "em', (2"
      ],
      [
        "('f",
        "eit"
      ],
      [
        "(',', (",
        "31"
      ],
      [
        "in",
        "t"
      ],
      [
        "('O",
        "u"
      ],
      [
        "('M",
        "as', ("
      ],
      [
        "('ou",
        "t"
      ],
      [
        "('Rei",
        "', ("
      ],
      [
        "4",
        ", 10"
      ],
      [
        "4",
        "97"
      ],
      [
        "4",
        "8, 2"
      ],
      [
        "5",
        "8, 2"
      ],
      [
        "9",
        "3, 1"
      ],
      [
        "á",
        "t"
      ],
      [
        "80",
        "1"
      ],
      [
        "95",
        "1)) \n"
      ],
      [
        "70",
        "2"
      ],
      [
        "32",
        "0"
      ],
      [
        "32",
        "2"
      ],
      [
        "35",
        "7)) \n"
      ],
      [
        "72",
        "2"
      ],
      [
        "74",
        "0"
      ],
      [
        "74",
        "2)) \n"
      ],
      [
        "81",
        "0)) \n"
      ],
      [
        "86",
        "5)) \n"
      ],
      [
        "92",
        "1"
      ],
      [
        "92",
        "0)) \n"
      ],
      [
        "94",
        "2"
      ],
      [
        "94",
        "0)) \n"
      ],
      [
        "('a",
        "j"
      ],
      [
        "40",
        "2"
      ],
      [
        "45",
        "1"
      ],
      [
        "42",
        "0"
      ],
      [
        "39",
        "3)) \n"
      ],
      [
        "('m",
        "an"
      ],
      [
        "('C",
        "r"
      ],
      [
        "il",
        "', (2"
      ],
      [
        "('in",
        "c"
      ],
      [
        "(':",
        "', (2"
      ],
      [
        "5",
        "88"
      ],
      [
        "6",
        ", 10"
      ],
      [
        "í",
        "ss"
      ],
      [
        "70",
        "1"
      ],
      [
        "74",
        "9)) \n"
      ],
      [
        "92",
        "9)) \n"
      ],
      [
        "36",
        "0"
      ],
      [
        "65",
        "1"
      ],
      [
        "41",
        "1"
      ],
      [
        "62",
        "2"
      ],
      [
        "89",
        "6)) \n"
      ],
      [
        "37",
        "5)) \n"
      ],
      [
        "37",
        "0)) \n"
      ],
      [
        "('n",
        "o', ("
      ],
      [
        "('A",
        "r"
      ],
      [
        "us",
        "c"
      ],
      [
        "('b",
        "el"
      ],
      [
        "5",
        "38"
      ],
      [
        "a",
        "i"
      ],
      [
        "é",
        "ri"
      ],
      [
        "95",
        "2"
      ],
      [
        "95",
        "6)) \n"
      ],
      [
        "70",
        "1)) \n"
      ],
      [
        "72",
        "6)) \n"
      ],
      [
        "91",
        "9)) \n"
      ],
      [
        "81",
        "0"
      ],
      [
        "81",
        "5)) \n"
      ],
      [
        "71",
        "0)) \n"
      ],
      [
        "86",
        "4)) \n"
      ],
      [
        "92",
        "1)) \n"
      ],
      [
        "84",
        "2"
      ],
      [
        "36",
        "7)) \n"
      ],
      [
        "82",
        "3)) \n"
      ],
      [
        "('a",
        "o', ("
      ],
      [
        "40",
        "1"
      ],
      [
        "62",
        "0"
      ],
      [
        "en",
        "s"
      ],
      [
        "52",
        "0"
      ],
      [
        "89",
        "2)) \n"
      ],
      [
        "87",
        "7)) \n"
      ],
      [
        "eg",
        "r"
      ],
      [
        "('ter",
        "ra', (2"
      ],
      [
        "('Por",
        "', (2"
      ],
      [
        "('hum",
        "an"
      ],
      [
        "3",
        "31)) \n"
      ],
      [
        "4",
        ", 21"
      ],
      [
        "4",
        "9, "
      ],
      [
        "6",
        "3, 2"
      ],
      [
        "6",
        "3, "
      ],
      [
        "7",
        ", 10"
      ],
      [
        "o",
        "z"
      ],
      [
        "u",
        "ra', (2"
      ],
      [
        ", 1",
        "55"
      ],
      [
        "31",
        "1)) \n"
      ],
      [
        "80",
        "8)) \n"
      ],
      [
        "80",
        "0)) \n"
      ],
      [
        "95",
        "5)) \n"
      ],
      [
        "74",
        "5)) \n"
      ],
      [
        "90",
        "9)) \n"
      ],
      [
        "71",
        "7)) \n"
      ],
      [
        "84",
        "0)) \n"
      ],
      [
        "36",
        "3)) \n"
      ],
      [
        "82",
        "1)) \n"
      ],
      [
        "62",
        "1"
      ],
      [
        "or",
        "es', (2"
      ],
      [
        "('f",
        "ic"
      ],
      [
        "os', (1",
        "2"
      ],
      [
        "('P",
        "r"
      ],
      [
        "('o', (",
        "30"
      ],
      [
        "ais",
        "', (1"
      ],
      [
        "('V",
        "ê"
      ],
      [
        "('ar",
        "d"
      ],
      [
        "('Por",
        "', (1"
      ],
      [
        "('tra",
        "z"
      ],
      [
        "ran",
        "h"
      ],
      [
        "5",
        ", 30"
      ],
      [
        "6",
        ", 12"
      ],
      [
        "m",
        "os"
      ],
      [
        ", 1",
        "44"
      ],
      [
        "95",
        "8)) \n"
      ],
      [
        "70",
        "2)) \n"
      ],
      [
        "70",
        "8)) \n"
      ],
      [
        "32",
        "7)) \n"
      ],
      [
        "96",
        "3)) \n"
      ],
      [
        "96",
        "8)) \n"
      ],
      [
        "72",
        "1)) \n"
      ],
      [
        "85",
        "1"
      ],
      [
        "85",
        "2)) \n"
      ],
      [
        "85",
        "1)) \n"
      ],
      [
        "75",
        "7)) \n"
      ],
      [
        "90",
        "0)) \n"
      ],
      [
        "71",
        "2"
      ],
      [
        "34",
        "0)) \n"
      ],
      [
        "34",
        "1)) \n"
      ],
      [
        "es",
        "', (30"
      ],
      [
        "61",
        "1"
      ],
      [
        "60",
        "0"
      ],
      [
        "60",
        "2"
      ],
      [
        "('s",
        "om"
      ],
      [
        "('c",
        "as"
      ],
      [
        "52",
        "1"
      ],
      [
        "51",
        "1"
      ],
      [
        "39",
        "6)) \n"
      ],
      [
        "77",
        "6)) \n"
      ],
      [
        "88",
        "4)) \n"
      ],
      [
        "99",
        "1)) \n"
      ],
      [
        "('v",
        "ist"
      ],
      [
        "('A",
        "ss"
      ],
      [
        "('O",
        "s', (2"
      ],
      [
        "('Rei",
        "', (2"
      ],
      [
        "('di",
        "v"
      ],
      [
        "('tra",
        "balh"
      ],
      [
        "('ent",
        "r"
      ],
      [
        "('enf",
        "im"
      ],
      [
        ", ",
        "44"
      ],
      [
        "('",
        "ü"
      ],
      [
        "95",
        "9)) \n"
      ],
      [
        "70",
        "9)) \n"
      ],
      [
        "32",
        "1"
      ],
      [
        "32",
        "0)) \n"
      ],
      [
        "72",
        "0"
      ],
      [
        "72",
        "7)) \n"
      ],
      [
        "75",
        "3)) \n"
      ],
      [
        "81",
        "6)) \n"
      ],
      [
        "81",
        "7)) \n"
      ],
      [
        "92",
        "2)) \n"
      ],
      [
        "92",
        "7)) \n"
      ],
      [
        "76",
        "8)) \n"
      ],
      [
        "94",
        "0"
      ],
      [
        "34",
        "6)) \n"
      ],
      [
        "34",
        "9)) \n"
      ],
      [
        "34",
        "2)) \n"
      ],
      [
        "34",
        "5)) \n"
      ],
      [
        "36",
        "1)) \n"
      ],
      [
        "o', (2",
        "10"
      ],
      [
        "61",
        "0"
      ],
      [
        "42",
        "2"
      ],
      [
        "('p",
        "rim"
      ],
      [
        "89",
        "5)) \n"
      ],
      [
        "39",
        "4)) \n"
      ],
      [
        "39",
        "8)) \n"
      ],
      [
        "('t",
        "ão', (2"
      ],
      [
        "('qu",
        "ant"
      ],
      [
        "33",
        "3)) \n"
      ],
      [
        "('n",
        "a', (2"
      ],
      [
        "38",
        "6)) \n"
      ],
      [
        "83",
        "2)) \n"
      ],
      [
        "('gent",
        "e', (2"
      ],
      [
        "('Com",
        "', (2"
      ],
      [
        "('ver",
        "dad"
      ],
      [
        "('cor",
        "r"
      ],
      [
        "4",
        ", 22"
      ],
      [
        "5",
        ", 12"
      ],
      [
        "5",
        "8, "
      ],
      [
        ", ",
        "66"
      ],
      [
        "80",
        "2)) \n"
      ],
      [
        "70",
        "6)) \n"
      ],
      [
        "90",
        "3)) \n"
      ],
      [
        "86",
        "9)) \n"
      ],
      [
        "76",
        "5)) \n"
      ],
      [
        "36",
        "8)) \n"
      ],
      [
        "82",
        "0)) \n"
      ],
      [
        "('a",
        "d"
      ],
      [
        "ra",
        "r"
      ],
      [
        "65",
        "0"
      ],
      [
        "89",
        "0)) \n"
      ],
      [
        "37",
        "9)) \n"
      ],
      [
        "37",
        "1)) \n"
      ],
      [
        "87",
        "9)) \n"
      ],
      [
        "('n",
        "obr"
      ],
      [
        "ri",
        "t"
      ],
      [
        "('g",
        "l"
      ],
      [
        "83",
        "9)) \n"
      ],
      [
        "('al",
        "g"
      ],
      [
        "ais",
        "', (2"
      ],
      [
        "('gent",
        "e', (1"
      ],
      [
        "idad",
        "e', (2"
      ],
      [
        "5",
        ", 22"
      ],
      [
        "5",
        "3, 1"
      ],
      [
        "6",
        ", 20"
      ],
      [
        "('",
        "ir"
      ],
      [
        ", 1",
        "64"
      ],
      [
        ", 2",
        "66"
      ],
      [
        ", 2",
        "64"
      ],
      [
        "30",
        "4)) \n"
      ],
      [
        "30",
        "5)) \n"
      ],
      [
        "31",
        "6)) \n"
      ],
      [
        "31",
        "7)) \n"
      ],
      [
        "32",
        "3)) \n"
      ],
      [
        "32",
        "5)) \n"
      ],
      [
        "96",
        "6)) \n"
      ],
      [
        "74",
        "3)) \n"
      ],
      [
        "74",
        "1)) \n"
      ],
      [
        "85",
        "4)) \n"
      ],
      [
        "75",
        "9)) \n"
      ],
      [
        "90",
        "2"
      ],
      [
        "91",
        "3)) \n"
      ],
      [
        "91",
        "5)) \n"
      ],
      [
        "86",
        "3)) \n"
      ],
      [
        "76",
        "6)) \n"
      ],
      [
        "76",
        "9)) \n"
      ],
      [
        "84",
        "9)) \n"
      ],
      [
        "36",
        "1"
      ],
      [
        "82",
        "4)) \n"
      ],
      [
        "('a",
        "', (30"
      ],
      [
        "42",
        "1"
      ],
      [
        "('p",
        "al"
      ],
      [
        "51",
        "0"
      ],
      [
        "50",
        "0"
      ],
      [
        "87",
        "5)) \n"
      ],
      [
        "88",
        "9)) \n"
      ],
      [
        "38",
        "8)) \n"
      ],
      [
        "ri",
        "a', (2"
      ],
      [
        "as', (1",
        "2"
      ],
      [
        "('P",
        "el"
      ],
      [
        "('Por",
        "qu"
      ],
      [
        "eir",
        "o', (1"
      ],
      [
        "('cam",
        "p"
      ],
      [
        "4",
        ", 30"
      ],
      [
        "4",
        ", 20"
      ],
      [
        "4",
        "3, 1"
      ],
      [
        "4",
        "3, "
      ],
      [
        "5",
        ", 11"
      ],
      [
        "5",
        "3, 2"
      ],
      [
        "6",
        "9, "
      ],
      [
        "6",
        "8, "
      ],
      [
        "u",
        "gu"
      ],
      [
        "('",
        "ó"
      ],
      [
        ", 1",
        "66"
      ],
      [
        "30",
        "6)) \n"
      ],
      [
        "30",
        "3)) \n"
      ],
      [
        "31",
        "2)) \n"
      ],
      [
        "31",
        "8)) \n"
      ],
      [
        "70",
        "4)) \n"
      ],
      [
        "32",
        "8)) \n"
      ],
      [
        "96",
        "5)) \n"
      ],
      [
        "72",
        "9)) \n"
      ],
      [
        "85",
        "5)) \n"
      ],
      [
        "75",
        "4)) \n"
      ],
      [
        "90",
        "4)) \n"
      ],
      [
        "91",
        "6)) \n"
      ],
      [
        "71",
        "5)) \n"
      ],
      [
        "86",
        "0)) \n"
      ],
      [
        "76",
        "4)) \n"
      ],
      [
        "76",
        "2)) \n"
      ],
      [
        "84",
        "6)) \n"
      ],
      [
        "84",
        "1)) \n"
      ],
      [
        "34",
        "0"
      ],
      [
        "41",
        "2"
      ],
      [
        "37",
        "3)) \n"
      ],
      [
        "('qu",
        "er"
      ],
      [
        "('n",
        "a', ("
      ],
      [
        "('v",
        "a"
      ],
      [
        "('D",
        "o', (1"
      ],
      [
        "93",
        "5)) \n"
      ],
      [
        "83",
        "3)) \n"
      ],
      [
        "eu",
        "', (2"
      ],
      [
        "('Com",
        "', ("
      ],
      [
        "('Port",
        "ugu"
      ],
      [
        "('il",
        "ustr"
      ],
      [
        "íss",
        "im"
      ],
      [
        "5",
        ", 20"
      ],
      [
        "5",
        "3, "
      ],
      [
        "6",
        ", 22"
      ],
      [
        "á",
        "b"
      ],
      [
        ", 2",
        "44"
      ],
      [
        "30",
        "1"
      ],
      [
        "32",
        "6)) \n"
      ],
      [
        "32",
        "4)) \n"
      ],
      [
        "96",
        "9)) \n"
      ],
      [
        "96",
        "1)) \n"
      ],
      [
        "74",
        "4)) \n"
      ],
      [
        "85",
        "9)) \n"
      ],
      [
        "90",
        "7)) \n"
      ],
      [
        "91",
        "4)) \n"
      ],
      [
        "91",
        "2)) \n"
      ],
      [
        "81",
        "9)) \n"
      ],
      [
        "86",
        "6)) \n"
      ],
      [
        "92",
        "3)) \n"
      ],
      [
        "94",
        "1)) \n"
      ],
      [
        "34",
        "3)) \n"
      ],
      [
        "36",
        "6)) \n"
      ],
      [
        "82",
        "6)) \n"
      ],
      [
        "60",
        "1"
      ],
      [
        "51",
        "2"
      ],
      [
        "50",
        "1"
      ],
      [
        "89",
        "9)) \n"
      ],
      [
        "89",
        "7)) \n"
      ],
      [
        "87",
        "1)) \n"
      ],
      [
        "39",
        "2)) \n"
      ],
      [
        "39",
        "1)) \n"
      ],
      [
        "99",
        "9)) \n"
      ],
      [
        "33",
        "5)) \n"
      ],
      [
        "79",
        "4)) \n"
      ],
      [
        "38",
        "5)) \n"
      ],
      [
        "('v",
        "ó"
      ],
      [
        "97",
        "5)) \n"
      ],
      [
        "os', (1",
        "0"
      ],
      [
        "('A",
        "f"
      ],
      [
        "('A",
        "s', (1"
      ],
      [
        "eu",
        "', ("
      ],
      [
        "('mais",
        "', ("
      ],
      [
        "('fer",
        "mos"
      ],
      [
        "('comp",
        "anh"
      ],
      [
        "0",
        "8, 2"
      ],
      [
        "5",
        "7, 1"
      ],
      [
        "6",
        "9, 2"
      ],
      [
        "â",
        "n"
      ],
      [
        "('",
        "us"
      ],
      [
        "30",
        "2)) \n"
      ],
      [
        "30",
        "0)) \n"
      ],
      [
        "80",
        "3)) \n"
      ],
      [
        "95",
        "7)) \n"
      ],
      [
        "72",
        "4)) \n"
      ],
      [
        "72",
        "5)) \n"
      ],
      [
        "75",
        "2)) \n"
      ],
      [
        "91",
        "7)) \n"
      ],
      [
        "91",
        "1)) \n"
      ],
      [
        "71",
        "3)) \n"
      ],
      [
        "92",
        "4)) \n"
      ],
      [
        "94",
        "4)) \n"
      ],
      [
        "94",
        "9)) \n"
      ],
      [
        "94",
        "2)) \n"
      ],
      [
        "34",
        "4)) \n"
      ],
      [
        "65",
        "2"
      ],
      [
        "88",
        "6)) \n"
      ],
      [
        "33",
        "6)) \n"
      ],
      [
        "33",
        "4)) \n"
      ],
      [
        "33",
        "7)) \n"
      ],
      [
        "79",
        "0)) \n"
      ],
      [
        "38",
        "4)) \n"
      ],
      [
        "38",
        "0)) \n"
      ],
      [
        "ad",
        "os', ("
      ],
      [
        "98",
        "7)) \n"
      ],
      [
        "('C",
        "apit"
      ],
      [
        "93",
        "4)) \n"
      ],
      [
        "93",
        "9)) \n"
      ],
      [
        "('M",
        "a"
      ],
      [
        "('que', (2",
        "2"
      ],
      [
        "('e', (",
        "30"
      ],
      [
        "('fo",
        "g"
      ],
      [
        "('um",
        "', (1"
      ],
      [
        "('!",
        "', (1"
      ],
      [
        "5",
        "9, 1"
      ],
      [
        "6",
        "3, 1"
      ],
      [
        "30",
        "7)) \n"
      ],
      [
        "30",
        "1)) \n"
      ],
      [
        "31",
        "0)) \n"
      ],
      [
        "70",
        "7)) \n"
      ],
      [
        "70",
        "5)) \n"
      ],
      [
        "96",
        "4)) \n"
      ],
      [
        "35",
        "9)) \n"
      ],
      [
        "85",
        "7)) \n"
      ],
      [
        "81",
        "8)) \n"
      ],
      [
        "71",
        "1)) \n"
      ],
      [
        "86",
        "8)) \n"
      ],
      [
        "92",
        "8)) \n"
      ],
      [
        "76",
        "3)) \n"
      ],
      [
        "94",
        "7)) \n"
      ],
      [
        "94",
        "8)) \n"
      ],
      [
        "36",
        "0)) \n"
      ],
      [
        "82",
        "9)) \n"
      ],
      [
        "('a",
        "o', (1"
      ],
      [
        "('a",
        "o', (2"
      ],
      [
        "o', (",
        "31"
      ],
      [
        "65",
        "0)) \n"
      ],
      [
        "45",
        "2"
      ],
      [
        "52",
        "2"
      ],
      [
        "89",
        "8)) \n"
      ],
      [
        "37",
        "7)) \n"
      ],
      [
        "87",
        "8)) \n"
      ],
      [
        "a', (",
        "31"
      ],
      [
        "('m",
        "ar', (2"
      ],
      [
        "88",
        "0)) \n"
      ],
      [
        "97",
        "6)) \n"
      ],
      [
        "os', (2",
        "1"
      ],
      [
        "('l",
        "arg"
      ],
      [
        "93",
        "2)) \n"
      ],
      [
        "as', (1",
        "0"
      ],
      [
        "('b",
        "usc"
      ],
      [
        "('ter",
        "ra', ("
      ],
      [
        "('um",
        "', (2"
      ],
      [
        "('per",
        "d"
      ],
      [
        "('ch",
        "am"
      ],
      [
        "('cl",
        "ar"
      ],
      [
        "0",
        "8, "
      ],
      [
        "1",
        "8, "
      ],
      [
        "4",
        "3, 2"
      ],
      [
        "9",
        "3, 2"
      ],
      [
        ", ",
        "64"
      ],
      [
        "95",
        "0)) \n"
      ],
      [
        "35",
        "4)) \n"
      ],
      [
        "85",
        "3)) \n"
      ],
      [
        "75",
        "8)) \n"
      ],
      [
        "81",
        "1)) \n"
      ],
      [
        "84",
        "3)) \n"
      ],
      [
        "82",
        "2)) \n"
      ],
      [
        "('d",
        "ou"
      ],
      [
        "('s",
        "enh"
      ],
      [
        "('c",
        "ar"
      ],
      [
        "87",
        "0)) \n"
      ],
      [
        "39",
        "7)) \n"
      ],
      [
        "('qu",
        "em', ("
      ],
      [
        "88",
        "8)) \n"
      ],
      [
        "33",
        "8)) \n"
      ],
      [
        "('n",
        "a', (1"
      ],
      [
        "('n",
        "av"
      ],
      [
        "38",
        "9)) \n"
      ],
      [
        "38",
        "7)) \n"
      ],
      [
        "('v",
        "ári"
      ],
      [
        "ei",
        "', (1"
      ],
      [
        "78",
        "0)) \n"
      ],
      [
        "98",
        "0)) \n"
      ],
      [
        "on",
        "s"
      ],
      [
        "('O",
        "lh"
      ],
      [
        "('G",
        "am"
      ],
      [
        "ara",
        "m', (1"
      ],
      [
        "4",
        ", 12"
      ],
      [
        "4",
        "8, "
      ],
      [
        "6",
        ", 11"
      ],
      [
        "9",
        "30)) \n"
      ],
      [
        "í",
        "n"
      ],
      [
        "70",
        "3)) \n"
      ],
      [
        "70",
        "0)) \n"
      ],
      [
        "35",
        "5)) \n"
      ],
      [
        "72",
        "3)) \n"
      ],
      [
        "74",
        "7)) \n"
      ],
      [
        "85",
        "6)) \n"
      ],
      [
        "90",
        "1)) \n"
      ],
      [
        "81",
        "3)) \n"
      ],
      [
        "71",
        "4)) \n"
      ],
      [
        "71",
        "9)) \n"
      ],
      [
        "84",
        "4)) \n"
      ],
      [
        "36",
        "9)) \n"
      ],
      [
        "36",
        "5)) \n"
      ],
      [
        "('d",
        "er"
      ],
      [
        "('d",
        "ur"
      ],
      [
        "61",
        "8)) \n"
      ],
      [
        "89",
        "1)) \n"
      ],
      [
        "37",
        "8)) \n"
      ],
      [
        "er",
        "b"
      ],
      [
        "39",
        "5)) \n"
      ],
      [
        "or",
        "es', (1"
      ],
      [
        "33",
        "2)) \n"
      ],
      [
        "('n",
        "os', (1"
      ],
      [
        "78",
        "6)) \n"
      ],
      [
        "78",
        "1)) \n"
      ],
      [
        "('g",
        "r"
      ],
      [
        "ant",
        "o', (1"
      ],
      [
        "('Rei",
        "', (1"
      ],
      [
        "('grand",
        "e', (1"
      ],
      [
        "('ri",
        "c"
      ],
      [
        "('desp",
        "ois"
      ],
      [
        "('eng",
        "an"
      ],
      [
        "('Lusit",
        "an"
      ],
      [
        "c",
        "h"
      ],
      [
        "l",
        "im"
      ],
      [
        "31",
        "4)) \n"
      ],
      [
        "31",
        "5)) \n"
      ],
      [
        "35",
        "6)) \n"
      ],
      [
        "72",
        "8)) \n"
      ],
      [
        "75",
        "6)) \n"
      ],
      [
        "71",
        "6)) \n"
      ],
      [
        "92",
        "5)) \n"
      ],
      [
        "84",
        "2)) \n"
      ],
      [
        "('a",
        "nd"
      ],
      [
        "('p",
        "ra"
      ],
      [
        "('p",
        "ed"
      ],
      [
        "39",
        "0)) \n"
      ],
      [
        "88",
        "7)) \n"
      ],
      [
        "99",
        "0)) \n"
      ],
      [
        "('f",
        "ri"
      ],
      [
        "79",
        "6)) \n"
      ],
      [
        "79",
        "7)) \n"
      ],
      [
        "('v",
        "ir"
      ],
      [
        "os', (2",
        "0"
      ],
      [
        "is",
        "', (2"
      ],
      [
        "83",
        "8)) \n"
      ],
      [
        "('es",
        "f"
      ],
      [
        "as', (1",
        "1"
      ],
      [
        "73",
        "4)) \n"
      ],
      [
        "im",
        "ig"
      ],
      [
        "('S",
        "e', (2"
      ],
      [
        "('seu",
        "', ("
      ],
      [
        "('?",
        "', (1"
      ],
      [
        "('nav",
        "eg"
      ],
      [
        "1",
        "9, "
      ],
      [
        "2",
        "3, 1"
      ],
      [
        "4",
        "9, 2"
      ],
      [
        "r",
        "o', (2"
      ],
      [
        "('",
        "i"
      ],
      [
        "('",
        "er"
      ],
      [
        "31",
        "10"
      ],
      [
        "80",
        "9)) \n"
      ],
      [
        "95",
        "4)) \n"
      ],
      [
        "32",
        "9)) \n"
      ],
      [
        "96",
        "7)) \n"
      ],
      [
        "35",
        "8)) \n"
      ],
      [
        "90",
        "5)) \n"
      ],
      [
        "91",
        "8)) \n"
      ],
      [
        "71",
        "2)) \n"
      ],
      [
        "86",
        "7)) \n"
      ],
      [
        "86",
        "1)) \n"
      ],
      [
        "('a",
        "f"
      ],
      [
        "('a",
        "quel"
      ],
      [
        "40",
        "8)) \n"
      ],
      [
        "60",
        "3)) \n"
      ],
      [
        "('c",
        "o"
      ],
      [
        "('c",
        "ab"
      ],
      [
        "('p",
        "arec"
      ],
      [
        "77",
        "4)) \n"
      ],
      [
        "77",
        "1)) \n"
      ],
      [
        "('m",
        "at"
      ],
      [
        "88",
        "5)) \n"
      ],
      [
        "78",
        "2)) \n"
      ],
      [
        "98",
        "2)) \n"
      ],
      [
        "('D",
        "o', ("
      ],
      [
        "am",
        "ent"
      ],
      [
        "ant",
        "e', ("
      ],
      [
        "av",
        "al"
      ],
      [
        "era",
        "m', (1"
      ],
      [
        "('est",
        "ranh"
      ],
      [
        "('j",
        "á', ("
      ],
      [
        "('j",
        "unt"
      ],
      [
        "('per",
        "ig"
      ],
      [
        "0",
        "9, "
      ],
      [
        "4",
        "8, 1"
      ],
      [
        "5",
        "7, "
      ],
      [
        "6",
        "8, 2"
      ],
      [
        "30",
        "2"
      ],
      [
        "35",
        "0)) \n"
      ],
      [
        "75",
        "1)) \n"
      ],
      [
        "90",
        "2)) \n"
      ],
      [
        "86",
        "2)) \n"
      ],
      [
        "34",
        "7)) \n"
      ],
      [
        "82",
        "7)) \n"
      ],
      [
        "82",
        "8)) \n"
      ],
      [
        "65",
        "1)) \n"
      ],
      [
        "60",
        "2)) \n"
      ],
      [
        "87",
        "4)) \n"
      ],
      [
        "39",
        "9)) \n"
      ],
      [
        "('t",
        "em', (2"
      ],
      [
        "or",
        "d"
      ],
      [
        "77",
        "5)) \n"
      ],
      [
        "('m",
        "en"
      ],
      [
        "88",
        "1)) \n"
      ],
      [
        "38",
        "3)) \n"
      ],
      [
        "10",
        "1"
      ],
      [
        "10",
        "2"
      ],
      [
        "in",
        "a', (2"
      ],
      [
        "om",
        "p"
      ],
      [
        "('D",
        "est"
      ],
      [
        "is",
        "', (1"
      ],
      [
        "('A",
        "qu"
      ],
      [
        "ou",
        "v"
      ],
      [
        "(';",
        "', (30"
      ],
      [
        "('P",
        "era', (2"
      ],
      [
        "69",
        "6)) \n"
      ],
      [
        "73",
        "8)) \n"
      ],
      [
        "('in",
        "f"
      ],
      [
        "('L",
        "h"
      ],
      [
        "('ac",
        "h"
      ],
[...]
